{
  "version": "1.0",
  "truncation": null,
  "padding": null,
  "added_tokens": [
    {
      "id": 0,
      "content": "[UNK]",
      "single_word": false,
      "lstrip": false,
      "rstrip": false,
      "normalized": false,
      "special": true
    },
    {
      "id": 1,
      "content": "[CLS]",
      "single_word": false,
      "lstrip": false,
      "rstrip": false,
      "normalized": false,
      "special": true
    },
    {
      "id": 2,
      "content": "[SEP]",
      "single_word": false,
      "lstrip": false,
      "rstrip": false,
      "normalized": false,
      "special": true
    },
    {
      "id": 3,
      "content": "[PAD]",
      "single_word": false,
      "lstrip": false,
      "rstrip": false,
      "normalized": false,
      "special": true
    },
    {
      "id": 4,
      "content": "[MASK]",
      "single_word": false,
      "lstrip": false,
      "rstrip": false,
      "normalized": false,
      "special": true
    }
  ],
  "normalizer": null,
  "pre_tokenizer": {
    "type": "Whitespace"
  },
  "post_processor": null,
  "decoder": null,
  "model": {
    "type": "BPE",
    "dropout": null,
    "unk_token": "[UNK]",
    "continuing_subword_prefix": null,
    "end_of_word_suffix": null,
    "fuse_unk": false,
    "byte_fallback": false,
    "ignore_merges": false,
    "vocab": {
      "[UNK]": 0,
      "[CLS]": 1,
      "[SEP]": 2,
      "[PAD]": 3,
      "[MASK]": 4,
      "!": 5,
      "'": 6,
      "+": 7,
      ",": 8,
      "-": 9,
      ".": 10,
      "/": 11,
      "0": 12,
      "1": 13,
      "2": 14,
      "3": 15,
      "4": 16,
      "5": 17,
      "6": 18,
      "7": 19,
      "8": 20,
      "9": 21,
      ":": 22,
      ";": 23,
      "?": 24,
      "A": 25,
      "B": 26,
      "C": 27,
      "D": 28,
      "E": 29,
      "F": 30,
      "G": 31,
      "H": 32,
      "I": 33,
      "J": 34,
      "K": 35,
      "L": 36,
      "M": 37,
      "N": 38,
      "O": 39,
      "P": 40,
      "Q": 41,
      "R": 42,
      "S": 43,
      "T": 44,
      "U": 45,
      "V": 46,
      "W": 47,
      "X": 48,
      "Y": 49,
      "Z": 50,
      "_": 51,
      "a": 52,
      "b": 53,
      "c": 54,
      "d": 55,
      "e": 56,
      "f": 57,
      "g": 58,
      "h": 59,
      "i": 60,
      "j": 61,
      "k": 62,
      "l": 63,
      "m": 64,
      "n": 65,
      "o": 66,
      "p": 67,
      "q": 68,
      "r": 69,
      "s": 70,
      "t": 71,
      "u": 72,
      "v": 73,
      "w": 74,
      "x": 75,
      "y": 76,
      "z": 77,
      "Ä": 78,
      "Ü": 79,
      "ß": 80,
      "ä": 81,
      "ö": 82,
      "ü": 83,
      "“": 84,
      "„": 85,
      "en": 86,
      "er": 87,
      "in": 88,
      "ch": 89,
      "es": 90,
      "th": 91,
      "an": 92,
      "at": 93,
      "on": 94,
      "un": 95,
      "is": 96,
      "as": 97,
      "el": 98,
      "or": 99,
      "al": 100,
      "ti": 101,
      "ie": 102,
      "the": 103,
      "re": 104,
      "it": 105,
      "le": 106,
      "ein": 107,
      "et": 108,
      "st": 109,
      "ar": 110,
      "ich": 111,
      "od": 112,
      "us": 113,
      "ir": 114,
      "ge": 115,
      "we": 116,
      "ed": 117,
      "ing": 118,
      "and": 119,
      "gen": 120,
      "ra": 121,
      "ab": 122,
      "die": 123,
      "ur": 124,
      "to": 125,
      "den": 126,
      "ion": 127,
      "der": 128,
      "ten": 129,
      "und": 130,
      "te": 131,
      "ass": 132,
      "ro": 133,
      "ier": 134,
      "be": 135,
      "di": 136,
      "odel": 137,
      "em": 138,
      "ung": 139,
      "ex": 140,
      "ent": 141,
      "for": 142,
      "um": 143,
      "of": 144,
      "wir": 145,
      "im": 146,
      "il": 147,
      "ver": 148,
      "ist": 149,
      "ut": 150,
      "so": 151,
      "ig": 152,
      "am": 153,
      "au": 154,
      "ct": 155,
      "ation": 156,
      "sch": 157,
      "model": 158,
      "tion": 159,
      "se": 160,
      "per": 161,
      "zu": 162,
      "ly": 163,
      "if": 164,
      "lich": 165,
      "ter": 166,
      "lass": 167,
      "ve": 168,
      "ce": 169,
      "ber": 170,
      "ul": 171,
      "om": 172,
      "wer": 173,
      "Ver": 174,
      "ach": 175,
      "fü": 176,
      "pro": 177,
      "qu": 178,
      "ah": 179,
      "ess": 180,
      "An": 181,
      "no": 182,
      "aus": 183,
      "age": 184,
      "mit": 185,
      "eine": 186,
      "tra": 187,
      "her": 188,
      "dat": 189,
      "ens": 190,
      "ese": 191,
      "rel": 192,
      "von": 193,
      "me": 194,
      "form": 195,
      "ic": 196,
      "wen": 197,
      "that": 198,
      "atz": 199,
      "In": 200,
      "de": 201,
      "Dat": 202,
      "isch": 203,
      "ase": 204,
      "So": 205,
      "ne": 206,
      "ell": 207,
      "also": 208,
      "eren": 209,
      "are": 210,
      "pre": 211,
      "con": 212,
      "he": 213,
      "ho": 214,
      "ts": 215,
      "auf": 216,
      "dass": 217,
      "ungen": 218,
      "iel": 219,
      "tw": 220,
      "val": 221,
      "uns": 222,
      "fo": 223,
      "ith": 224,
      "pr": 225,
      "this": 226,
      "für": 227,
      "rele": 228,
      "ke": 229,
      "ap": 230,
      "des": 231,
      "arti": 232,
      "icht": 233,
      "Ar": 234,
      "aset": 235,
      "aben": 236,
      "das": 237,
      "dies": 238,
      "nen": 239,
      "ze": 240,
      "ang": 241,
      "all": 242,
      "hr": 243,
      "with": 244,
      "est": 245,
      "dataset": 246,
      "ple": 247,
      "can": 248,
      "class": 249,
      "wh": 250,
      "wor": 251,
      "ät": 252,
      "ind": 253,
      "als": 254,
      "rach": 255,
      "ate": 256,
      "Datens": 257,
      "Wir": 258,
      "oder": 259,
      "ally": 260,
      "Be": 261,
      "haben": 262,
      "ty": 263,
      "not": 264,
      "com": 265,
      "kel": 266,
      "sp": 267,
      "weis": 268,
      "fe": 269,
      "our": 270,
      "ann": 271,
      "ib": 272,
      "ma": 273,
      "men": 274,
      "pl": 275,
      "vor": 276,
      "gener": 277,
      "Sp": 278,
      "sen": 279,
      "hin": 280,
      "ere": 281,
      "tim": 282,
      "ck": 283,
      "ator": 284,
      "ask": 285,
      "ieren": 286,
      "igh": 287,
      "And": 288,
      "ad": 289,
      "fin": 290,
      "lang": 291,
      "su": 292,
      "ta": 293,
      "tr": 294,
      "ön": 295,
      "artic": 296,
      "Se": 297,
      "ble": 298,
      "kön": 299,
      "Model": 300,
      "bes": 301,
      "out": 302,
      "po": 303,
      "task": 304,
      "uf": 305,
      "uage": 306,
      "werden": 307,
      "Sprach": 308,
      "language": 309,
      "dem": 310,
      "sion": 311,
      "äl": 312,
      "one": 313,
      "stell": 314,
      "rom": 315,
      "train": 316,
      "ischen": 317,
      "Re": 318,
      "bas": 319,
      "bet": 320,
      "hen": 321,
      "ant": 322,
      "ore": 323,
      "from": 324,
      "ges": 325,
      "kt": 326,
      "ity": 327,
      "models": 328,
      "two": 329,
      "ben": 330,
      "here": 331,
      "AS": 332,
      "Klass": 333,
      "RT": 334,
      "ff": 335,
      "ik": 336,
      "sind": 337,
      "über": 338,
      "etz": 339,
      "ste": 340,
      "bei": 341,
      "Datensatz": 342,
      "ll": 343,
      "which": 344,
      "BE": 345,
      "act": 346,
      "vi": 347,
      "verwen": 348,
      "Version": 349,
      "BERT": 350,
      "Ges": 351,
      "Un": 352,
      "We": 353,
      "ave": 354,
      "vis": 355,
      "än": 356,
      "perim": 357,
      "En": 358,
      "by": 359,
      "mat": 360,
      "ous": 361,
      "res": 362,
      "zen": 363,
      "tex": 364,
      "ext": 365,
      "ations": 366,
      "Fe": 367,
      "Pro": 368,
      "ces": 369,
      "ction": 370,
      "have": 371,
      "relev": 372,
      "können": 373,
      "Sprachmodel": 374,
      "Fra": 375,
      "ktion": 376,
      "ru": 377,
      "sich": 378,
      "ieval": 379,
      "ark": 380,
      "ents": 381,
      "timm": 382,
      "text": 383,
      "co": 384,
      "det": 385,
      "fi": 386,
      "feren": 387,
      "iti": 388,
      "igen": 389,
      "jed": 390,
      "nicht": 391,
      "ther": 392,
      "these": 393,
      "iert": 394,
      "extra": 395,
      "Modell": 396,
      "Di": 397,
      "The": 398,
      "VA": 399,
      "hal": 400,
      "sho": 401,
      "ure": 402,
      "ually": 403,
      "estion": 404,
      "abe": 405,
      "question": 406,
      "release": 407,
      "Arti": 408,
      "fäl": 409,
      "sie": 410,
      "ungs": 411,
      "keit": 412,
      "blem": 413,
      "Artikel": 414,
      "Aus": 415,
      "Die": 416,
      "Er": 417,
      "piel": 418,
      "q_": 419,
      "shin": 420,
      "wie": 421,
      "than": 422,
      "ans": 423,
      "ispiel": 424,
      "ite": 425,
      "einem": 426,
      "etr": 427,
      "etun": 428,
      "exam": 429,
      "weise": 430,
      "Versionshin": 431,
      "Ab": 432,
      "Bil": 433,
      "Text": 434,
      "cor": 435,
      "do": 436,
      "each": 437,
      "iz": 438,
      "les": 439,
      "pa": 440,
      "thod": 441,
      "liche": 442,
      "ulti": 443,
      "work": 444,
      "finetun": 445,
      "la": 446,
      "zwe": 447,
      "inter": 448,
      "chr": 449,
      "ort": 450,
      "leg": 451,
      "stra": 452,
      "formation": 453,
      "valu": 454,
      "unser": 455,
      "articles": 456,
      "Gesetz": 457,
      "example": 458,
      "Auf": 459,
      "Fun": 460,
      "Th": 461,
      "bess": 462,
      "get": 463,
      "gabe": 464,
      "lie": 465,
      "more": 466,
      "ob": 467,
      "put": 468,
      "äch": 469,
      "led": 470,
      "arch": 471,
      "use": 472,
      "beit": 473,
      "auch": 474,
      "ific": 475,
      "quen": 476,
      "Beispiel": 477,
      "actually": 478,
      "Funktion": 479,
      "CAS": 480,
      "LS": 481,
      "Nach": 482,
      "kann": 483,
      "num": 484,
      "si": 485,
      "enti": 486,
      "einen": 487,
      "einab": 488,
      "experim": 489,
      "perator": 490,
      "ahl": 491,
      "ahr": 492,
      "senten": 493,
      "tain": 494,
      "halten": 495,
      "fälsch": 496,
      "Com": 497,
      "Ein": 498,
      "hase": 499,
      "stimm": 500,
      "esent": 501,
      "anti": 502,
      "einer": 503,
      "able": 504,
      "diese": 505,
      "schr": 506,
      "word": 507,
      "feat": 508,
      "ight": 509,
      "stellen": 510,
      "legal": 511,
      "besser": 512,
      "Das": 513,
      "Ex": 514,
      "Men": 515,
      "coder": 516,
      "dar": 517,
      "gi": 518,
      "ip": 519,
      "li": 520,
      "nis": 521,
      "wo": 522,
      "yst": 523,
      "ance": 524,
      "stat": 525,
      "tomat": 526,
      "diff": 527,
      "ign": 528,
      "perform": 529,
      "lichen": 530,
      "ession": 531,
      "diesen": 532,
      "VALS": 533,
      "number": 534,
      "ystem": 535,
      "VALSE": 536,
      "Feinab": 537,
      "ST": 538,
      "ding": 539,
      "gt": 540,
      "kte": 541,
      "nur": 542,
      "ven": 543,
      "zahl": 544,
      "erhalten": 545,
      "into": 546,
      "ated": 547,
      "aly": 548,
      "retr": 549,
      "irst": 550,
      "urch": 551,
      "ures": 552,
      "image": 553,
      "Verfälsch": 554,
      "problem": 555,
      "mehr": 556,
      "spe": 557,
      "such": 558,
      "pos": 559,
      "vision": 560,
      "FeST": 561,
      "Sprachmodell": 562,
      "Fragen": 563,
      "Feinabstimm": 564,
      "Hier": 565,
      "bel": 566,
      "rü": 567,
      "zus": 568,
      "ining": 569,
      "analy": 570,
      "unter": 571,
      "geb": 572,
      "ammen": 573,
      "automat": 574,
      "present": 575,
      "resul": 576,
      "relevant": 577,
      "five": 578,
      "Bild": 579,
      "Feinabstimmung": 580,
      "For": 581,
      "TD": 582,
      "cti": 583,
      "je": 584,
      "mess": 585,
      "mark": 586,
      "äh": 587,
      "only": 588,
      "ory": 589,
      "ree": 590,
      "ierung": 591,
      "expr": 592,
      "vers": 593,
      "ifik": 594,
      "neu": 595,
      "foil": 596,
      "beste": 597,
      "step": 598,
      "verwenden": 599,
      "finetuning": 600,
      "zwei": 601,
      "Commit": 602,
      "FeSTE": 603,
      "expression": 604,
      "But": 605,
      "Vor": 606,
      "cap": 607,
      "ige": 608,
      "lo": 609,
      "man": 610,
      "sam": 611,
      "uch": 612,
      "enn": 613,
      "isten": 614,
      "ied": 615,
      "rech": 616,
      "itt": 617,
      "using": 618,
      "abel": 619,
      "impro": 620,
      "now": 621,
      "formul": 622,
      "ische": 623,
      "ätze": 624,
      "Seh": 625,
      "Ausd": 626,
      "Funktionen": 627,
      "Nachr": 628,
      "gebnis": 629,
      "00": 630,
      "Es": 631,
      "Gen": 632,
      "MTD": 633,
      "NN": 634,
      "Sie": 635,
      "da": 636,
      "durch": 637,
      "ht": 638,
      "klass": 639,
      "lä": 640,
      "label": 641,
      "ou": 642,
      "over": 643,
      "zw": 644,
      "thous": 645,
      "elt": 646,
      "some": 647,
      "Anzahl": 648,
      "data": 649,
      "appro": 650,
      "datasets": 651,
      "classif": 652,
      "verwendet": 653,
      "show": 654,
      "questions": 655,
      "Ergebnis": 656,
      "ließ": 657,
      "sentence": 658,
      "statut": 659,
      "MTDNN": 660,
      "thousand": 661,
      "Le": 662,
      "Pa": 663,
      "Retr": 664,
      "bi": 665,
      "fra": 666,
      "gr": 667,
      "kon": 668,
      "know": 669,
      "other": 670,
      "ss": 671,
      "set": 672,
      "tung": 673,
      "ub": 674,
      "up": 675,
      "ves": 676,
      "zent": 677,
      "alle": 678,
      "rect": 679,
      "stru": 680,
      "sol": 681,
      "igkeit": 682,
      "quanti": 683,
      "new": 684,
      "previ": 685,
      "four": 686,
      "Arbeit": 687,
      "article": 688,
      "training": 689,
      "Rech": 690,
      "Versionshinweis": 691,
      "features": 692,
      "retrieval": 693,
      "results": 694,
      "Retrieval": 695,
      "previous": 696,
      "Me": 697,
      "Sch": 698,
      "Satz": 699,
      "cod": 700,
      "cent": 701,
      "gro": 702,
      "hat": 703,
      "ies": 704,
      "min": 705,
      "pen": 706,
      "ust": 707,
      "viel": 708,
      "wis": 709,
      "wur": 710,
      "zur": 711,
      "ür": 712,
      "ink": 713,
      "thir": 714,
      "ank": 715,
      "ange": 716,
      "ason": 717,
      "they": 718,
      "its": 719,
      "ard": 720,
      "ari": 721,
      "ierte": 722,
      "dition": 723,
      "wird": 724,
      "cts": 725,
      "uld": 726,
      "führ": 727,
      "method": 728,
      "fol": 729,
      "notes": 730,
      "commit": 731,
      "ibt": 732,
      "Diese": 733,
      "ächst": 734,
      "CE": 735,
      "Ma": 736,
      "Tra": 737,
      "Wenn": 738,
      "bed": 739,
      "id": 740,
      "ih": 741,
      "ivers": 742,
      "multi": 743,
      "was": 744,
      "ör": 745,
      "ern": 746,
      "information": 747,
      "then": 748,
      "ati": 749,
      "ast": 750,
      "ases": 751,
      "tig": 752,
      "their": 753,
      "red": 754,
      "ität": 755,
      "eines": 756,
      "edi": 757,
      "ierten": 758,
      "iger": 759,
      "see": 760,
      "wenn": 761,
      "Daten": 762,
      "artikel": 763,
      "dieser": 764,
      "ätzen": 765,
      "This": 766,
      "performance": 767,
      "approach": 768,
      "Ergebnisse": 769,
      "CEAS": 770,
      "Bes": 771,
      "Ro": 772,
      "Te": 773,
      "af": 774,
      "cr": 775,
      "evalu": 776,
      "high": 777,
      "ok": 778,
      "ow": 779,
      "operator": 780,
      "pe": 781,
      "sc": 782,
      "sum": 783,
      "system": 784,
      "test": 785,
      "wa": 786,
      "chmark": 787,
      "ties": 788,
      "str": 789,
      "ary": 790,
      "ichten": 791,
      "abstra": 792,
      "teil": 793,
      "istung": 794,
      "sehen": 795,
      "sequen": 796,
      "Verbesser": 797,
      "note": 798,
      "predi": 799,
      "diesem": 800,
      "classes": 801,
      "output": 802,
      "based": 803,
      "Klasse": 804,
      "Klassen": 805,
      "ruck": 806,
      "Dies": 807,
      "pair": 808,
      "Gesetzes": 809,
      "ctive": 810,
      "Ausdruck": 811,
      "Rechts": 812,
      "thirty": 813,
      "Training": 814,
      "sequence": 815,
      "Al": 816,
      "Bel": 817,
      "but": 818,
      "cal": 819,
      "caus": 820,
      "gest": 821,
      "gibt": 822,
      "hund": 823,
      "hän": 824,
      "lung": 825,
      "net": 826,
      "phase": 827,
      "zie": 828,
      "end": 829,
      "enth": 830,
      "ine": 831,
      "indi": 832,
      "che": 833,
      "anten": 834,
      "ele": 835,
      "referen": 836,
      "arge": 837,
      "used": 838,
      "ween": 839,
      "weit": 840,
      "abil": 841,
      "ural": 842,
      "ill": 843,
      "cted": 844,
      "bere": 845,
      "Information": 846,
      "pret": 847,
      "app": 848,
      "descr": 849,
      "main": 850,
      "Sequen": 851,
      "Modelle": 852,
      "between": 853,
      "Sprachmodelle": 854,
      "Versionshinweise": 855,
      "Aufgabe": 856,
      "six": 857,
      "Mengen": 858,
      "spec": 859,
      "Gener": 860,
      "statutory": 861,
      "Method": 862,
      "artikeln": 863,
      "Rober": 864,
      "hundred": 865,
      "Sequenz": 866,
      "Aber": 867,
      "Mark": 868,
      "Multi": 869,
      "Vi": 870,
      "ages": 871,
      "dung": 872,
      "fass": 873,
      "first": 874,
      "frü": 875,
      "gaben": 876,
      "hl": 877,
      "has": 878,
      "hier": 879,
      "iden": 880,
      "ling": 881,
      "ment": 882,
      "nf": 883,
      "nam": 884,
      "pie": 885,
      "pus": 886,
      "ual": 887,
      "will": 888,
      "encoder": 889,
      "ert": 890,
      "erent": 891,
      "int": 892,
      "ong": 893,
      "ingle": 894,
      "embed": 895,
      "cture": 896,
      "schließ": 897,
      "percent": 898,
      "werde": 899,
      "Ans": 900,
      "hers": 901,
      "cond": 902,
      "cons": 903,
      "when": 904,
      "ateg": 905,
      "könn": 906,
      "bett": 907,
      "gesam": 908,
      "ktur": 909,
      "Uns": 910,
      "Frage": 911,
      "jede": 912,
      "lagen": 913,
      "unserem": 914,
      "obtain": 915,
      "ledge": 916,
      "schrif": 917,
      "Experim": 918,
      "different": 919,
      "analys": 920,
      "besteht": 921,
      "caption": 922,
      "recht": 923,
      "improv": 924,
      "zwischen": 925,
      "knowledge": 926,
      "codes": 927,
      "groß": 928,
      "Beschr": 929,
      "Belgi": 930,
      "cause": 931,
      "Informationen": 932,
      "specific": 933,
      "embedding": 934,
      "Bi": 935,
      "First": 936,
      "Git": 937,
      "Hub": 938,
      "LI": 939,
      "LBERT": 940,
      "Operator": 941,
      "Si": 942,
      "Schr": 943,
      "Ziel": 944,
      "bar": 945,
      "base": 946,
      "ced": 947,
      "dann": 948,
      "ft": 949,
      "hand": 950,
      "ile": 951,
      "kom": 952,
      "lle": 953,
      "large": 954,
      "mo": 955,
      "mö": 956,
      "mar": 957,
      "op": 958,
      "sim": 959,
      "tar": 960,
      "ting": 961,
      "ug": 962,
      "vel": 963,
      "zer": 964,
      "ers": 965,
      "chre": 966,
      "unächst": 967,
      "isti": 968,
      "them": 969,
      "reason": 970,
      "einz": 971,
      "einlich": 972,
      "art": 973,
      "about": 974,
      "because": 975,
      "enty": 976,
      "ument": 977,
      "imm": 978,
      "igt": 979,
      "scheinlich": 980,
      "iftung": 981,
      "ular": 982,
      "wert": 983,
      "head": 984,
      "hoch": 985,
      "unseren": 986,
      "plex": 987,
      "Datensätze": 988,
      "ples": 989,
      "tasks": 990,
      "benen": 991,
      "Klassifik": 992,
      "Enti": 993,
      "Encoder": 994,
      "Prozent": 995,
      "ferenz": 996,
      "ities": 997,
      "ansform": 998,
      "correct": 999,
      "law": 1000,
      "Gesetzb": 1001,
      "entieren": 1002,
      "experiment": 1003,
      "ahren": 1004,
      "ahrscheinlich": 1005,
      "words": 1006,
      "posit": 1007,
      "belg": 1008,
      "zusammen": 1009,
      "Leistung": 1010,
      "igkeiten": 1011,
      "quantities": 1012,
      "apply": 1013,
      "Roberta": 1014,
      "ViLBERT": 1015,
      "improvem": 1016,
      "Beschriftung": 1017,
      "Belgian": 1018,
      "GitHub": 1019,
      "Siam": 1020,
      "mariz": 1021,
      "target": 1022,
      "Here": 1023,
      "Ob": 1024,
      "Sho": 1025,
      "System": 1026,
      "Wort": 1027,
      "ac": 1028,
      "aum": 1029,
      "bin": 1030,
      "cur": 1031,
      "ded": 1032,
      "fach": 1033,
      "ffe": 1034,
      "fahren": 1035,
      "go": 1036,
      "ien": 1037,
      "kes": 1038,
      "kti": 1039,
      "lu": 1040,
      "len": 1041,
      "mü": 1042,
      "mis": 1043,
      "och": 1044,
      "right": 1045,
      "sign": 1046,
      "tat": 1047,
      "vo": 1048,
      "vier": 1049,
      "you": 1050,
      "zum": 1051,
      "zif": 1052,
      "Über": 1053,
      "üch": 1054,
      "ück": 1055,
      "ente": 1056,
      "thing": 1057,
      "three": 1058,
      "elle": 1059,
      "orre": 1060,
      "ories": 1061,
      "tige": 1062,
      "represent": 1063,
      "reformul": 1064,
      "ited": 1065,
      "sten": 1066,
      "anderen": 1067,
      "aber": 1068,
      "urist": 1069,
      "denen": 1070,
      "schie": 1071,
      "fünf": 1072,
      "quer": 1073,
      "ausge": 1074,
      "datens": 1075,
      "weniger": 1076,
      "conc": 1077,
      "twenty": 1078,
      "zeigt": 1079,
      "spa": 1080,
      "generat": 1081,
      "generate": 1082,
      "hinzu": 1083,
      "beschre": 1084,
      "ält": 1085,
      "stellt": 1086,
      "Unter": 1087,
      "Univers": 1088,
      "ctions": 1089,
      "colle": 1090,
      "answer": 1091,
      "ächlich": 1092,
      "like": 1093,
      "Verfälschungen": 1094,
      "automatic": 1095,
      "messages": 1096,
      "foils": 1097,
      "Vorhers": 1098,
      "many": 1099,
      "Nachricht": 1100,
      "Nachrichten": 1101,
      "classify": 1102,
      "wise": 1103,
      "wurden": 1104,
      "Teil": 1105,
      "Gesetzesartikeln": 1106,
      "references": 1107,
      "früher": 1108,
      "istic": 1109,
      "Gesetzbüch": 1110,
      "Shot": 1111,
      "Bas": 1112,
      "Der": 1113,
      "Dar": 1114,
      "Evalu": 1115,
      "GE": 1116,
      "GP": 1117,
      "Gr": 1118,
      "Ich": 1119,
      "MP": 1120,
      "OU": 1121,
      "Our": 1122,
      "Pun": 1123,
      "ROU": 1124,
      "Sum": 1125,
      "SVA": 1126,
      "To": 1127,
      "Wis": 1128,
      "Wik": 1129,
      "Zus": 1130,
      "bis": 1131,
      "cre": 1132,
      "cess": 1133,
      "fest": 1134,
      "find": 1135,
      "gel": 1136,
      "gle": 1137,
      "hel": 1138,
      "hig": 1139,
      "jurist": 1140,
      "lim": 1141,
      "less": 1142,
      "link": 1143,
      "nat": 1144,
      "oh": 1145,
      "pon": 1146,
      "rä": 1147,
      "rich": 1148,
      "sens": 1149,
      "ssen": 1150,
      "sächlich": 1151,
      "tre": 1152,
      "tab": 1153,
      "uell": 1154,
      "ved": 1155,
      "wä": 1156,
      "wier": 1157,
      "where": 1158,
      "ward": 1159,
      "ün": 1160,
      "erk": 1161,
      "ines": 1162,
      "input": 1163,
      "ants": 1164,
      "elines": 1165,
      "let": 1166,
      "einfach": 1167,
      "state": 1168,
      "ichen": 1169,
      "odu": 1170,
      "teen": 1171,
      "dire": 1172,
      "exper": 1173,
      "expl": 1174,
      "fore": 1175,
      "ilter": 1176,
      "verschie": 1177,
      "modell": 1178,
      "search": 1179,
      "seven": 1180,
      "second": 1181,
      "fügen": 1182,
      "qual": 1183,
      "ical": 1184,
      "Inter": 1185,
      "depen": 1186,
      "need": 1187,
      "heit": 1188,
      "valid": 1189,
      "appl": 1190,
      "Arg": 1191,
      "dieses": 1192,
      "zeigen": 1193,
      "classific": 1194,
      "indem": 1195,
      "Bei": 1196,
      "iben": 1197,
      "make": 1198,
      "generation": 1199,
      "add": 1200,
      "addition": 1201,
      "sub": 1202,
      "trained": 1203,
      "Problem": 1204,
      "ference": 1205,
      "extrah": 1206,
      "q_2": 1207,
      "Abfra": 1208,
      "interest": 1209,
      "Aufgaben": 1210,
      "experiments": 1211,
      "ipedi": 1212,
      "Verfälschung": 1213,
      "Sprachmodellen": 1214,
      "ammenfass": 1215,
      "jects": 1216,
      "message": 1217,
      "ähn": 1218,
      "neue": 1219,
      "minus": 1220,
      "führt": 1221,
      "Math": 1222,
      "ihre": 1223,
      "örter": 1224,
      "summariz": 1225,
      "strum": 1226,
      "Verbesserung": 1227,
      "consist": 1228,
      "schriften": 1229,
      "reasoning": 1230,
      "ansformer": 1231,
      "müssen": 1232,
      "datensatz": 1233,
      "früheren": 1234,
      "GPT": 1235,
      "ROUGE": 1236,
      "SVAMP": 1237,
      "Wikipedi": 1238,
      "Zusammenfass": 1239,
      "higher": 1240,
      "dependen": 1241,
      "classification": 1242,
      "Wikipedia": 1243,
      "As": 1244,
      "Ben": 1245,
      "Dann": 1246,
      "Hand": 1247,
      "It": 1248,
      "Tr": 1249,
      "Um": 1250,
      "Wörter": 1251,
      "Ze": 1252,
      "Zu": 1253,
      "Zunächst": 1254,
      "ay": 1255,
      "bo": 1256,
      "dist": 1257,
      "eigen": 1258,
      "effe": 1259,
      "fas": 1260,
      "filter": 1261,
      "ger": 1262,
      "glich": 1263,
      "glichen": 1264,
      "ial": 1265,
      "iled": 1266,
      "mlich": 1267,
      "nach": 1268,
      "nied": 1269,
      "ph": 1270,
      "pare": 1271,
      "rese": 1272,
      "sti": 1273,
      "tree": 1274,
      "ving": 1275,
      "erre": 1276,
      "inst": 1277,
      "anz": 1278,
      "tier": 1279,
      "itten": 1280,
      "einge": 1281,
      "einige": 1282,
      "stand": 1283,
      "gem": 1284,
      "abhän": 1285,
      "dern": 1286,
      "beim": 1287,
      "ilar": 1288,
      "utz": 1289,
      "ctor": 1290,
      "schen": 1291,
      "ifiz": 1292,
      "omen": 1293,
      "aher": 1294,
      "Antw": 1295,
      "ics": 1296,
      "wenden": 1297,
      "ischer": 1298,
      "consi": 1299,
      "aufgabe": 1300,
      "unsere": 1301,
      "allo": 1302,
      "Datensätzen": 1303,
      "makes": 1304,
      "generiert": 1305,
      "finden": 1306,
      "basis": 1307,
      "betrach": 1308,
      "ffen": 1309,
      "jedoch": 1310,
      "shot": 1311,
      "Abstra": 1312,
      "paper": 1313,
      "interpret": 1314,
      "entity": 1315,
      "sentences": 1316,
      "Einbett": 1317,
      "feature": 1318,
      "posed": 1319,
      "jekte": 1320,
      "neuen": 1321,
      "samples": 1322,
      "dazu": 1323,
      "classifier": 1324,
      "Paar": 1325,
      "Paper": 1326,
      "Versionshinweisen": 1327,
      "viele": 1328,
      "führen": 1329,
      "evaluation": 1330,
      "operators": 1331,
      "score": 1332,
      "abstract": 1333,
      "prediction": 1334,
      "enthält": 1335,
      "ability": 1336,
      "berech": 1337,
      "identi": 1338,
      "lingu": 1339,
      "Zieldatensatz": 1340,
      "similar": 1341,
      "belgischen": 1342,
      "tatsächlich": 1343,
      "query": 1344,
      "Wissens": 1345,
      "help": 1346,
      "dependent": 1347,
      "Benchmark": 1348,
      "niedr": 1349,
      "research": 1350,
      "consider": 1351,
      "Wissensbasis": 1352,
      "BL": 1353,
      "Cam": 1354,
      "EU": 1355,
      "Gly": 1356,
      "NLI": 1357,
      "Pl": 1358,
      "Phase": 1359,
      "Rel": 1360,
      "Single": 1361,
      "Viel": 1362,
      "Wer": 1363,
      "ain": 1364,
      "agen": 1365,
      "ail": 1366,
      "best": 1367,
      "cut": 1368,
      "cke": 1369,
      "eigh": 1370,
      "fact": 1371,
      "fast": 1372,
      "gh": 1373,
      "gati": 1374,
      "keine": 1375,
      "korre": 1376,
      "metr": 1377,
      "melt": 1378,
      "ner": 1379,
      "ose": 1380,
      "phr": 1381,
      "ren": 1382,
      "rieren": 1383,
      "sh": 1384,
      "sein": 1385,
      "spr": 1386,
      "tro": 1387,
      "tlich": 1388,
      "ute": 1389,
      "who": 1390,
      "wahrscheinlich": 1391,
      "enten": 1392,
      "erze": 1393,
      "erstellt": 1394,
      "ints": 1395,
      "initi": 1396,
      "chpro": 1397,
      "chite": 1398,
      "chlagen": 1399,
      "those": 1400,
      "any": 1401,
      "unting": 1402,
      "unabhän": 1403,
      "issu": 1404,
      "ord": 1405,
      "time": 1406,
      "tichpro": 1407,
      "ieved": 1408,
      "lex": 1409,
      "etwa": 1410,
      "derungen": 1411,
      "ierungen": 1412,
      "emBERT": 1413,
      "ume": 1414,
      "sour": 1415,
      "soll": 1416,
      "ame": 1417,
      "auen": 1418,
      "were": 1419,
      "werk": 1420,
      "quite": 1421,
      "ausib": 1422,
      "wendung": 1423,
      "deck": 1424,
      "negati": 1425,
      "prech": 1426,
      "pretrained": 1427,
      "pretier": 1428,
      "contain": 1429,
      "foc": 1430,
      "pri": 1431,
      "Archite": 1432,
      "anges": 1433,
      "cannot": 1434,
      "ätz": 1435,
      "sprach": 1436,
      "may": 1437,
      "vorher": 1438,
      "vortrain": 1439,
      "vorstellen": 1440,
      "hinaus": 1441,
      "times": 1442,
      "ators": 1443,
      "finally": 1444,
      "Seite": 1445,
      "bleme": 1446,
      "bestimm": 1447,
      "point": 1448,
      "basierten": 1449,
      "better": 1450,
      "ktor": 1451,
      "benchmark": 1452,
      "Und": 1453,
      "visual": 1454,
      "respon": 1455,
      "Fehl": 1456,
      "relevan": 1457,
      "relevanten": 1458,
      "cover": 1459,
      "could": 1460,
      "fix": 1461,
      "Modells": 1462,
      "should": 1463,
      "Ausgabe": 1464,
      "q_1": 1465,
      "archite": 1466,
      "ificant": 1467,
      "experimentieren": 1468,
      "schritt": 1469,
      "Existen": 1470,
      "likel": 1471,
      "differen": 1472,
      "zusätz": 1473,
      "untersch": 1474,
      "Forsch": 1475,
      "000": 1476,
      "klassifik": 1477,
      "labels": 1478,
      "labeled": 1479,
      "ough": 1480,
      "overall": 1481,
      "grund": 1482,
      "zentrieren": 1483,
      "structure": 1484,
      "wurde": 1485,
      "anking": 1486,
      "folgen": 1487,
      "after": 1488,
      "indic": 1489,
      "Generierung": 1490,
      "Methode": 1491,
      "Markierung": 1492,
      "piece": 1493,
      "schließlich": 1494,
      "Ansatz": 1495,
      "könnte": 1496,
      "Unser": 1497,
      "most": 1498,
      "immer": 1499,
      "Entit": 1500,
      "positories": 1501,
      "improvements": 1502,
      "Siamese": 1503,
      "significant": 1504,
      "space": 1505,
      "generates": 1506,
      "collected": 1507,
      "Vorhersage": 1508,
      "Darüber": 1509,
      "Evaluation": 1510,
      "Grund": 1511,
      "ohne": 1512,
      "Abfrage": 1513,
      "summarization": 1514,
      "consists": 1515,
      "Zusammenfassungs": 1516,
      "eigentlich": 1517,
      "fasst": 1518,
      "Abstract": 1519,
      "linguistic": 1520,
      "BLEU": 1521,
      "CamemBERT": 1522,
      "Glyph": 1523,
      "Werte": 1524,
      "initial": 1525,
      "ausibil": 1526,
      "Fehler": 1527,
      "Existenz": 1528,
      "25": 1529,
      "Au": 1530,
      "All": 1531,
      "Daher": 1532,
      "Hallo": 1533,
      "Jed": 1534,
      "Kon": 1535,
      "Kor": 1536,
      "Lage": 1537,
      "Mit": 1538,
      "No": 1539,
      "Netz": 1540,
      "Rele": 1541,
      "St": 1542,
      "Such": 1543,
      "Tex": 1544,
      "Then": 1545,
      "Wh": 1546,
      "Zer": 1547,
      "Zäh": 1548,
      "ack": 1549,
      "actions": 1550,
      "br": 1551,
      "bil": 1552,
      "cul": 1553,
      "case": 1554,
      "citi": 1555,
      "categ": 1556,
      "clu": 1557,
      "ds": 1558,
      "eight": 1559,
      "fer": 1560,
      "fal": 1561,
      "fre": 1562,
      "ful": 1563,
      "gü": 1564,
      "hö": 1565,
      "hör": 1566,
      "ibe": 1567,
      "just": 1568,
      "kle": 1569,
      "kten": 1570,
      "lö": 1571,
      "mal": 1572,
      "mus": 1573,
      "mach": 1574,
      "mall": 1575,
      "might": 1576,
      "prel": 1577,
      "rent": 1578,
      "sing": 1579,
      "sem": 1580,
      "single": 1581,
      "small": 1582,
      "ud": 1583,
      "ue": 1584,
      "ura": 1585,
      "vari": 1586,
      "wand": 1587,
      "well": 1588,
      "whe": 1589,
      "ziel": 1590,
      "äten": 1591,
      "enden": 1592,
      "erstellen": 1593,
      "inal": 1594,
      "ince": 1595,
      "independent": 1596,
      "under": 1597,
      "unten": 1598,
      "univers": 1599,
      "ely": 1600,
      "orten": 1601,
      "alten": 1602,
      "tigen": 1603,
      "themat": 1604,
      "iten": 1605,
      "left": 1606,
      "stän": 1607,
      "arn": 1608,
      "arbeit": 1609,
      "icher": 1610,
      "uses": 1611,
      "geht": 1612,
      "gebenen": 1613,
      "weil": 1614,
      "urther": 1615,
      "urspr": 1616,
      "forward": 1617,
      "ilt": 1618,
      "verbesser": 1619,
      "utet": 1620,
      "amt": 1621,
      "aup": 1622,
      "schn": 1623,
      "modelle": 1624,
      "Verweise": 1625,
      "achieved": 1626,
      "process": 1627,
      "proposed": 1628,
      "noch": 1629,
      "daten": 1630,
      "Dataset": 1631,
      "ellt": 1632,
      "heb": 1633,
      "how": 1634,
      "foll": 1635,
      "produ": 1636,
      "without": 1637,
      "come": 1638,
      "comm": 1639,
      "compare": 1640,
      "sphase": 1641,
      "weisen": 1642,
      "mathemat": 1643,
      "vorges": 1644,
      "generieren": 1645,
      "Spe": 1646,
      "take": 1647,
      "Sprache": 1648,
      "stellung": 1649,
      "Rei": 1650,
      "Reason": 1651,
      "Datensatzes": 1652,
      "llen": 1653,
      "Gesamt": 1654,
      "Ende": 1655,
      "counting": 1656,
      "jeder": 1657,
      "corpus": 1658,
      "correspon": 1659,
      "does": 1660,
      "paar": 1661,
      "finetune": 1662,
      "objects": 1663,
      "Menschen": 1664,
      "wollen": 1665,
      "spezif": 1666,
      "suchen": 1667,
      "Sprachmodells": 1668,
      "rücke": 1669,
      "bestehen": 1670,
      "low": 1671,
      "same": 1672,
      "improve": 1673,
      "Ausdrücke": 1674,
      "Genau": 1675,
      "klassen": 1676,
      "klassifiz": 1677,
      "shown": 1678,
      "ließlich": 1679,
      "statutes": 1680,
      "konzentrieren": 1681,
      "ssatz": 1682,
      "quantity": 1683,
      "Arbeiten": 1684,
      "Schwier": 1685,
      "Schließlich": 1686,
      "wissen": 1687,
      "methods": 1688,
      "folgt": 1689,
      "multiple": 1690,
      "multitask": 1691,
      "approaches": 1692,
      "way": 1693,
      "Verbesserungen": 1694,
      "Trainingssatz": 1695,
      "Als": 1696,
      "calcul": 1697,
      "gestellt": 1698,
      "network": 1699,
      "ziemlich": 1700,
      "check": 1701,
      "weitere": 1702,
      "abilities": 1703,
      "describe": 1704,
      "Methoden": 1705,
      "Markierungen": 1706,
      "pieces": 1707,
      "könnten": 1708,
      "gesammelt": 1709,
      "Unsere": 1710,
      "Experimente": 1711,
      "analysis": 1712,
      "analysieren": 1713,
      "großen": 1714,
      "embeddings": 1715,
      "Operatoren": 1716,
      "Schritt": 1717,
      "handelt": 1718,
      "kommen": 1719,
      "zero": 1720,
      "einzel": 1721,
      "heads": 1722,
      "Überschriften": 1723,
      "beschreiben": 1724,
      "Gesetzbücher": 1725,
      "Punkte": 1726,
      "gleich": 1727,
      "uellen": 1728,
      "verschiedenen": 1729,
      "Zeit": 1730,
      "Einbettungen": 1731,
      "Zieldatensatzes": 1732,
      "Relation": 1733,
      "erzeu": 1734,
      "unabhäng": 1735,
      "fixes": 1736,
      "architecture": 1737,
      "significantly": 1738,
      "Netzwerk": 1739,
      "Zero": 1740,
      "gül": 1741,
      "prelim": 1742,
      "whether": 1743,
      "ursprün": 1744,
      "vorgeschlagen": 1745,
      "Schwierigkeiten": 1746,
      "2ve": 1747,
      "32": 1748,
      "35": 1749,
      "AR": 1750,
      "AW": 1751,
      "Ad": 1752,
      "BM": 1753,
      "Bed": 1754,
      "Bere": 1755,
      "Bür": 1756,
      "Baum": 1757,
      "CLI": 1758,
      "Da": 1759,
      "Ded": 1760,
      "Dank": 1761,
      "Dok": 1762,
      "Eing": 1763,
      "Fo": 1764,
      "Fin": 1765,
      "Fort": 1766,
      "Haup": 1767,
      "ID": 1768,
      "If": 1769,
      "Jir": 1770,
      "Kore": 1771,
      "LP": 1772,
      "LX": 1773,
      "Link": 1774,
      "Metr": 1775,
      "Mert": 1776,
      "MAW": 1777,
      "NSum": 1778,
      "Name": 1779,
      "NLP": 1780,
      "Ok": 1781,
      "PS": 1782,
      "Per": 1783,
      "QA": 1784,
      "Rah": 1785,
      "Richt": 1786,
      "RNSum": 1787,
      "Sub": 1788,
      "Test": 1789,
      "There": 1790,
      "Tok": 1791,
      "Ve": 1792,
      "Vis": 1793,
      "When": 1794,
      "Wahrscheinlich": 1795,
      "Zum": 1796,
      "akt": 1797,
      "bt": 1798,
      "bal": 1799,
      "bein": 1800,
      "bug": 1801,
      "back": 1802,
      "cy": 1803,
      "call": 1804,
      "core": 1805,
      "cases": 1806,
      "cura": 1807,
      "dom": 1808,
      "ep": 1809,
      "eas": 1810,
      "fy": 1811,
      "fen": 1812,
      "gl": 1813,
      "gar": 1814,
      "gra": 1815,
      "ggest": 1816,
      "hn": 1817,
      "hum": 1818,
      "ize": 1819,
      "ihr": 1820,
      "idet": 1821,
      "ket": 1822,
      "lungen": 1823,
      "long": 1824,
      "my": 1825,
      "medi": 1826,
      "nä": 1827,
      "next": 1828,
      "oling": 1829,
      "pf": 1830,
      "par": 1831,
      "port": 1832,
      "rts": 1833,
      "rungen": 1834,
      "rib": 1835,
      "ranking": 1836,
      "ser": 1837,
      "son": 1838,
      "tal": 1839,
      "tet": 1840,
      "ution": 1841,
      "uctive": 1842,
      "uelle": 1843,
      "ypo": 1844,
      "zess": 1845,
      "zens": 1846,
      "ßer": 1847,
      "üt": 1848,
      "“-": 1849,
      "enz": 1850,
      "enation": 1851,
      "erw": 1852,
      "erfahren": 1853,
      "inary": 1854,
      "inference": 1855,
      "instrum": 1856,
      "inclu": 1857,
      "chn": 1858,
      "chte": 1859,
      "changes": 1860,
      "esse": 1861,
      "esischen": 1862,
      "there": 1863,
      "though": 1864,
      "anzen": 1865,
      "ances": 1866,
      "another": 1867,
      "atenation": 1868,
      "unity": 1869,
      "unused": 1870,
      "ish": 1871,
      "eln": 1872,
      "elve": 1873,
      "orig": 1874,
      "ieve": 1875,
      "rema": 1876,
      "ites": 1877,
      "itts": 1878,
      "itati": 1879,
      "einbett": 1880,
      "etze": 1881,
      "stud": 1882,
      "odal": 1883,
      "irrelevant": 1884,
      "geben": 1885,
      "gezeigt": 1886,
      "gehör": 1887,
      "genheit": 1888,
      "raum": 1889,
      "top": 1890,
      "beh": 1891,
      "beam": 1892,
      "beheb": 1893,
      "divi": 1894,
      "direct": 1895,
      "exe": 1896,
      "existen": 1897,
      "umentieren": 1898,
      "wirk": 1899,
      "imple": 1900,
      "ily": 1901,
      "very": 1902,
      "version": 1903,
      "utzen": 1904,
      "cting": 1905,
      "ctures": 1906,
      "schlagen": 1907,
      "seq": 1908,
      "sehr": 1909,
      "perfe": 1910,
      "vector": 1911,
      "Verwendung": 1912,
      "Verket": 1913,
      "fügt": 1914,
      "prob": 1915,
      "tradition": 1916,
      "relations": 1917,
      "mean": 1918,
      "mework": 1919,
      "ick": 1920,
      "Ins": 1921,
      "Inferenz": 1922,
      "Instrum": 1923,
      "devel": 1924,
      "ellar": 1925,
      "constra": 1926,
      "ungenutz": 1927,
      "twelve": 1928,
      "foiled": 1929,
      "allen": 1930,
      "classwise": 1931,
      "what": 1932,
      "Beam": 1933,
      "Bezie": 1934,
      "typ": 1935,
      "comple": 1936,
      "comput": 1937,
      "vorlä": 1938,
      "suggest": 1939,
      "transformer": 1940,
      "Search": 1941,
      "beschr": 1942,
      "pose": 1943,
      "points": 1944,
      "ufig": 1945,
      "stellungen": 1946,
      "trainieren": 1947,
      "basic": 1948,
      "baselines": 1949,
      "gesetz": 1950,
      "iken": 1951,
      "ikal": 1952,
      "beiden": 1953,
      "llstän": 1954,
      "Gesetze": 1955,
      "änk": 1956,
      "match": 1957,
      "Few": 1958,
      "Proben": 1959,
      "Probleme": 1960,
      "itiv": 1961,
      "jedem": 1962,
      "extraction": 1963,
      "extraktion": 1964,
      "extracted": 1965,
      "q_3": 1966,
      "q_i": 1967,
      "q_j": 1968,
      "doc": 1969,
      "interess": 1970,
      "interpretier": 1971,
      "unserer": 1972,
      "These": 1973,
      "Thank": 1974,
      "Funktions": 1975,
      "word2ve": 1976,
      "Extra": 1977,
      "Menge": 1978,
      "give": 1979,
      "wobei": 1980,
      "wohl": 1981,
      "diffic": 1982,
      "retrieve": 1983,
      "below": 1984,
      "belong": 1985,
      "analyse": 1986,
      "analyze": 1987,
      "automatische": 1988,
      "result": 1989,
      "Feinabstimmungsphase": 1990,
      "ähigkeiten": 1991,
      "steps": 1992,
      "look": 1993,
      "istent": 1994,
      "läss": 1995,
      "shows": 1996,
      "biases": 1997,
      "framework": 1998,
      "struktur": 1999,
      "code": 2000,
      "ground": 2001,
      "ario": 2002,
      "outputs": 2003,
      "pairwise": 2004,
      "Trainings": 2005,
      "enthalten": 2006,
      "bereits": 2007,
      "pretty": 2008,
      "describ": 2009,
      "maintain": 2010,
      "Multitask": 2011,
      "name": 2012,
      "ualBERT": 2013,
      "encoders": 2014,
      "ategor": 2015,
      "rechtliche": 2016,
      "barkeit": 2017,
      "möglich": 2018,
      "optim": 2019,
      "zerrungen": 2020,
      "hochwer": 2021,
      "Klassifikator": 2022,
      "Entity": 2023,
      "pository": 2024,
      "improvement": 2025,
      "Siamesischen": 2026,
      "Objekte": 2027,
      "Worteinbett": 2028,
      "accura": 2029,
      "current": 2030,
      "ktiv": 2031,
      "vollstän": 2032,
      "concatenation": 2033,
      "hinzufügen": 2034,
      "University": 2035,
      "Gesetzbüchern": 2036,
      "Baselines": 2037,
      "juristischen": 2038,
      "limit": 2039,
      "limited": 2040,
      "natür": 2041,
      "natural": 2042,
      "räum": 2043,
      "richment": 2044,
      "tabular": 2045,
      "tabellar": 2046,
      "wärts": 2047,
      "explo": 2048,
      "quality": 2049,
      "qualitati": 2050,
      "Interesse": 2051,
      "applic": 2052,
      "Argument": 2053,
      "Argumentieren": 2054,
      "extrahiert": 2055,
      "ähnlich": 2056,
      "MathQA": 2057,
      "Transformer": 2058,
      "distrib": 2059,
      "still": 2060,
      "erreicht": 2061,
      "Antwort": 2062,
      "betrachten": 2063,
      "interpretable": 2064,
      "berechnet": 2065,
      "identify": 2066,
      "niedrig": 2067,
      "considered": 2068,
      "Vielen": 2069,
      "eighty": 2070,
      "fastText": 2071,
      "metrics": 2072,
      "issue": 2073,
      "tichprobe": 2074,
      "sollten": 2075,
      "focus": 2076,
      "prior": 2077,
      "Architektur": 2078,
      "difference": 2079,
      "untersche": 2080,
      "klassifikations": 2081,
      "Fehlerbeheb": 2082,
      "Korpus": 2083,
      "Note": 2084,
      "Release": 2085,
      "Zählung": 2086,
      "citizens": 2087,
      "höher": 2088,
      "arning": 2089,
      "schnitt": 2090,
      "follow": 2091,
      "compared": 2092,
      "Reihe": 2093,
      "Genauigkeit": 2094,
      "klassifizieren": 2095,
      "preliminary": 2096,
      "BM25": 2097,
      "CLIP": 2098,
      "Eingabe": 2099,
      "Haupt": 2100,
      "Jira": 2101,
      "Koreferenz": 2102,
      "LXMert": 2103,
      "MAWPS": 2104,
      "Okay": 2105,
      "Therefore": 2106,
      "Vektor": 2107,
      "VisualBERT": 2108,
      "Wahrscheinlichkeit": 2109,
      "coreference": 2110,
      "instruments": 2111,
      "original": 2112,
      "remaining": 2113,
      "study": 2114,
      "gehört": 2115,
      "existence": 2116,
      "Verkettung": 2117,
      "develop": 2118,
      "Bezieh": 2119,
      "vorläuf": 2120,
      "word2vec": 2121,
      "Worteinbettungs": 2122,
      "vollständi": 2123,
      "qualitativ": 2124,
      "14": 2125,
      "17": 2126,
      "20": 2127,
      "22": 2128,
      "30": 2129,
      "Auch": 2130,
      "By": 2131,
      "Each": 2132,
      "Ebenen": 2133,
      "Fall": 2134,
      "Fäl": 2135,
      "Further": 2136,
      "Her": 2137,
      "Hell": 2138,
      "Korre": 2139,
      "Lo": 2140,
      "Lö": 2141,
      "Let": 2142,
      "Nun": 2143,
      "Next": 2144,
      "Nächst": 2145,
      "Phän": 2146,
      "Prä": 2147,
      "Set": 2148,
      "Sätze": 2149,
      "Sätzen": 2150,
      "Since": 2151,
      "Tes": 2152,
      "Two": 2153,
      "Using": 2154,
      "Vari": 2155,
      "Was": 2156,
      "Wie": 2157,
      "Zuf": 2158,
      "Zust": 2159,
      "avi": 2160,
      "action": 2161,
      "ailed": 2162,
      "bat": 2163,
      "bre": 2164,
      "buch": 2165,
      "baum": 2166,
      "cer": 2167,
      "cle": 2168,
      "cited": 2169,
      "cial": 2170,
      "dam": 2171,
      "ev": 2172,
      "eith": 2173,
      "eff": 2174,
      "feinab": 2175,
      "fession": 2176,
      "free": 2177,
      "fert": 2178,
      "fail": 2179,
      "gs": 2180,
      "gut": 2181,
      "gliche": 2182,
      "gern": 2183,
      "hä": 2184,
      "har": 2185,
      "ient": 2186,
      "ive": 2187,
      "iqu": 2188,
      "iell": 2189,
      "iho": 2190,
      "kn": 2191,
      "ken": 2192,
      "kur": 2193,
      "kator": 2194,
      "kür": 2195,
      "kategor": 2196,
      "lf": 2197,
      "län": 2198,
      "lust": 2199,
      "last": 2200,
      "nimm": 2201,
      "nutzen": 2202,
      "oti": 2203,
      "ogen": 2204,
      "ound": 2205,
      "pra": 2206,
      "pty": 2207,
      "partic": 2208,
      "phen": 2209,
      "part": 2210,
      "ry": 2211,
      "rand": 2212,
      "ress": 2213,
      "sst": 2214,
      "sod": 2215,
      "seine": 2216,
      "satz": 2217,
      "sib": 2218,
      "stim": 2219,
      "scor": 2220,
      "ture": 2221,
      "uble": 2222,
      "wi": 2223,
      "wel": 2224,
      "war": 2225,
      "wich": 2226,
      "wesent": 2227,
      "zieren": 2228,
      "ziti": 2229,
      "zip": 2230,
      "zunächst": 2231,
      "zial": 2232,
      "ziell": 2233,
      "zogen": 2234,
      "ße": 2235,
      "är": 2236,
      "äts": 2237,
      "öff": 2238,
      "ölf": 2239,
      "ence": 2240,
      "ennen": 2241,
      "erst": 2242,
      "ering": 2243,
      "erste": 2244,
      "erweise": 2245,
      "ermin": 2246,
      "ergibt": 2247,
      "char": 2248,
      "challen": 2249,
      "thro": 2250,
      "think": 2251,
      "uniqu": 2252,
      "ise": 2253,
      "asen": 2254,
      "eline": 2255,
      "ors": 2256,
      "alway": 2257,
      "tigt": 2258,
      "ieter": 2259,
      "ieben": 2260,
      "really": 2261,
      "remo": 2262,
      "reffen": 2263,
      "repositories": 2264,
      "itte": 2265,
      "itäts": 2266,
      "legen": 2267,
      "leicht": 2268,
      "leistung": 2269,
      "level": 2270,
      "einig": 2271,
      "einsch": 2272,
      "einsame": 2273,
      "etc": 2274,
      "stens": 2275,
      "stanti": 2276,
      "start": 2277,
      "stüt": 2278,
      "around": 2279,
      "usti": 2280,
      "gegen": 2281,
      "gehen": 2282,
      "wed": 2283,
      "weder": 2284,
      "weck": 2285,
      "andere": 2286,
      "anders": 2287,
      "genau": 2288,
      "genann": 2289,
      "ably": 2290,
      "abular": 2291,
      "uring": 2292,
      "dene": 2293,
      "dense": 2294,
      "deren": 2295,
      "assess": 2296,
      "assign": 2297,
      "assume": 2298,
      "beg": 2299,
      "beispiel": 2300,
      "begr": 2301,
      "dikator": 2302,
      "empty": 2303,
      "entweder": 2304,
      "forder": 2305,
      "forty": 2306,
      "ilfe": 2307,
      "verb": 2308,
      "verall": 2309,
      "verfälsch": 2310,
      "verteil": 2311,
      "verläss": 2312,
      "amm": 2313,
      "schle": 2314,
      "schne": 2315,
      "schied": 2316,
      "schwier": 2317,
      "tioned": 2318,
      "perplex": 2319,
      "zug": 2320,
      "zustellen": 2321,
      "zufügen": 2322,
      "ifft": 2323,
      "lichkeit": 2324,
      "lassen": 2325,
      "berück": 2326,
      "ult": 2327,
      "Verweisen": 2328,
      "Vergleich": 2329,
      "Verzerrungen": 2330,
      "achten": 2331,
      "proced": 2332,
      "projects": 2333,
      "propose": 2334,
      "profession": 2335,
      "noun": 2336,
      "heraus": 2337,
      "reli": 2338,
      "relation": 2339,
      "meas": 2340,
      "wend": 2341,
      "wendet": 2342,
      "Indikator": 2343,
      "decre": 2344,
      "Data": 2345,
      "isches": 2346,
      "neh": 2347,
      "prec": 2348,
      "context": 2349,
      "constru": 2350,
      "aufgaben": 2351,
      "twick": 2352,
      "prü": 2353,
      "pres": 2354,
      "pricht": 2355,
      "keep": 2356,
      "aps": 2357,
      "angele": 2358,
      "allss": 2359,
      "while": 2360,
      "comes": 2361,
      "spati": 2362,
      "few": 2363,
      "annte": 2364,
      "ibung": 2365,
      "math": 2366,
      "mensch": 2367,
      "mentioned": 2368,
      "plic": 2369,
      "pliz": 2370,
      "plural": 2371,
      "plausibil": 2372,
      "generator": 2373,
      "generated": 2374,
      "adding": 2375,
      "adurch": 2376,
      "bleiben": 2377,
      "outperform": 2378,
      "ufen": 2379,
      "Repositories": 2380,
      "basierte": 2381,
      "betreffen": 2382,
      "gestimm": 2383,
      "ktzahl": 2384,
      "benannte": 2385,
      "stead": 2386,
      "via": 2387,
      "vide": 2388,
      "Versionen": 2389,
      "visuelle": 2390,
      "änderungen": 2391,
      "Engl": 2392,
      "Entwick": 2393,
      "Projekte": 2394,
      "Prozess": 2395,
      "entsprech": 2396,
      "entspricht": 2397,
      "fizieren": 2398,
      "extract": 2399,
      "halb": 2400,
      "Artikeln": 2401,
      "Erdung": 2402,
      "Erstens": 2403,
      "wieder": 2404,
      "Textanalyse": 2405,
      "ized": 2406,
      "finetuned": 2407,
      "zweite": 2408,
      "zweiten": 2409,
      "values": 2410,
      "unseres": 2411,
      "gete": 2412,
      "liefert": 2413,
      "beitra": 2414,
      "kannt": 2415,
      "side": 2416,
      "entities": 2417,
      "Eine": 2418,
      "Einschr": 2419,
      "antic": 2420,
      "darauf": 2421,
      "gige": 2422,
      "iption": 2423,
      "would": 2424,
      "ignor": 2425,
      "problems": 2426,
      "mehrst": 2427,
      "mehrere": 2428,
      "possib": 2429,
      "untersuchen": 2430,
      "automatisch": 2431,
      "markiert": 2432,
      "ifikant": 2433,
      "capabilities": 2434,
      "capture": 2435,
      "ennt": 2436,
      "rechten": 2437,
      "formulieren": 2438,
      "lären": 2439,
      "lässt": 2440,
      "zwölf": 2441,
      "kontext": 2442,
      "konzip": 2443,
      "setup": 2444,
      "allein": 2445,
      "solve": 2446,
      "solving": 2447,
      "Schauen": 2448,
      "penal": 2449,
      "zurück": 2450,
      "arded": 2451,
      "ihn": 2452,
      "ihnen": 2453,
      "Teile": 2454,
      "evaluate": 2455,
      "evaluated": 2456,
      "own": 2457,
      "pect": 2458,
      "scen": 2459,
      "testing": 2460,
      "abstractive": 2461,
      "teilen": 2462,
      "Dieser": 2463,
      "Dieses": 2464,
      "Rechtsexper": 2465,
      "Rechtsangele": 2466,
      "called": 2467,
      "reference": 2468,
      "weiter": 2469,
      "uralität": 2470,
      "description": 2471,
      "fassen": 2472,
      "named": 2473,
      "namely": 2474,
      "Ansätzen": 2475,
      "consistent": 2476,
      "gesamt": 2477,
      "schrift": 2478,
      "Experiment": 2479,
      "Experimenten": 2480,
      "große": 2481,
      "Schritten": 2482,
      "möglichen": 2483,
      "ugh": 2484,
      "wertet": 2485,
      "plexität": 2486,
      "Klassifikations": 2487,
      "Obje": 2488,
      "Wortpro": 2489,
      "accur": 2490,
      "got": 2491,
      "good": 2492,
      "signifikant": 2493,
      "Überschrift": 2494,
      "representation": 2495,
      "representations": 2496,
      "reformulation": 2497,
      "reformulated": 2498,
      "generating": 2499,
      "Unterschied": 2500,
      "Universität": 2501,
      "answers": 2502,
      "automatically": 2503,
      "Vorhersagen": 2504,
      "classifying": 2505,
      "Basis": 2506,
      "Punktzahl": 2507,
      "linking": 2508,
      "richtig": 2509,
      "treffen": 2510,
      "erkennen": 2511,
      "erklären": 2512,
      "direction": 2513,
      "expert": 2514,
      "explain": 2515,
      "verschiedene": 2516,
      "modells": 2517,
      "applied": 2518,
      "additional": 2519,
      "extrahieren": 2520,
      "interesting": 2521,
      "Handlung": 2522,
      "Handlungen": 2523,
      "Wörtern": 2524,
      "effective": 2525,
      "eingegebenen": 2526,
      "gemeinsame": 2527,
      "omena": 2528,
      "Antworten": 2529,
      "betrachtet": 2530,
      "berechnen": 2531,
      "identifizieren": 2532,
      "Plausibil": 2533,
      "Pluralität": 2534,
      "cutes": 2535,
      "korrekte": 2536,
      "short": 2537,
      "trouble": 2538,
      "lexical": 2539,
      "lexikal": 2540,
      "source": 2541,
      "decken": 2542,
      "sprachlichen": 2543,
      "vortrainierte": 2544,
      "bestimmte": 2545,
      "relevante": 2546,
      "relevanter": 2547,
      "likely": 2548,
      "likeliho": 2549,
      "zusätzliche": 2550,
      "Forschungs": 2551,
      "Entität": 2552,
      "Entitäten": 2553,
      "Außer": 2554,
      "Jede": 2555,
      "Suchraum": 2556,
      "categories": 2557,
      "klein": 2558,
      "lösen": 2559,
      "muss": 2560,
      "macht": 2561,
      "semantic": 2562,
      "universities": 2563,
      "arbeiten": 2564,
      "verbessert": 2565,
      "mathematischen": 2566,
      "Reasoner": 2567,
      "Gesamtleistung": 2568,
      "corresponding": 2569,
      "spezifische": 2570,
      "klassenweise": 2571,
      "calculate": 2572,
      "einzelnen": 2573,
      "Zeitschritt": 2574,
      "erzeugen": 2575,
      "gültige": 2576,
      "ursprünglichen": 2577,
      "vorgeschlagene": 2578,
      "Addition": 2579,
      "Linking": 2580,
      "Metriken": 2581,
      "Perplexität": 2582,
      "Rahmen": 2583,
      "Richtung": 2584,
      "domain": 2585,
      "human": 2586,
      "median": 2587,
      "sondern": 2588,
      "talk": 2589,
      "erwähn": 2590,
      "erfahrenen": 2591,
      "topics": 2592,
      "divided": 2593,
      "executes": 2594,
      "wirklich": 2595,
      "meaning": 2596,
      "Insgesamt": 2597,
      "ungenutzten": 2598,
      "complete": 2599,
      "computing": 2600,
      "gesetzbuch": 2601,
      "änkungen": 2602,
      "Funktionsextraktion": 2603,
      "belongs": 2604,
      "grounding": 2605,
      "Trainingsdaten": 2606,
      "described": 2607,
      "hochwertige": 2608,
      "accuracy": 2609,
      "räumliche": 2610,
      "Argumentations": 2611,
      "distribution": 2612,
      "unterscheiden": 2613,
      "Fehlerbehebungen": 2614,
      "Beziehungen": 2615,
      "vorläufigen": 2616,
      "vollständige": 2617,
      "Fällen": 2618,
      "Furthermore": 2619,
      "Heraus": 2620,
      "Hello": 2621,
      "Nächstes": 2622,
      "Phänomen": 2623,
      "Setup": 2624,
      "Zufallss": 2625,
      "Zustand": 2626,
      "batch": 2627,
      "certain": 2628,
      "damit": 2629,
      "either": 2630,
      "kürz": 2631,
      "nimmt": 2632,
      "phenomena": 2633,
      "random": 2634,
      "sodass": 2635,
      "stimmen": 2636,
      "scores": 2637,
      "öffent": 2638,
      "charact": 2639,
      "through": 2640,
      "unique": 2641,
      "always": 2642,
      "genannt": 2643,
      "beispiels": 2644,
      "begrenz": 2645,
      "perplexity": 2646,
      "berücksich": 2647,
      "procedure": 2648,
      "spatial": 2649,
      "plurality": 2650,
      "plausibility": 2651,
      "Entwicklung": 2652,
      "entsprechenden": 2653,
      "possible": 2654,
      "Rechtsexperten": 2655,
      "Rechtsangelegenheit": 2656,
      "accurate": 2657,
      "likelihood": 2658,
      "Außerdem": 2659,
      "Zufallsstichprobe": 2660,
      "18": 2661,
      "100": 2662,
      "23": 2663,
      "2seq": 2664,
      "33": 2665,
      "82": 2666,
      "?“": 2667,
      "AI": 2668,
      "AP": 2669,
      "Am": 2670,
      "ART": 2671,
      "Aspe": 2672,
      "Aust": 2673,
      "BS": 2674,
      "Best": 2675,
      "Bib": 2676,
      "BART": 2677,
      "Cod": 2678,
      "CLS": 2679,
      "Clust": 2680,
      "Des": 2681,
      "Dom": 2682,
      "Dance": 2683,
      "Doch": 2684,
      "EN": 2685,
      "Fa": 2686,
      "Fam": 2687,
      "Für": 2688,
      "Fine": 2689,
      "Fren": 2690,
      "Fähigkeiten": 2691,
      "Ge": 2692,
      "Gi": 2693,
      "Gel": 2694,
      "Hi": 2695,
      "Hin": 2696,
      "Har": 2697,
      "Hypo": 2698,
      "Ja": 2699,
      "Jer": 2700,
      "Jur": 2701,
      "Jier": 2702,
      "Jahr": 2703,
      "Kame": 2704,
      "LM": 2705,
      "LN": 2706,
      "Li": 2707,
      "Lu": 2708,
      "Lab": 2709,
      "Last": 2710,
      "Large": 2711,
      "Lär": 2712,
      "Mitt": 2713,
      "Mieter": 2714,
      "Ne": 2715,
      "Op": 2716,
      "Or": 2717,
      "Out": 2718,
      "Overall": 2719,
      "Pf": 2720,
      "Po": 2721,
      "Pr": 2722,
      "Phr": 2723,
      "Raum": 2724,
      "Rück": 2725,
      "Ranking": 2726,
      "Ravi": 2727,
      "SU": 2728,
      "Ste": 2729,
      "She": 2730,
      "Szen": 2731,
      "Scal": 2732,
      "Stat": 2733,
      "Stichpro": 2734,
      "Sicher": 2735,
      "TF": 2736,
      "Tun": 2737,
      "Termin": 2738,
      "Tabular": 2739,
      "With": 2740,
      "What": 2741,
      "Woh": 2742,
      "Word": 2743,
      "Worten": 2744,
      "XLN": 2745,
      "You": 2746,
      "Zur": 2747,
      "Zahl": 2748,
      "Zweit": 2749,
      "Zug": 2750,
      "ag": 2751,
      "av": 2752,
      "ather": 2753,
      "agt": 2754,
      "awa": 2755,
      "bs": 2756,
      "bu": 2757,
      "bä": 2758,
      "bie": 2759,
      "bau": 2760,
      "bare": 2761,
      "bining": 2762,
      "cen": 2763,
      "cing": 2764,
      "cab": 2765,
      "dr": 2766,
      "don": 2767,
      "dis": 2768,
      "dre": 2769,
      "dichten": 2770,
      "daher": 2771,
      "due": 2772,
      "dadurch": 2773,
      "ek": 2774,
      "ear": 2775,
      "eut": 2776,
      "ect": 2777,
      "eher": 2778,
      "eBERT": 2779,
      "eign": 2780,
      "even": 2781,
      "eutet": 2782,
      "fa": 2783,
      "fr": 2784,
      "fun": 2785,
      "fein": 2786,
      "fed": 2787,
      "fung": 2788,
      "fig": 2789,
      "fam": 2790,
      "fungen": 2791,
      "fiel": 2792,
      "fall": 2793,
      "further": 2794,
      "fähigkeiten": 2795,
      "gm": 2796,
      "gth": 2797,
      "gor": 2798,
      "gre": 2799,
      "ging": 2800,
      "gung": 2801,
      "gap": 2802,
      "gele": 2803,
      "gute": 2804,
      "garded": 2805,
      "gather": 2806,
      "hes": 2807,
      "hil": 2808,
      "hip": 2809,
      "hard": 2810,
      "hypo": 2811,
      "iv": 2812,
      "iver": 2813,
      "ice": 2814,
      "idat": 2815,
      "ictures": 2816,
      "jo": 2817,
      "js": 2818,
      "justi": 2819,
      "ko": 2820,
      "kor": 2821,
      "kod": 2822,
      "king": 2823,
      "kil": 2824,
      "kens": 2825,
      "kts": 2826,
      "ktr": 2827,
      "kün": 2828,
      "khar": 2829,
      "ld": 2830,
      "ler": 2831,
      "list": 2832,
      "lau": 2833,
      "lage": 2834,
      "lic": 2835,
      "late": 2836,
      "lib": 2837,
      "light": 2838,
      "lving": 2839,
      "lanzen": 2840,
      "mp": 2841,
      "ms": 2842,
      "mein": 2843,
      "mith": 2844,
      "mone": 2845,
      "mmat": 2846,
      "much": 2847,
      "must": 2848,
      "mbo": 2849,
      "meln": 2850,
      "maps": 2851,
      "na": 2852,
      "nin": 2853,
      "nth": 2854,
      "nun": 2855,
      "nah": 2856,
      "nächst": 2857,
      "nderungen": 2858,
      "othe": 2859,
      "ople": 2860,
      "olo": 2861,
      "pun": 2862,
      "por": 2863,
      "ption": 2864,
      "page": 2865,
      "pip": 2866,
      "pub": 2867,
      "pictures": 2868,
      "ris": 2869,
      "ral": 2870,
      "range": 2871,
      "rary": 2872,
      "sin": 2873,
      "sor": 2874,
      "sischen": 2875,
      "setz": 2876,
      "sli": 2877,
      "sätze": 2878,
      "sprech": 2879,
      "since": 2880,
      "sverteil": 2881,
      "tes": 2882,
      "tas": 2883,
      "tur": 2884,
      "tto": 2885,
      "ui": 2886,
      "uen": 2887,
      "udie": 2888,
      "uct": 2889,
      "uation": 2890,
      "udo": 2891,
      "ucti": 2892,
      "ukti": 2893,
      "utigen": 2894,
      "uish": 2895,
      "vö": 2896,
      "vation": 2897,
      "vary": 2898,
      "vphr": 2899,
      "wr": 2900,
      "wal": 2901,
      "wic": 2902,
      "want": 2903,
      "wahr": 2904,
      "xim": 2905,
      "year": 2906,
      "ymbo": 2907,
      "zed": 2908,
      "zawa": 2909,
      "Ähn": 2910,
      "Änderungen": 2911,
      "äne": 2912,
      "öst": 2913,
      "ötigt": 2914,
      "ösischen": 2915,
      "ünf": 2916,
      "übr": 2917,
      "ende": 2918,
      "enzen": 2919,
      "enough": 2920,
      "encode": 2921,
      "enrichment": 2922,
      "erg": 2923,
      "erten": 2924,
      "ersten": 2925,
      "erfasst": 2926,
      "erziel": 2927,
      "erlau": 2928,
      "innen": 2929,
      "intr": 2930,
      "inves": 2931,
      "incorrect": 2932,
      "invo": 2933,
      "incre": 2934,
      "chs": 2935,
      "chan": 2936,
      "chter": 2937,
      "change": 2938,
      "esis": 2939,
      "thus": 2940,
      "thesis": 2941,
      "ante": 2942,
      "ansch": 2943,
      "anzu": 2944,
      "antw": 2945,
      "annot": 2946,
      "anced": 2947,
      "anhand": 2948,
      "anwenden": 2949,
      "onal": 2950,
      "onder": 2951,
      "unti": 2952,
      "unim": 2953,
      "unausge": 2954,
      "unwahrscheinlich": 2955,
      "unbal": 2956,
      "iste": 2957,
      "ased": 2958,
      "astr": 2959,
      "elwert": 2960,
      "order": 2961,
      "alter": 2962,
      "alone": 2963,
      "almost": 2964,
      "iebenen": 2965,
      "rein": 2966,
      "requ": 2967,
      "reicht": 2968,
      "reuse": 2969,
      "recent": 2970,
      "remain": 2971,
      "regel": 2972,
      "refer": 2973,
      "reicher": 2974,
      "repository": 2975,
      "regarded": 2976,
      "itate": 2977,
      "itäten": 2978,
      "ituation": 2979,
      "leer": 2980,
      "lead": 2981,
      "least": 2982,
      "leiten": 2983,
      "learning": 2984,
      "eins": 2985,
      "einand": 2986,
      "einges": 2987,
      "einigen": 2988,
      "ete": 2989,
      "eten": 2990,
      "etwas": 2991,
      "stammen": 2992,
      "stamm": 2993,
      "arce": 2994,
      "ichts": 2995,
      "odul": 2996,
      "usw": 2997,
      "gether": 2998,
      "geeign": 2999,
      "weist": 3000,
      "edforward": 3001,
      "ings": 3002,
      "ingt": 3003,
      "ingung": 3004,
      "inguish": 3005,
      "rauch": 3006,
      "absol": 3007,
      "abbil": 3008,
      "abgestimm": 3009,
      "uronal": 3010,
      "too": 3011,
      "tower": 3012,
      "toine": 3013,
      "tokens": 3014,
      "together": 3015,
      "denken": 3016,
      "denziell": 3017,
      "tens": 3018,
      "tenants": 3019,
      "tendenziell": 3020,
      "teile": 3021,
      "techn": 3022,
      "teDance": 3023,
      "iere": 3024,
      "ierungs": 3025,
      "been": 3026,
      "bewer": 3027,
      "bezie": 3028,
      "before": 3029,
      "behandelt": 3030,
      "bekommen": 3031,
      "bekannt": 3032,
      "beantw": 3033,
      "divis": 3034,
      "emen": 3035,
      "exist": 3036,
      "exter": 3037,
      "entually": 3038,
      "entfer": 3039,
      "entailed": 3040,
      "entwic": 3041,
      "fort": 3042,
      "umge": 3043,
      "uments": 3044,
      "umente": 3045,
      "umfasst": 3046,
      "umfassen": 3047,
      "oftw": 3048,
      "images": 3049,
      "import": 3050,
      "ils": 3051,
      "ilie": 3052,
      "iling": 3053,
      "vert": 3054,
      "verage": 3055,
      "verfahren": 3056,
      "vergle": 3057,
      "verstand": 3058,
      "versuchen": 3059,
      "verfügt": 3060,
      "utlich": 3061,
      "utral": 3062,
      "sowie": 3063,
      "sogar": 3064,
      "social": 3065,
      "sozial": 3066,
      "igarti": 3067,
      "amen": 3068,
      "ational": 3069,
      "schutz": 3070,
      "secur": 3071,
      "seudo": 3072,
      "sechs": 3073,
      "peration": 3074,
      "zuverläss": 3075,
      "licher": 3076,
      "termin": 3077,
      "terms": 3078,
      "vey": 3079,
      "bereinig": 3080,
      "ulary": 3081,
      "ommen": 3082,
      "wertung": 3083,
      "werfungen": 3084,
      "Verfahren": 3085,
      "Verwerfungen": 3086,
      "acht": 3087,
      "progr": 3088,
      "provide": 3089,
      "quelle": 3090,
      "Anwendung": 3091,
      "Anwend": 3092,
      "Anreicher": 3093,
      "Antoine": 3094,
      "noise": 3095,
      "ausgibt": 3096,
      "mitt": 3097,
      "traktion": 3098,
      "enspe": 3099,
      "related": 3100,
      "voneinand": 3101,
      "means": 3102,
      "formal": 3103,
      "formations": 3104,
      "Instead": 3105,
      "Informations": 3106,
      "defin": 3107,
      "deutet": 3108,
      "deprec": 3109,
      "deutlich": 3110,
      "Solving": 3111,
      "neural": 3112,
      "neuronal": 3113,
      "neutral": 3114,
      "ellen": 3115,
      "pretraining": 3116,
      "premis": 3117,
      "prepare": 3118,
      "const": 3119,
      "contra": 3120,
      "conta": 3121,
      "contr": 3122,
      "consum": 3123,
      "convert": 3124,
      "hohe": 3125,
      "housing": 3126,
      "aufgrund": 3127,
      "found": 3128,
      "releases": 3129,
      "appen": 3130,
      "design": 3131,
      "destens": 3132,
      "ichtet": 3133,
      "nennen": 3134,
      "zehn": 3135,
      "aller": 3136,
      "hrend": 3137,
      "within": 3138,
      "worse": 3139,
      "Beachten": 3140,
      "Bewertung": 3141,
      "notable": 3142,
      "combin": 3143,
      "complic": 3144,
      "combining": 3145,
      "spiel": 3146,
      "spark": 3147,
      "fewer": 3148,
      "ources": 3149,
      "plus": 3150,
      "plants": 3151,
      "vorhers": 3152,
      "vorschriften": 3153,
      "hindeutet": 3154,
      "atoren": 3155,
      "ights": 3156,
      "adv": 3157,
      "fine": 3158,
      "sup": 3159,
      "takes": 3160,
      "try": 3161,
      "trans": 3162,
      "trifft": 3163,
      "Second": 3164,
      "blemen": 3165,
      "besten": 3166,
      "besonder": 3167,
      "pooling": 3168,
      "Referenz": 3169,
      "Regar": 3170,
      "Repository": 3171,
      "baseline": 3172,
      "benötigt": 3173,
      "Klassifiz": 3174,
      "überein": 3175,
      "überprü": 3176,
      "übertrifft": 3177,
      "llig": 3178,
      "vid": 3179,
      "vice": 3180,
      "BERTs": 3181,
      "Wei": 3182,
      "visuellen": 3183,
      "Enrichment": 3184,
      "ressour": 3185,
      "respect": 3186,
      "resources": 3187,
      "texts": 3188,
      "rule": 3189,
      "sicherstellen": 3190,
      "detect": 3191,
      "jeden": 3192,
      "jedes": 3193,
      "iertes": 3194,
      "extractor": 3195,
      "Modellen": 3196,
      "fälle": 3197,
      "fältig": 3198,
      "Erstellung": 3199,
      "q_4": 3200,
      "ansatz": 3201,
      "examples": 3202,
      "Abdeck": 3203,
      "Abbil": 3204,
      "Bilder": 3205,
      "Bildes": 3206,
      "Bildern": 3207,
      "Textes": 3208,
      "Textklassifikations": 3209,
      "path": 3210,
      "lack": 3211,
      "legt": 3212,
      "value": 3213,
      "Aufbau": 3214,
      "Themen": 3215,
      "bessere": 3216,
      "liegen": 3217,
      "liegt": 3218,
      "obser": 3219,
      "numer": 3220,
      "ential": 3221,
      "Comm": 3222,
      "Complex": 3223,
      "darin": 3224,
      "daran": 3225,
      "darstellen": 3226,
      "darstellt": 3227,
      "darstellung": 3228,
      "darstellungen": 3229,
      "darzustellen": 3230,
      "given": 3231,
      "gives": 3232,
      "ipul": 3233,
      "lien": 3234,
      "liothe": 3235,
      "wogen": 3236,
      "statist": 3237,
      "tomatic": 3238,
      "Verfälschen": 3239,
      "Verfälschungs": 3240,
      "mehreren": 3241,
      "FeSTe": 3242,
      "zusagen": 3243,
      "unterstüt": 3244,
      "automatischen": 3245,
      "presenting": 3246,
      "markierten": 3247,
      "versal": 3248,
      "foiling": 3249,
      "expressions": 3250,
      "Vortraining": 3251,
      "Vorwissen": 3252,
      "Vorwärts": 3253,
      "lower": 3254,
      "manually": 3255,
      "manuell": 3256,
      "iedliche": 3257,
      "rechts": 3258,
      "improves": 3259,
      "formulierte": 3260,
      "davon": 3261,
      "durchschnitt": 3262,
      "lägige": 3263,
      "something": 3264,
      "appropri": 3265,
      "verwendeten": 3266,
      "thousands": 3267,
      "Learning": 3268,
      "PaLM": 3269,
      "bias": 3270,
      "frage": 3271,
      "grö": 3272,
      "kontro": 3273,
      "known": 3274,
      "setting": 3275,
      "solch": 3276,
      "solche": 3277,
      "solved": 3278,
      "fourteen": 3279,
      "Recht": 3280,
      "Versionshinweises": 3281,
      "Retrievals": 3282,
      "previously": 3283,
      "Satzklassifikations": 3284,
      "hatten": 3285,
      "mindestens": 3286,
      "third": 3287,
      "angewand": 3288,
      "angewendet": 3289,
      "folds": 3290,
      "Maastr": 3291,
      "bedeutet": 3292,
      "ids": 3293,
      "erns": 3294,
      "Datenressour": 3295,
      "aft": 3296,
      "affe": 3297,
      "peist": 3298,
      "people": 3299,
      "scarce": 3300,
      "testet": 3301,
      "strong": 3302,
      "strument": 3303,
      "predicts": 3304,
      "predictions": 3305,
      "pairs": 3306,
      "Gesetzesartikel": 3307,
      "Rechtsartikeln": 3308,
      "Rechtsvorschriften": 3309,
      "Also": 3310,
      "Alright": 3311,
      "Although": 3312,
      "indire": 3313,
      "indirect": 3314,
      "individ": 3315,
      "mainly": 3316,
      "Mengendarstellungen": 3317,
      "Generation": 3318,
      "Generator": 3319,
      "Robertas": 3320,
      "frühere": 3321,
      "schließen": 3322,
      "Ansätze": 3323,
      "gesamte": 3324,
      "rechtlichen": 3325,
      "großes": 3326,
      "specificity": 3327,
      "Schritts": 3328,
      "handeln": 3329,
      "kombin": 3330,
      "kompliz": 3331,
      "möchte": 3332,
      "simple": 3333,
      "vely": 3334,
      "einzigen": 3335,
      "einzigarti": 3336,
      "Klassifikators": 3337,
      "ansformers": 3338,
      "correctly": 3339,
      "belgische": 3340,
      "zusammenge": 3341,
      "zusammengestellt": 3342,
      "marization": 3343,
      "Obwohl": 3344,
      "access": 3345,
      "deductive": 3346,
      "dedukti": 3347,
      "goal": 3348,
      "ienced": 3349,
      "lude": 3350,
      "length": 3351,
      "misse": 3352,
      "vocab": 3353,
      "zifität": 3354,
      "reformulate": 3355,
      "queries": 3356,
      "ausgegebenen": 3357,
      "ausgewertet": 3358,
      "conclude": 3359,
      "spaces": 3360,
      "hinzuzufügen": 3361,
      "beschreibung": 3362,
      "Unterkategor": 3363,
      "Teiler": 3364,
      "Evaluations": 3365,
      "Summarization": 3366,
      "Tower": 3367,
      "create": 3368,
      "gelöst": 3369,
      "jurists": 3370,
      "links": 3371,
      "linken": 3372,
      "ponential": 3373,
      "trees": 3374,
      "treated": 3375,
      "wäre": 3376,
      "während": 3377,
      "letz": 3378,
      "einfache": 3379,
      "oduce": 3380,
      "direkt": 3381,
      "experienced": 3382,
      "seventeen": 3383,
      "Interpretier": 3384,
      "needs": 3385,
      "address": 3386,
      "subtra": 3387,
      "subcategories": 3388,
      "Abfragen": 3389,
      "interested": 3390,
      "Math23": 3391,
      "Asaf": 3392,
      "Transformers": 3393,
      "Zeichen": 3394,
      "Zudem": 3395,
      "Zuerst": 3396,
      "box": 3397,
      "botto": 3398,
      "distinguish": 3399,
      "effektiv": 3400,
      "filtern": 3401,
      "gerichtet": 3402,
      "instanzen": 3403,
      "instances": 3404,
      "anzösischen": 3405,
      "eingehen": 3406,
      "eingegeben": 3407,
      "allowed": 3408,
      "interpretability": 3409,
      "Einbettungs": 3410,
      "Paaren": 3411,
      "niedrige": 3412,
      "researches": 3413,
      "ailable": 3414,
      "eighteen": 3415,
      "korrekt": 3416,
      "phrase": 3417,
      "phrases": 3418,
      "whole": 3419,
      "issues": 3420,
      "sollte": 3421,
      "negative": 3422,
      "negatives": 3423,
      "contains": 3424,
      "Architectures": 3425,
      "sprachliche": 3426,
      "vorherigen": 3427,
      "vorherige": 3428,
      "vorherzusagen": 3429,
      "bestimmt": 3430,
      "coverage": 3431,
      "differences": 3432,
      "unterschiedliche": 3433,
      "Forschungen": 3434,
      "grundlegen": 3435,
      "structured": 3436,
      "folgenden": 3437,
      "indicator": 3438,
      "Grunde": 3439,
      "Grundlage": 3440,
      "Zusammenfassungsaufgabe": 3441,
      "Automatic": 3442,
      "Allan": 3443,
      "Konst": 3444,
      "Konstru": 3445,
      "Studie": 3446,
      "Texas": 3447,
      "Texte": 3448,
      "Which": 3449,
      "While": 3450,
      "falsch": 3451,
      "falschen": 3452,
      "freuen": 3453,
      "kleine": 3454,
      "machen": 3455,
      "semant": 3456,
      "uejs": 3457,
      "wandelt": 3458,
      "independently": 3459,
      "understand": 3460,
      "university": 3461,
      "verbessern": 3462,
      "product": 3463,
      "common": 3464,
      "community": 3465,
      "Spektr": 3466,
      "Spezifität": 3467,
      "paarweise": 3468,
      "spezifischen": 3469,
      "bestehenden": 3470,
      "calculated": 3471,
      "Relationen": 3472,
      "erzeugt": 3473,
      "unabhängig": 3474,
      "unabhängiger": 3475,
      "ursprüngliche": 3476,
      "vorgeschlagenen": 3477,
      "ARD": 3478,
      "AREN": 3479,
      "Bedeut": 3480,
      "Bedingung": 3481,
      "Berechn": 3482,
      "Bürger": 3483,
      "Bürgern": 3484,
      "Deductive": 3485,
      "Deducti": 3486,
      "Dokument": 3487,
      "Dokumente": 3488,
      "Folien": 3489,
      "Finally": 3490,
      "Fortschr": 3491,
      "Fortschritt": 3492,
      "IDF": 3493,
      "IDs": 3494,
      "Substanti": 3495,
      "Subtraktion": 3496,
      "Token": 3497,
      "aktuellen": 3498,
      "being": 3499,
      "backward": 3500,
      "easy": 3501,
      "easily": 3502,
      "grammat": 3503,
      "ihrer": 3504,
      "näher": 3505,
      "nämlich": 3506,
      "pfel": 3507,
      "param": 3508,
      "includes": 3509,
      "including": 3510,
      "behind": 3511,
      "directly": 3512,
      "implemen": 3513,
      "implement": 3514,
      "seq2seq": 3515,
      "perfect": 3516,
      "probability": 3517,
      "probably": 3518,
      "traditional": 3519,
      "relationship": 3520,
      "Instrumente": 3521,
      "Instrumenten": 3522,
      "constraint": 3523,
      "constraints": 3524,
      "suggesting": 3525,
      "beschriebenen": 3526,
      "ufiges": 3527,
      "basically": 3528,
      "itivity": 3529,
      "document": 3530,
      "documents": 3531,
      "interessant": 3532,
      "interpretierbar": 3533,
      "interpretierbare": 3534,
      "Extraction": 3535,
      "difficult": 3536,
      "möglicherweise": 3537,
      "optimiz": 3538,
      "limitations": 3539,
      "natürliche": 3540,
      "natürlichen": 3541,
      "tabellarische": 3542,
      "wärtspf": 3543,
      "explosion": 3544,
      "applicability": 3545,
      "identifying": 3546,
      "following": 3547,
      "Wahrscheinlichkeitsverteil": 3548,
      "developing": 3549,
      "Worteinbettungsmodelle": 3550,
      "ByteDance": 3551,
      "Korrektur": 3552,
      "Logs": 3553,
      "Lösen": 3554,
      "Prämisse": 3555,
      "Tests": 3556,
      "Varianten": 3557,
      "breites": 3558,
      "baumbasierte": 3559,
      "clean": 3560,
      "eventually": 3561,
      "effic": 3562,
      "feinabstimmen": 3563,
      "häufig": 3564,
      "knappen": 3565,
      "kurz": 3566,
      "practi": 3567,
      "particular": 3568,
      "wide": 3569,
      "welche": 3570,
      "waren": 3571,
      "wichtig": 3572,
      "zitierten": 3573,
      "challenging": 3574,
      "einschlägige": 3575,
      "gegenüber": 3576,
      "weckt": 3577,
      "beginnen": 3578,
      "forderung": 3579,
      "verfälschte": 3580,
      "schlechter": 3581,
      "schneidet": 3582,
      "schwierig": 3583,
      "professional": 3584,
      "decreases": 3585,
      "nehmen": 3586,
      "presence": 3587,
      "menschliche": 3588,
      "English": 3589,
      "wiederverwenden": 3590,
      "geteilt": 3591,
      "beitragen": 3592,
      "Einschränkungen": 3593,
      "mehrstufiges": 3594,
      "captured": 3595,
      "enntnis": 3596,
      "konzipiert": 3597,
      "scenario": 3598,
      "Wortprobleme": 3599,
      "Plausibilitäts": 3600,
      "erwähnt": 3601,
      "Argumentationsbeschreibung": 3602,
      "Herausforderung": 3603,
      "öffentlich": 3604,
      "character": 3605,
      "beispielsweise": 3606,
      "API": 3607,
      "Austin": 3608,
      "BSARD": 3609,
      "Bestand": 3610,
      "Bibliothe": 3611,
      "CodeBERT": 3612,
      "Clustering": 3613,
      "Deshalb": 3614,
      "Domäne": 3615,
      "Familie": 3616,
      "French": 3617,
      "Given": 3618,
      "Geld": 3619,
      "Harari": 3620,
      "Hypothese": 3621,
      "Jake": 3622,
      "Jerry": 3623,
      "Juristen": 3624,
      "Jierui": 3625,
      "Kamezawa": 3626,
      "Lastly": 3627,
      "Lärm": 3628,
      "Mittelwert": 3629,
      "Optim": 3630,
      "Pflanzen": 3631,
      "Pooling": 3632,
      "Rückwärtspf": 3633,
      "SUTD": 3634,
      "Steven": 3635,
      "Shekhar": 3636,
      "Scale": 3637,
      "Stichproben": 3638,
      "Sicherheit": 3639,
      "Tuned": 3640,
      "Wohnen": 3641,
      "XLNet": 3642,
      "Zweitens": 3643,
      "Zugang": 3644,
      "agno": 3645,
      "available": 3646,
      "bsites": 3647,
      "built": 3648,
      "bäume": 3649,
      "bieten": 3650,
      "disc": 3651,
      "drei": 3652,
      "französischen": 3653,
      "figure": 3654,
      "family": 3655,
      "fields": 3656,
      "falls": 3657,
      "gments": 3658,
      "gorith": 3659,
      "hypothesis": 3660,
      "ivil": 3661,
      "joint": 3662,
      "justice": 3663,
      "kodieren": 3664,
      "killed": 3665,
      "kündi": 3666,
      "library": 3667,
      "mithilfe": 3668,
      "money": 3669,
      "nächsten": 3670,
      "olog": 3671,
      "public": 3672,
      "risk": 3673,
      "setzen": 3674,
      "slides": 3675,
      "sprechen": 3676,
      "völlig": 3677,
      "vphrasen": 3678,
      "Ähnlichkeit": 3679,
      "übrigen": 3680,
      "erlaubt": 3681,
      "introduce": 3682,
      "investig": 3683,
      "invol": 3684,
      "chanis": 3685,
      "until": 3686,
      "unimodal": 3687,
      "unausgewogen": 3688,
      "unbalanced": 3689,
      "eingespeist": 3690,
      "stammt": 3691,
      "abbildet": 3692,
      "bewerten": 3693,
      "beziehen": 3694,
      "beantwort": 3695,
      "divisors": 3696,
      "existing": 3697,
      "entfernen": 3698,
      "entwickel": 3699,
      "oftware": 3700,
      "important": 3701,
      "vergleichen": 3702,
      "security": 3703,
      "bereinigten": 3704,
      "progress": 3705,
      "Anwendbarkeit": 3706,
      "Anreicherung": 3707,
      "enspezif": 3708,
      "voneinander": 3709,
      "deprecations": 3710,
      "premise": 3711,
      "contact": 3712,
      "combined": 3713,
      "complicated": 3714,
      "vorhersagt": 3715,
      "besondere": 3716,
      "Regarding": 3717,
      "Klassifizierung": 3718,
      "Abbildung": 3719,
      "observe": 3720,
      "appropriate": 3721,
      "kontroll": 3722,
      "Satzklassifikationsaufgabe": 3723,
      "angewandt": 3724,
      "Maastricht": 3725,
      "Datenressourcen": 3726,
      "komplizierte": 3727,
      "deduktiven": 3728,
      "vocabulary": 3729,
      "Unterkategorien": 3730,
      "Interpretierbarkeit": 3731,
      "addresses": 3732,
      "Math23K": 3733,
      "bottom": 3734,
      "distinguishing": 3735,
      "grundlegende": 3736,
      "Spektrum": 3737,
      "ARENA": 3738,
      "Bedeutung": 3739,
      "DeductiveReasoner": 3740,
      "Deductively": 3741,
      "Substantivphrasen": 3742,
      "relationships": 3743,
      "Wahrscheinlichkeitsverteilung": 3744,
      "Bibliothek": 3745,
      "08": 3746,
      "12": 3747,
      "15": 3748,
      "16": 3749,
      "19": 3750,
      "108": 3751,
      "24": 3752,
      "27": 3753,
      "200": 3754,
      "40": 3755,
      "400": 3756,
      "63": 3757,
      "600": 3758,
      "630": 3759,
      "633": 3760,
      "612": 3761,
      "77": 3762,
      "79": 3763,
      "80": 3764,
      "85": 3765,
      "830": 3766,
      "AM": 3767,
      "Af": 3768,
      "Ah": 3769,
      "Ap": 3770,
      "At": 3771,
      "Aut": 3772,
      "Akt": 3773,
      "Ass": 3774,
      "Apfel": 3775,
      "Bl": 3776,
      "Ber": 3777,
      "Bir": 3778,
      "Bese": 3779,
      "Bru": 3780,
      "Brü": 3781,
      "Bitte": 3782,
      "Ch": 3783,
      "Co": 3784,
      "Do": 3785,
      "Dre": 3786,
      "Dif": 3787,
      "Durch": 3788,
      "During": 3789,
      "Dadurch": 3790,
      "Dek": 3791,
      "Etw": 3792,
      "Eff": 3793,
      "Effe": 3794,
      "Ecke": 3795,
      "Emp": 3796,
      "From": 3797,
      "Filter": 3798,
      "Five": 3799,
      "Fünf": 3800,
      "Gl": 3801,
      "Ger": 3802,
      "Gle": 3803,
      "Gro": 3804,
      "Gem": 3805,
      "Gere": 3806,
      "Gute": 3807,
      "He": 3808,
      "Ho": 3809,
      "Has": 3810,
      "High": 3811,
      "Häl": 3812,
      "Hence": 3813,
      "Hilfe": 3814,
      "Ih": 3815,
      "Im": 3816,
      "Jahren": 3817,
      "Justi": 3818,
      "Kl": 3819,
      "Ko": 3820,
      "Kre": 3821,
      "Kand": 3822,
      "Kom": 3823,
      "Kann": 3824,
      "Keines": 3825,
      "Kategor": 3826,
      "Kenntnis": 3827,
      "Lass": 3828,
      "Län": 3829,
      "Liste": 3830,
      "Lerns": 3831,
      "My": 3832,
      "Mö": 3833,
      "Mü": 3834,
      "Man": 3835,
      "Mein": 3836,
      "Mut": 3837,
      "Mess": 3838,
      "Mang": 3839,
      "Might": 3840,
      "Merk": 3841,
      "Modal": 3842,
      "Moti": 3843,
      "Modul": 3844,
      "Now": 3845,
      "Namen": 3846,
      "Oder": 3847,
      "One": 3848,
      "Oben": 3849,
      "Open": 3850,
      "Operation": 3851,
      "Ple": 3852,
      "Par": 3853,
      "Pra": 3854,
      "Prom": 3855,
      "Prü": 3856,
      "Pseudo": 3857,
      "Qu": 3858,
      "Quellen": 3859,
      "Rä": 3860,
      "Res": 3861,
      "Rat": 3862,
      "Rang": 3863,
      "Son": 3864,
      "Sem": 3865,
      "Stra": 3866,
      "Str": 3867,
      "Sug": 3868,
      "Stichprobe": 3869,
      "Samm": 3870,
      "Situation": 3871,
      "Software": 3872,
      "Tat": 3873,
      "Tod": 3874,
      "Tau": 3875,
      "Taus": 3876,
      "Task": 3877,
      "Tabel": 3878,
      "Ur": 3879,
      "Uhr": 3880,
      "Von": 3881,
      "Vok": 3882,
      "Vuejs": 3883,
      "Wo": 3884,
      "War": 3885,
      "Well": 3886,
      "Where": 3887,
      "Welt": 3888,
      "Wert": 3889,
      "Zw": 3890,
      "Zun": 3891,
      "Zwe": 3892,
      "Zweck": 3893,
      "Zitate": 3894,
      "Zivil": 3895,
      "adi": 3896,
      "aim": 3897,
      "aut": 3898,
      "ace": 3899,
      "ade": 3900,
      "aff": 3901,
      "aining": 3902,
      "aves": 3903,
      "aid": 3904,
      "aill": 3905,
      "agra": 3906,
      "aking": 3907,
      "average": 3908,
      "bun": 3909,
      "bor": 3910,
      "bit": 3911,
      "bst": 3912,
      "bod": 3913,
      "bation": 3914,
      "bah": 3915,
      "bens": 3916,
      "brü": 3917,
      "brech": 3918,
      "bitten": 3919,
      "brauch": 3920,
      "cit": 3921,
      "cand": 3922,
      "cro": 3923,
      "cem": 3924,
      "care": 3925,
      "cip": 3926,
      "cies": 3927,
      "cute": 3928,
      "civil": 3929,
      "del": 3930,
      "dle": 3931,
      "dich": 3932,
      "dra": 3933,
      "dess": 3934,
      "dabe": 3935,
      "dnis": 3936,
      "during": 3937,
      "dpun": 3938,
      "dwelche": 3939,
      "eg": 3940,
      "egen": 3941,
      "eig": 3942,
      "equ": 3943,
      "evi": 3944,
      "euch": 3945,
      "evo": 3946,
      "every": 3947,
      "fes": 3948,
      "fir": 3949,
      "fund": 3950,
      "fte": 3951,
      "fut": 3952,
      "fly": 3953,
      "fif": 3954,
      "fang": 3955,
      "fän": 3956,
      "fla": 3957,
      "fuse": 3958,
      "fedi": 3959,
      "ftige": 3960,
      "frechtliche": 3961,
      "fgesetzbuch": 3962,
      "gal": 3963,
      "gier": 3964,
      "gese": 3965,
      "gmen": 3966,
      "gere": 3967,
      "gik": 3968,
      "gste": 3969,
      "gigen": 3970,
      "getr": 3971,
      "gelt": 3972,
      "gigkeit": 3973,
      "gment": 3974,
      "gbar": 3975,
      "gsten": 3976,
      "ggle": 3977,
      "gner": 3978,
      "gilt": 3979,
      "gfältig": 3980,
      "hu": 3981,
      "han": 3982,
      "hed": 3983,
      "hem": 3984,
      "hof": 3985,
      "hieren": 3986,
      "hsam": 3987,
      "happ": 3988,
      "hart": 3989,
      "hält": 3990,
      "haup": 3991,
      "haps": 3992,
      "io": 3993,
      "ides": 3994,
      "iest": 3995,
      "ives": 3996,
      "ired": 3997,
      "idaten": 3998,
      "ju": 3999,
      "jor": 4000,
      "jum": 4001,
      "jün": 4002,
      "jud": 4003,
      "kthe": 4004,
      "kste": 4005,
      "kanz": 4006,
      "künf": 4007,
      "kenntnis": 4008,
      "ls": 4009,
      "lü": 4010,
      "lin": 4011,
      "lit": 4012,
      "lar": 4013,
      "lus": 4014,
      "lge": 4015,
      "land": 4016,
      "lig": 4017,
      "lation": 4018,
      "lens": 4019,
      "lungs": 4020,
      "litt": 4021,
      "lange": 4022,
      "lern": 4023,
      "limm": 4024,
      "lord": 4025,
      "liste": 4026,
      "mer": 4027,
      "mor": 4028,
      "ming": 4029,
      "mem": 4030,
      "meine": 4031,
      "mens": 4032,
      "mang": 4033,
      "moder": 4034,
      "mann": 4035,
      "mliche": 4036,
      "meinen": 4037,
      "mierung": 4038,
      "mid": 4039,
      "mlung": 4040,
      "merk": 4041,
      "modal": 4042,
      "mieter": 4043,
      "mutigen": 4044,
      "modul": 4045,
      "ns": 4046,
      "nal": 4047,
      "nden": 4048,
      "nung": 4049,
      "nungen": 4050,
      "none": 4051,
      "nste": 4052,
      "näch": 4053,
      "nlo": 4054,
      "nati": 4055,
      "nutz": 4056,
      "nüt": 4057,
      "nice": 4058,
      "nbäume": 4059,
      "nbrech": 4060,
      "oy": 4061,
      "oun": 4062,
      "ood": 4063,
      "oten": 4064,
      "ove": 4065,
      "ober": 4066,
      "ouns": 4067,
      "oben": 4068,
      "open": 4069,
      "owed": 4070,
      "olate": 4071,
      "operation": 4072,
      "ped": 4073,
      "pte": 4074,
      "pass": 4075,
      "ply": 4076,
      "parti": 4077,
      "pft": 4078,
      "pting": 4079,
      "pular": 4080,
      "pick": 4081,
      "piling": 4082,
      "pseudo": 4083,
      "ror": 4084,
      "ric": 4085,
      "richt": 4086,
      "rest": 4087,
      "rank": 4088,
      "rifft": 4089,
      "rufen": 4090,
      "rational": 4091,
      "rights": 4092,
      "sw": 4093,
      "san": 4094,
      "sel": 4095,
      "sge": 4096,
      "sur": 4097,
      "szu": 4098,
      "sarti": 4099,
      "sicht": 4100,
      "sön": 4101,
      "sungs": 4102,
      "seinen": 4103,
      "seiner": 4104,
      "sproblem": 4105,
      "sine": 4106,
      "sele": 4107,
      "sbar": 4108,
      "sagen": 4109,
      "sklassifik": 4110,
      "sistent": 4111,
      "sänderungen": 4112,
      "symbo": 4113,
      "sregel": 4114,
      "situation": 4115,
      "sdarstellung": 4116,
      "skilled": 4117,
      "software": 4118,
      "sbesondere": 4119,
      "said": 4120,
      "tu": 4121,
      "tau": 4122,
      "tally": 4123,
      "tations": 4124,
      "tungs": 4125,
      "tled": 4126,
      "table": 4127,
      "tedi": 4128,
      "tely": 4129,
      "tdess": 4130,
      "uz": 4131,
      "uer": 4132,
      "uth": 4133,
      "uten": 4134,
      "uals": 4135,
      "ukt": 4136,
      "uiti": 4137,
      "uht": 4138,
      "vie": 4139,
      "vul": 4140,
      "vom": 4141,
      "vable": 4142,
      "vierten": 4143,
      "venty": 4144,
      "vanz": 4145,
      "vuejs": 4146,
      "win": 4147,
      "wicht": 4148,
      "wann": 4149,
      "wän": 4150,
      "wahl": 4151,
      "wies": 4152,
      "wür": 4153,
      "wid": 4154,
      "welle": 4155,
      "wörter": 4156,
      "wback": 4157,
      "wnlo": 4158,
      "xis": 4159,
      "yo": 4160,
      "yiel": 4161,
      "yers": 4162,
      "ywords": 4163,
      "zt": 4164,
      "zö": 4165,
      "zü": 4166,
      "zun": 4167,
      "zel": 4168,
      "zit": 4169,
      "zlich": 4170,
      "zents": 4171,
      "zäh": 4172,
      "Äpfel": 4173,
      "ßten": 4174,
      "ßnah": 4175,
      "äre": 4176,
      "ägen": 4177,
      "äter": 4178,
      "äße": 4179,
      "öne": 4180,
      "öße": 4181,
      "ühr": 4182,
      "üpft": 4183,
      "enst": 4184,
      "enab": 4185,
      "enco": 4186,
      "enable": 4187,
      "engl": 4188,
      "enhan": 4189,
      "erer": 4190,
      "erle": 4191,
      "ered": 4192,
      "erfor": 4193,
      "ersch": 4194,
      "erlä": 4195,
      "erweit": 4196,
      "erfas": 4197,
      "erheb": 4198,
      "ermöglich": 4199,
      "erlegen": 4200,
      "erforder": 4201,
      "erized": 4202,
      "erkannt": 4203,
      "erfassen": 4204,
      "ermöglichen": 4205,
      "erhält": 4206,
      "ermutigen": 4207,
      "error": 4208,
      "inte": 4209,
      "inct": 4210,
      "inher": 4211,
      "incor": 4212,
      "inner": 4213,
      "inances": 4214,
      "inhä": 4215,
      "instead": 4216,
      "incomplete": 4217,
      "instrument": 4218,
      "insbesondere": 4219,
      "cht": 4220,
      "chten": 4221,
      "chließ": 4222,
      "chtig": 4223,
      "chteil": 4224,
      "chmal": 4225,
      "chaff": 4226,
      "thor": 4227,
      "thres": 4228,
      "anst": 4229,
      "anter": 4230,
      "anno": 4231,
      "anstat": 4232,
      "ansehen": 4233,
      "anschließ": 4234,
      "announ": 4235,
      "anwend": 4236,
      "anwhile": 4237,
      "anbieten": 4238,
      "anfän": 4239,
      "ater": 4240,
      "ating": 4241,
      "ature": 4242,
      "ately": 4243,
      "ones": 4244,
      "once": 4245,
      "onomen": 4246,
      "onouns": 4247,
      "unit": 4248,
      "unto": 4249,
      "unden": 4250,
      "unber": 4251,
      "unpro": 4252,
      "unüber": 4253,
      "unlike": 4254,
      "uncollected": 4255,
      "unerfahren": 4256,
      "unwirk": 4257,
      "unmöglich": 4258,
      "unvollständi": 4259,
      "isy": 4260,
      "isen": 4261,
      "ision": 4262,
      "isieren": 4263,
      "isiert": 4264,
      "isierten": 4265,
      "islation": 4266,
      "asing": 4267,
      "aspe": 4268,
      "aspect": 4269,
      "elf": 4270,
      "els": 4271,
      "elie": 4272,
      "elbe": 4273,
      "elwörter": 4274,
      "orter": 4275,
      "orators": 4276,
      "orized": 4277,
      "alre": 4278,
      "ality": 4279,
      "alled": 4280,
      "align": 4281,
      "alwert": 4282,
      "alize": 4283,
      "although": 4284,
      "algorith": 4285,
      "titi": 4286,
      "tied": 4287,
      "tieren": 4288,
      "tiert": 4289,
      "tivation": 4290,
      "tiegen": 4291,
      "tiality": 4292,
      "iem": 4293,
      "ieves": 4294,
      "iebt": 4295,
      "iefly": 4296,
      "themen": 4297,
      "reten": 4298,
      "rece": 4299,
      "reach": 4300,
      "revis": 4301,
      "repe": 4302,
      "rective": 4303,
      "reine": 4304,
      "recall": 4305,
      "reassign": 4306,
      "repres": 4307,
      "retur": 4308,
      "recip": 4309,
      "revie": 4310,
      "itauf": 4311,
      "itere": 4312,
      "itable": 4313,
      "itete": 4314,
      "lei": 4315,
      "leist": 4316,
      "leeren": 4317,
      "leave": 4318,
      "leisten": 4319,
      "learn": 4320,
      "leidet": 4321,
      "leverage": 4322,
      "leaves": 4323,
      "einzu": 4324,
      "einde": 4325,
      "einspe": 4326,
      "eingr": 4327,
      "einzur": 4328,
      "einsehen": 4329,
      "eingest": 4330,
      "einschließlich": 4331,
      "einstellungen": 4332,
      "einteilen": 4333,
      "einleiten": 4334,
      "eingerichtet": 4335,
      "einbeziehen": 4336,
      "ety": 4337,
      "eterized": 4338,
      "star": 4339,
      "stly": 4340,
      "stage": 4341,
      "stische": 4342,
      "stelle": 4343,
      "stay": 4344,
      "stack": 4345,
      "stär": 4346,
      "streicht": 4347,
      "stspiel": 4348,
      "stood": 4349,
      "aren": 4350,
      "iche": 4351,
      "ichte": 4352,
      "usage": 4353,
      "usually": 4354,
      "ussing": 4355,
      "uschte": 4356,
      "ires": 4357,
      "irgen": 4358,
      "irly": 4359,
      "irrelevante": 4360,
      "irrelevanter": 4361,
      "gewo": 4362,
      "gezw": 4363,
      "gewis": 4364,
      "geord": 4365,
      "gefolgt": 4366,
      "gefügt": 4367,
      "gefun": 4368,
      "geweckt": 4369,
      "gegner": 4370,
      "gewies": 4371,
      "wegen": 4372,
      "wever": 4373,
      "week": 4374,
      "weights": 4375,
      "websites": 4376,
      "eding": 4377,
      "andard": 4378,
      "gens": 4379,
      "gende": 4380,
      "genauen": 4381,
      "gensatz": 4382,
      "genommen": 4383,
      "rather": 4384,
      "rauschte": 4385,
      "abstimm": 4386,
      "abzus": 4387,
      "abzur": 4388,
      "abger": 4389,
      "abdeck": 4390,
      "abschnitt": 4391,
      "abdecken": 4392,
      "abnimmt": 4393,
      "abgele": 4394,
      "above": 4395,
      "abrufen": 4396,
      "aborators": 4397,
      "urce": 4398,
      "uristic": 4399,
      "toward": 4400,
      "total": 4401,
      "toler": 4402,
      "totally": 4403,
      "denn": 4404,
      "denden": 4405,
      "denkt": 4406,
      "denzen": 4407,
      "dences": 4408,
      "dends": 4409,
      "dentiality": 4410,
      "derspr": 4411,
      "tend": 4412,
      "tents": 4413,
      "tencoder": 4414,
      "tended": 4415,
      "team": 4416,
      "teenth": 4417,
      "tected": 4418,
      "tefa": 4419,
      "assum": 4420,
      "assist": 4421,
      "role": 4422,
      "roffen": 4423,
      "ierter": 4424,
      "behalten": 4425,
      "bewerk": 4426,
      "beenden": 4427,
      "beutet": 4428,
      "become": 4429,
      "bezogen": 4430,
      "beachten": 4431,
      "bewertet": 4432,
      "bemerk": 4433,
      "did": 4434,
      "dig": 4435,
      "dient": 4436,
      "diver": 4437,
      "dict": 4438,
      "dive": 4439,
      "division": 4440,
      "diving": 4441,
      "dicial": 4442,
      "empl": 4443,
      "email": 4444,
      "exce": 4445,
      "exact": 4446,
      "exclu": 4447,
      "exponential": 4448,
      "ental": 4449,
      "entry": 4450,
      "entering": 4451,
      "ford": 4452,
      "forced": 4453,
      "forderungen": 4454,
      "umung": 4455,
      "umzu": 4456,
      "umformulieren": 4457,
      "ummeln": 4458,
      "oft": 4459,
      "often": 4460,
      "wirren": 4461,
      "imal": 4462,
      "impl": 4463,
      "imnis": 4464,
      "iminal": 4465,
      "impose": 4466,
      "impliz": 4467,
      "impossible": 4468,
      "ilten": 4469,
      "veral": 4470,
      "verfü": 4471,
      "verwor": 4472,
      "vertr": 4473,
      "verste": 4474,
      "verän": 4475,
      "verhalten": 4476,
      "versuch": 4477,
      "verlet": 4478,
      "verglichen": 4479,
      "verwand": 4480,
      "verstän": 4481,
      "verfolgt": 4482,
      "verzerrungen": 4483,
      "verkn": 4484,
      "verbleiben": 4485,
      "verwal": 4486,
      "veransch": 4487,
      "verleiten": 4488,
      "vermitt": 4489,
      "veröffentlich": 4490,
      "veranst": 4491,
      "verrauschte": 4492,
      "verwirren": 4493,
      "ists": 4494,
      "istischen": 4495,
      "uted": 4496,
      "utory": 4497,
      "utern": 4498,
      "somit": 4499,
      "soperator": 4500,
      "sowohl": 4501,
      "sofort": 4502,
      "igte": 4503,
      "ample": 4504,
      "amoun": 4505,
      "amental": 4506,
      "aulichen": 4507,
      "augments": 4508,
      "author": 4509,
      "schon": 4510,
      "schatz": 4511,
      "schauen": 4512,
      "schaft": 4513,
      "schaut": 4514,
      "schlimm": 4515,
      "schwelle": 4516,
      "schummeln": 4517,
      "modeled": 4518,
      "modellen": 4519,
      "seen": 4520,
      "section": 4521,
      "seiti": 4522,
      "separ": 4523,
      "segments": 4524,
      "seventy": 4525,
      "several": 4526,
      "permis": 4527,
      "person": 4528,
      "pertur": 4529,
      "persön": 4530,
      "zuvor": 4531,
      "zudem": 4532,
      "zuführen": 4533,
      "zugrund": 4534,
      "zuläss": 4535,
      "zuerst": 4536,
      "zuweist": 4537,
      "zufiltern": 4538,
      "zuerlegen": 4539,
      "zugewies": 4540,
      "zubehalten": 4541,
      "lying": 4542,
      "ifen": 4543,
      "ifach": 4544,
      "iffe": 4545,
      "tersprach": 4546,
      "ceive": 4547,
      "beruht": 4548,
      "ulty": 4549,
      "werte": 4550,
      "Vertr": 4551,
      "Versuch": 4552,
      "Verfol": 4553,
      "Verord": 4554,
      "Verlust": 4555,
      "Veränderungen": 4556,
      "Vermieter": 4557,
      "achteil": 4558,
      "achieves": 4559,
      "provision": 4560,
      "promis": 4561,
      "prozess": 4562,
      "promp": 4563,
      "problemen": 4564,
      "quoti": 4565,
      "ahme": 4566,
      "Annot": 4567,
      "Analy": 4568,
      "Ansam": 4569,
      "Anteil": 4570,
      "Annah": 4571,
      "Anwal": 4572,
      "Anliegen": 4573,
      "Anfrage": 4574,
      "Anfang": 4575,
      "Angenommen": 4576,
      "novel": 4577,
      "noisy": 4578,
      "ausget": 4579,
      "ausschließ": 4580,
      "ausgerichtet": 4581,
      "auszun": 4582,
      "auscht": 4583,
      "trag": 4584,
      "track": 4585,
      "trags": 4586,
      "tracing": 4587,
      "traversal": 4588,
      "hervor": 4589,
      "herigen": 4590,
      "herunter": 4591,
      "herange": 4592,
      "herausge": 4593,
      "ensure": 4594,
      "enswert": 4595,
      "rely": 4596,
      "relate": 4597,
      "relieren": 4598,
      "reluct": 4599,
      "meant": 4600,
      "meisten": 4601,
      "mechanis": 4602,
      "iction": 4603,
      "ically": 4604,
      "wenig": 4605,
      "wenige": 4606,
      "Inhal": 4607,
      "Independent": 4608,
      "Instrument": 4609,
      "deo": 4610,
      "deals": 4611,
      "decom": 4612,
      "defer": 4613,
      "deep": 4614,
      "Sobal": 4615,
      "Source": 4616,
      "neigh": 4617,
      "necess": 4618,
      "ellung": 4619,
      "ared": 4620,
      "preced": 4621,
      "preorder": 4622,
      "predefin": 4623,
      "confi": 4624,
      "contro": 4625,
      "convey": 4626,
      "confuse": 4627,
      "contents": 4628,
      "heits": 4629,
      "heurist": 4630,
      "heuristic": 4631,
      "heimnis": 4632,
      "hope": 4633,
      "holen": 4634,
      "hold": 4635,
      "hohem": 4636,
      "tsächlich": 4637,
      "tskanz": 4638,
      "auffäl": 4639,
      "aufgezeigt": 4640,
      "aufnimmt": 4641,
      "aufzuerlegen": 4642,
      "dasselbe": 4643,
      "twice": 4644,
      "vals": 4645,
      "validat": 4646,
      "unskilled": 4647,
      "pronouns": 4648,
      "released": 4649,
      "kehr": 4650,
      "keywords": 4651,
      "apple": 4652,
      "apples": 4653,
      "artifact": 4654,
      "Art": 4655,
      "Arten": 4656,
      "Artefa": 4657,
      "zepte": 4658,
      "zeitauf": 4659,
      "zeigte": 4660,
      "alliert": 4661,
      "allow": 4662,
      "hrheit": 4663,
      "esteten": 4664,
      "plement": 4665,
      "why": 4666,
      "wort": 4667,
      "worst": 4668,
      "world": 4669,
      "ätter": 4670,
      "Beim": 4671,
      "Bevor": 4672,
      "Begr": 4673,
      "Because": 4674,
      "Before": 4675,
      "Bezug": 4676,
      "Bezü": 4677,
      "tys": 4678,
      "notational": 4679,
      "comed": 4680,
      "complex": 4681,
      "compiling": 4682,
      "split": 4683,
      "spoten": 4684,
      "später": 4685,
      "weiser": 4686,
      "feed": 4687,
      "fehl": 4688,
      "feedforward": 4689,
      "ibungen": 4690,
      "ibution": 4691,
      "max": 4692,
      "mail": 4693,
      "making": 4694,
      "major": 4695,
      "plant": 4696,
      "plik": 4697,
      "plied": 4698,
      "play": 4699,
      "place": 4700,
      "vors": 4701,
      "voran": 4702,
      "vorzus": 4703,
      "vorgestellt": 4704,
      "vorkommen": 4705,
      "vorzustellen": 4706,
      "vordefin": 4707,
      "vorliegen": 4708,
      "generally": 4709,
      "generations": 4710,
      "generierung": 4711,
      "generierte": 4712,
      "generalize": 4713,
      "sense": 4714,
      "hinter": 4715,
      "cky": 4716,
      "cken": 4717,
      "asking": 4718,
      "ierendes": 4719,
      "ady": 4720,
      "advers": 4721,
      "added": 4722,
      "advice": 4723,
      "final": 4724,
      "langer": 4725,
      "sure": 4726,
      "suff": 4727,
      "suited": 4728,
      "suitable": 4729,
      "takti": 4730,
      "taken": 4731,
      "tried": 4732,
      "true": 4733,
      "truth": 4734,
      "Sehen": 4735,
      "Segmen": 4736,
      "bleibt": 4737,
      "beschaff": 4738,
      "poor": 4739,
      "popular": 4740,
      "uft": 4741,
      "uften": 4742,
      "ufige": 4743,
      "ufsge": 4744,
      "Sprachverteil": 4745,
      "Sprachaufgaben": 4746,
      "Sprachverstän": 4747,
      "stelligen": 4748,
      "trainiert": 4749,
      "trainierte": 4750,
      "traintu": 4751,
      "ischenwerte": 4752,
      "Referen": 4753,
      "Reformul": 4754,
      "Regel": 4755,
      "Recall": 4756,
      "Receive": 4757,
      "Rezepte": 4758,
      "basiertes": 4759,
      "basierendes": 4760,
      "betrifft": 4761,
      "betroffen": 4762,
      "henfol": 4763,
      "geschr": 4764,
      "ktischer": 4765,
      "benachteil": 4766,
      "überschriften": 4767,
      "überlassen": 4768,
      "übertreffen": 4769,
      "übersetzen": 4770,
      "überbrü": 4771,
      "überwin": 4772,
      "etzt": 4773,
      "steigen": 4774,
      "stetig": 4775,
      "steils": 4776,
      "steadi": 4777,
      "beizubehalten": 4778,
      "llaborators": 4779,
      "actants": 4780,
      "violate": 4781,
      "videnden": 4782,
      "Weg": 4783,
      "Weise": 4784,
      "Websites": 4785,
      "Weitere": 4786,
      "änkt": 4787,
      "änzen": 4788,
      "ängliche": 4789,
      "änenspezif": 4790,
      "Endpun": 4791,
      "matter": 4792,
      "resulti": 4793,
      "zenario": 4794,
      "ationssystem": 4795,
      "Feedforward": 4796,
      "Feature": 4797,
      "Prozents": 4798,
      "relevance": 4799,
      "counter": 4800,
      "cosine": 4801,
      "costly": 4802,
      "collaborators": 4803,
      "detailed": 4804,
      "determin": 4805,
      "detaill": 4806,
      "fies": 4807,
      "itigung": 4808,
      "extracts": 4809,
      "extractive": 4810,
      "extrakti": 4811,
      "Modellimplemen": 4812,
      "Modellverhalten": 4813,
      "Division": 4814,
      "Dividenden": 4815,
      "They": 4816,
      "half": 4817,
      "haltet": 4818,
      "Article": 4819,
      "sieben": 4820,
      "ungsreformul": 4821,
      "ungsaufgabe": 4822,
      "ungsgra": 4823,
      "ungsextraktion": 4824,
      "ungsbeispiels": 4825,
      "ungsansatz": 4826,
      "ungsstär": 4827,
      "Artikelkor": 4828,
      "Auslän": 4829,
      "Ausricht": 4830,
      "Auswahl": 4831,
      "Ausgewo": 4832,
      "Erweiter": 4833,
      "Ermitt": 4834,
      "Erkenntnis": 4835,
      "ansitiv": 4836,
      "etrisiert": 4837,
      "etuning": 4838,
      "Abhän": 4839,
      "Abschließ": 4840,
      "Abstand": 4841,
      "Abschn": 4842,
      "Abgleich": 4843,
      "Abzug": 4844,
      "Abkürz": 4845,
      "Absätze": 4846,
      "Bilanz": 4847,
      "Textklassifik": 4848,
      "Textmodelle": 4849,
      "corner": 4850,
      "corrective": 4851,
      "correlate": 4852,
      "downlo": 4853,
      "izien": 4854,
      "izient": 4855,
      "ulties": 4856,
      "works": 4857,
      "working": 4858,
      "laden": 4859,
      "layers": 4860,
      "zweimal": 4861,
      "internet": 4862,
      "interdependen": 4863,
      "intermedi": 4864,
      "legislation": 4865,
      "straight": 4866,
      "strafrechtliche": 4867,
      "Gesetzen": 4868,
      "Aufgrund": 4869,
      "That": 4870,
      "getesteten": 4871,
      "lieben": 4872,
      "obje": 4873,
      "obwohl": 4874,
      "useful": 4875,
      "beiträ": 4876,
      "Beispiele": 4877,
      "Nachher": 4878,
      "Nachbar": 4879,
      "Nachteile": 4880,
      "sive": 4881,
      "size": 4882,
      "entire": 4883,
      "entitled": 4884,
      "Einige": 4885,
      "Einheit": 4886,
      "Einzel": 4887,
      "Eintrag": 4888,
      "stimmt": 4889,
      "antik": 4890,
      "einert": 4891,
      "schritten": 4892,
      "besseres": 4893,
      "Exponential": 4894,
      "Mensch": 4895,
      "darum": 4896,
      "daraus": 4897,
      "darüber": 4898,
      "dargestellt": 4899,
      "ipants": 4900,
      "lives": 4901,
      "statisti": 4902,
      "statistic": 4903,
      "ignore": 4904,
      "igners": 4905,
      "performs": 4906,
      "performed": 4907,
      "performing": 4908,
      "numbers": 4909,
      "veness": 4910,
      "retrieved": 4911,
      "mehrerer": 4912,
      "speziell": 4913,
      "suchungen": 4914,
      "posite": 4915,
      "Fragenbeantwort": 4916,
      "Feinabstimmungsreformul": 4917,
      "beleuch": 4918,
      "beliebt": 4919,
      "ründen": 4920,
      "analyzed": 4921,
      "unterteil": 4922,
      "unterzogen": 4923,
      "unterstreicht": 4924,
      "gebunden": 4925,
      "geblieben": 4926,
      "automated": 4927,
      "automatisierten": 4928,
      "presented": 4929,
      "Bildbeschre": 4930,
      "ctives": 4931,
      "ctiveness": 4932,
      "messy": 4933,
      "messen": 4934,
      "markierter": 4935,
      "ähnen": 4936,
      "ierungsphase": 4937,
      "versus": 4938,
      "versprech": 4939,
      "neuer": 4940,
      "Voraus": 4941,
      "Vorher": 4942,
      "Vortrags": 4943,
      "capable": 4944,
      "los": 4945,
      "lot": 4946,
      "losen": 4947,
      "loss": 4948,
      "manipul": 4949,
      "manchmal": 4950,
      "sample": 4951,
      "sammelt": 4952,
      "sammeln": 4953,
      "uched": 4954,
      "ennamen": 4955,
      "rechnung": 4956,
      "formuliert": 4957,
      "formulated": 4958,
      "formulierten": 4959,
      "gebnissen": 4960,
      "dafür": 4961,
      "durchführen": 4962,
      "klassenspezif": 4963,
      "overcome": 4964,
      "zwar": 4965,
      "zwanz": 4966,
      "sometimes": 4967,
      "approxim": 4968,
      "classified": 4969,
      "showcase": 4970,
      "Ergebnissen": 4971,
      "Leave": 4972,
      "Leerze": 4973,
      "Lebens": 4974,
      "Legal": 4975,
      "fragen": 4976,
      "fraction": 4977,
      "gral": 4978,
      "konsistent": 4979,
      "kontakti": 4980,
      "kontraintu": 4981,
      "others": 4982,
      "otherwise": 4983,
      "sselwörter": 4984,
      "sets": 4985,
      "upper": 4986,
      "struggle": 4987,
      "solves": 4988,
      "solvable": 4989,
      "quantifies": 4990,
      "news": 4991,
      "newly": 4992,
      "fourth": 4993,
      "Rechte": 4994,
      "Versionshinweistext": 4995,
      "Versionshinweisklassen": 4996,
      "Versionshinweissatz": 4997,
      "Retrievalmodelle": 4998,
      "Mechanis": 4999,
      "Meanwhile": 5000,
      "Mehrheit": 5001,
      "Schlü": 5002,
      "Schöne": 5003,
      "Satzpaar": 5004,
      "centric": 5005,
      "centered": 5006,
      "vielen": 5007,
      "vieler": 5008,
      "vielleicht": 5009,
      "vielfältig": 5010,
      "vielversprech": 5011,
      "ürftige": 5012,
      "angehör": 5013,
      "angekommen": 5014,
      "angekündi": 5015,
      "angemessen": 5016,
      "arial": 5017,
      "methode": 5018,
      "Mail": 5019,
      "Maxim": 5020,
      "Mails": 5021,
      "Maßnah": 5022,
      "Traversal": 5023,
      "bedürftige": 5024,
      "idge": 5025,
      "multiplic": 5026,
      "örungsbeispiels": 5027,
      "ernt": 5028,
      "tiger": 5029,
      "tigten": 5030,
      "Datenwissen": 5031,
      "Datenquelle": 5032,
      "Beschre": 5033,
      "Besides": 5034,
      "Rolle": 5035,
      "Team": 5036,
      "afford": 5037,
      "criminal": 5038,
      "highlight": 5039,
      "operatoren": 5040,
      "pear": 5041,
      "scient": 5042,
      "summing": 5043,
      "tested": 5044,
      "strateg": 5045,
      "abstrakte": 5046,
      "abstrakten": 5047,
      "abstrahieren": 5048,
      "predict": 5049,
      "predicting": 5050,
      "Klassenaufgaben": 5051,
      "Ausdrucksdarstellung": 5052,
      "Rechtshil": 5053,
      "Rechtsthemen": 5054,
      "Rechtsfragen": 5055,
      "Algorith": 5056,
      "Belgier": 5057,
      "causes": 5058,
      "gesting": 5059,
      "hängen": 5060,
      "neten": 5061,
      "ziemliche": 5062,
      "ended": 5063,
      "endpoint": 5064,
      "endgül": 5065,
      "ineffe": 5066,
      "cheat": 5067,
      "eleven": 5068,
      "weitgehen": 5069,
      "bereichen": 5070,
      "pretationssystem": 5071,
      "apped": 5072,
      "sixty": 5073,
      "sixteen": 5074,
      "special": 5075,
      "Generators": 5076,
      "Generierungs": 5077,
      "Methodennamen": 5078,
      "Multiplik": 5079,
      "Video": 5080,
      "hashed": 5081,
      "names": 5082,
      "pushes": 5083,
      "intuiti": 5084,
      "percentage": 5085,
      "conduct": 5086,
      "ategie": 5087,
      "gesamten": 5088,
      "differently": 5089,
      "analysierte": 5090,
      "captions": 5091,
      "improved": 5092,
      "Beschränkungen": 5093,
      "Belgians": 5094,
      "specifically": 5095,
      "Zielwert": 5096,
      "Zielaufgabe": 5097,
      "komplex": 5098,
      "motivation": 5099,
      "möchten": 5100,
      "opport": 5101,
      "opposite": 5102,
      "simply": 5103,
      "zerlegt": 5104,
      "ersetzt": 5105,
      "reasoner": 5106,
      "einzige": 5107,
      "heading": 5108,
      "headings": 5109,
      "Klassifikation": 5110,
      "Encodern": 5111,
      "Encoders": 5112,
      "Gesetzbuch": 5113,
      "belgischer": 5114,
      "zusammenfasst": 5115,
      "zusammenhängen": 5116,
      "Systems": 5117,
      "Wortschatz": 5118,
      "bination": 5119,
      "binary": 5120,
      "binäre": 5121,
      "fache": 5122,
      "going": 5123,
      "iency": 5124,
      "ktives": 5125,
      "lution": 5126,
      "lucky": 5127,
      "mühsam": 5128,
      "misst": 5129,
      "missing": 5130,
      "mislead": 5131,
      "vierfache": 5132,
      "Überprü": 5133,
      "represented": 5134,
      "stenfalls": 5135,
      "stenlosen": 5136,
      "schiede": 5137,
      "fünfmal": 5138,
      "ausgegeben": 5139,
      "ausgebeutet": 5140,
      "datensätze": 5141,
      "concern": 5142,
      "concerns": 5143,
      "conclus": 5144,
      "spaar": 5145,
      "hinzugefügt": 5146,
      "beschreibt": 5147,
      "Unterwort": 5148,
      "Untersuchungen": 5149,
      "Unterschiede": 5150,
      "Universitäts": 5151,
      "Universitäten": 5152,
      "collection": 5153,
      "collects": 5154,
      "collecting": 5155,
      "answered": 5156,
      "answering": 5157,
      "Teilneh": 5158,
      "Teilbereichen": 5159,
      "Baseline": 5160,
      "Darstellung": 5161,
      "Darstellungen": 5162,
      "Grenzen": 5163,
      "Größe": 5164,
      "Summe": 5165,
      "Summierung": 5166,
      "Wissen": 5167,
      "bisherigen": 5168,
      "created": 5169,
      "feststellen": 5170,
      "festgele": 5171,
      "festlegt": 5172,
      "findlichkeit": 5173,
      "findings": 5174,
      "gelten": 5175,
      "gelingt": 5176,
      "gelernt": 5177,
      "helfen": 5178,
      "juristische": 5179,
      "juristischer": 5180,
      "linked": 5181,
      "richtigen": 5182,
      "sensitivity": 5183,
      "treibt": 5184,
      "uellste": 5185,
      "einfaches": 5186,
      "odukt": 5187,
      "direkte": 5188,
      "direkten": 5189,
      "directives": 5190,
      "explaining": 5191,
      "foreigners": 5192,
      "modelliert": 5193,
      "seventeenth": 5194,
      "Internet": 5195,
      "Interpretationssystem": 5196,
      "validation": 5197,
      "validieren": 5198,
      "validierung": 5199,
      "applies": 5200,
      "generationen": 5201,
      "adds": 5202,
      "additionally": 5203,
      "subword": 5204,
      "subsequence": 5205,
      "substanti": 5206,
      "subfields": 5207,
      "Problems": 5208,
      "extrahierten": 5209,
      "Verfälschungspaar": 5210,
      "ähnliche": 5211,
      "summarizes": 5212,
      "summarizing": 5213,
      "Verbesserungspoten": 5214,
      "consisting": 5215,
      "Zusammenfassung": 5216,
      "Zusammenfassend": 5217,
      "Handlungs": 5218,
      "Transitiv": 5219,
      "Umfrage": 5220,
      "Zuverläss": 5221,
      "both": 5222,
      "distinct": 5223,
      "eigenes": 5224,
      "effectiveness": 5225,
      "effektives": 5226,
      "filtert": 5227,
      "filtered": 5228,
      "filtering": 5229,
      "gerne": 5230,
      "glicher": 5231,
      "glicherweise": 5232,
      "nachfolgen": 5233,
      "phs": 5234,
      "stic": 5235,
      "stiges": 5236,
      "stieg": 5237,
      "erreichten": 5238,
      "erreichen": 5239,
      "erreichte": 5240,
      "instance": 5241,
      "installed": 5242,
      "installiert": 5243,
      "tierungen": 5244,
      "standard": 5245,
      "gemeinen": 5246,
      "gemacht": 5247,
      "gemäße": 5248,
      "gemeinert": 5249,
      "abhängigen": 5250,
      "Abstracts": 5251,
      "interpretation": 5252,
      "classifiers": 5253,
      "Paardarstellung": 5254,
      "Papers": 5255,
      "linguistischen": 5256,
      "similarly": 5257,
      "similarity": 5258,
      "similarities": 5259,
      "helps": 5260,
      "helpful": 5261,
      "Benchmarks": 5262,
      "Benchmarking": 5263,
      "niedriger": 5264,
      "Relukt": 5265,
      "Vielmehr": 5266,
      "Vielleicht": 5267,
      "cuts": 5268,
      "factors": 5269,
      "korrekten": 5270,
      "metric": 5271,
      "metriken": 5272,
      "nerable": 5273,
      "shed": 5274,
      "shorter": 5275,
      "shared": 5276,
      "whose": 5277,
      "wahrscheinlichkeit": 5278,
      "anymore": 5279,
      "unabhängige": 5280,
      "ordinances": 5281,
      "etwaige": 5282,
      "sources": 5283,
      "negativ": 5284,
      "negativen": 5285,
      "contained": 5286,
      "focusing": 5287,
      "focused": 5288,
      "angesichts": 5289,
      "angestiegen": 5290,
      "maybe": 5291,
      "vortrainiert": 5292,
      "vortrainierten": 5293,
      "vortrainiertes": 5294,
      "bestimmten": 5295,
      "ktoren": 5296,
      "benchmarks": 5297,
      "benchmarked": 5298,
      "visualize": 5299,
      "respondenzen": 5300,
      "fixed": 5301,
      "Ausgabewahrscheinlichkeit": 5302,
      "architektur": 5303,
      "schrittweise": 5304,
      "zusätzlich": 5305,
      "zusätzlichen": 5306,
      "zusätzlicher": 5307,
      "Forschung": 5308,
      "folgende": 5309,
      "folgendes": 5310,
      "indication": 5311,
      "indicate": 5312,
      "indicated": 5313,
      "indicators": 5314,
      "significantl": 5315,
      "Grundoperatoren": 5316,
      "Zusammenfassungsmodell": 5317,
      "Zusammenfassungsmodelle": 5318,
      "Zusammenfassungsansatz": 5319,
      "Zusammenfassungsmethode": 5320,
      "initialize": 5321,
      "initialisieren": 5322,
      "Fehleranalyse": 5323,
      "Fehlerverwal": 5324,
      "Existenzteil": 5325,
      "Allgemeinen": 5326,
      "Jeder": 5327,
      "Jedes": 5328,
      "Konzentrieren": 5329,
      "Korrespondenzen": 5330,
      "Mitte": 5331,
      "Mitarbeit": 5332,
      "Notations": 5333,
      "Relevanz": 5334,
      "Standard": 5335,
      "Stellung": 5336,
      "Störungsbeispiels": 5337,
      "Suche": 5338,
      "Textencoder": 5339,
      "Why": 5340,
      "Zählen": 5341,
      "bringt": 5342,
      "briefly": 5343,
      "bridge": 5344,
      "bilden": 5345,
      "citizen": 5346,
      "category": 5347,
      "categorized": 5348,
      "false": 5349,
      "freich": 5350,
      "freien": 5351,
      "freiem": 5352,
      "full": 5353,
      "fully": 5354,
      "höhere": 5355,
      "löst": 5356,
      "lösbar": 5357,
      "male": 5358,
      "rentes": 5359,
      "smallest": 5360,
      "urage": 5361,
      "variieren": 5362,
      "variant": 5363,
      "variations": 5364,
      "varianten": 5365,
      "variants": 5366,
      "zielt": 5367,
      "zielen": 5368,
      "understood": 5369,
      "underlying": 5370,
      "underperformed": 5371,
      "icherverb": 5372,
      "processes": 5373,
      "followed": 5374,
      "produce": 5375,
      "producing": 5376,
      "produkts": 5377,
      "commonly": 5378,
      "mathematische": 5379,
      "mathematical": 5380,
      "Speicherverb": 5381,
      "Reihenfol": 5382,
      "Gesamtzahl": 5383,
      "Gesamtkontext": 5384,
      "correspond": 5385,
      "correspondences": 5386,
      "paarweisen": 5387,
      "paarweiser": 5388,
      "Menschenverstand": 5389,
      "lowest": 5390,
      "Genauigkeiten": 5391,
      "klassenweisen": 5392,
      "klassifiziert": 5393,
      "networks": 5394,
      "einzelne": 5395,
      "einzelner": 5396,
      "Zeitpun": 5397,
      "Zeitschritten": 5398,
      "unabhängigen": 5399,
      "Netzwerken": 5400,
      "Netzwerkproblem": 5401,
      "Netzwerkproblemen": 5402,
      "gültiger": 5403,
      "Adress": 5404,
      "Bereich": 5405,
      "Bereichen": 5406,
      "Baumform": 5407,
      "Baumstruktur": 5408,
      "Baumgenerationen": 5409,
      "Foiling": 5410,
      "Folge": 5411,
      "Finabstimm": 5412,
      "Finetuning": 5413,
      "Links": 5414,
      "Metrik": 5415,
      "Perhaps": 5416,
      "Rahmens": 5417,
      "Richtlin": 5418,
      "Testdaten": 5419,
      "Testfälle": 5420,
      "Testinstanzen": 5421,
      "Tokio": 5422,
      "Tokyo": 5423,
      "aktuelle": 5424,
      "aktuellste": 5425,
      "balance": 5426,
      "beinhalten": 5427,
      "beinhaltet": 5428,
      "domänenspezif": 5429,
      "humans": 5430,
      "ihren": 5431,
      "longer": 5432,
      "paragra": 5433,
      "ported": 5434,
      "service": 5435,
      "sergebnissen": 5436,
      "enzfälle": 5437,
      "erwähnen": 5438,
      "ittsüberschriften": 5439,
      "behält": 5440,
      "behavi": 5441,
      "dividends": 5442,
      "directed": 5443,
      "execute": 5444,
      "versions": 5445,
      "perfekt": 5446,
      "perfekte": 5447,
      "traditionelle": 5448,
      "traditionellen": 5449,
      "Insbesondere": 5450,
      "Inferenzphase": 5451,
      "ungenutzte": 5452,
      "types": 5453,
      "typische": 5454,
      "typical": 5455,
      "typically": 5456,
      "completely": 5457,
      "computations": 5458,
      "beschrieben": 5459,
      "beschränkt": 5460,
      "gesetzt": 5461,
      "ikalisch": 5462,
      "änkung": 5463,
      "matches": 5464,
      "matched": 5465,
      "matching": 5466,
      "interessiert": 5467,
      "interessanten": 5468,
      "Funktionsgenerierung": 5469,
      "Extractor": 5470,
      "Extraktor": 5471,
      "difficulty": 5472,
      "difficulties": 5473,
      "strukturieren": 5474,
      "strukturierte": 5475,
      "strukturierten": 5476,
      "Trainingsverfahren": 5477,
      "describing": 5478,
      "maintains": 5479,
      "maintained": 5480,
      "maintaining": 5481,
      "optimieren": 5482,
      "optimize": 5483,
      "hochwertig": 5484,
      "accuracies": 5485,
      "ktivität": 5486,
      "limitation": 5487,
      "räumen": 5488,
      "tabellarischen": 5489,
      "tabellarischer": 5490,
      "exploit": 5491,
      "exploited": 5492,
      "application": 5493,
      "applicable": 5494,
      "Argumentation": 5495,
      "Transformermodells": 5496,
      "distributed": 5497,
      "berechneten": 5498,
      "niedrigeren": 5499,
      "niedrigsten": 5500,
      "unterscheidet": 5501,
      "Fehlerbehebung": 5502,
      "höherem": 5503,
      "follows": 5504,
      "Hauptproblem": 5505,
      "Hauptteil": 5506,
      "Hauptkategor": 5507,
      "Hauptbeitra": 5508,
      "Vektorraum": 5509,
      "development": 5510,
      "Beziehungsextraktion": 5511,
      "vorläufige": 5512,
      "Worteinbettungsmodell": 5513,
      "Worteinbettungsmodells": 5514,
      "142": 5515,
      "2014": 5516,
      "2020": 5517,
      "Fallrecht": 5518,
      "Korrekthe": 5519,
      "Logik": 5520,
      "Lösungs": 5521,
      "Präzed": 5522,
      "Testen": 5523,
      "Variante": 5524,
      "breaking": 5525,
      "baumbasierten": 5526,
      "eviction": 5527,
      "effizient": 5528,
      "feinabgestimm": 5529,
      "fails": 5530,
      "harder": 5531,
      "kurzen": 5532,
      "länger": 5533,
      "längste": 5534,
      "otienten": 5535,
      "praktischer": 5536,
      "participants": 5537,
      "partner": 5538,
      "widerspr": 5539,
      "welcomed": 5540,
      "wichtige": 5541,
      "wesentliche": 5542,
      "wesentlichen": 5543,
      "wesentlicher": 5544,
      "zitiert": 5545,
      "zogenen": 5546,
      "challenges": 5547,
      "iebene": 5548,
      "remove": 5549,
      "removing": 5550,
      "removals": 5551,
      "einiges": 5552,
      "einschaft": 5553,
      "started": 5554,
      "stützen": 5555,
      "gegenseiti": 5556,
      "genauer": 5557,
      "genauere": 5558,
      "abulars": 5559,
      "assessing": 5560,
      "assessment": 5561,
      "assigns": 5562,
      "assigning": 5563,
      "begründen": 5564,
      "verallgemeinert": 5565,
      "verfälschten": 5566,
      "schlechte": 5567,
      "schneiden": 5568,
      "schwieriger": 5569,
      "zugängliche": 5570,
      "ultate": 5571,
      "professionellen": 5572,
      "herauszufiltern": 5573,
      "reliable": 5574,
      "reliability": 5575,
      "reliably": 5576,
      "measure": 5577,
      "measures": 5578,
      "measuring": 5579,
      "Indikatoren": 5580,
      "decrees": 5581,
      "precision": 5582,
      "construction": 5583,
      "constructs": 5584,
      "constructing": 5585,
      "aufgabenbezogen": 5586,
      "keeps": 5587,
      "menschlichen": 5588,
      "outperforms": 5589,
      "outperformed": 5590,
      "ufenen": 5591,
      "video": 5592,
      "visuellem": 5593,
      "Englisch": 5594,
      "wiederholen": 5595,
      "geteilten": 5596,
      "Einschränkung": 5597,
      "ignored": 5598,
      "ignoriert": 5599,
      "ignoriere": 5600,
      "mehrstufige": 5601,
      "kontextabhängigen": 5602,
      "kontextunabhängigen": 5603,
      "konzipieren": 5604,
      "penalty": 5605,
      "penalized": 5606,
      "zurückgibt": 5607,
      "zurückgre": 5608,
      "zurückzuführen": 5609,
      "scenes": 5610,
      "Klassifikationsproblem": 5611,
      "Klassifikationssproblem": 5612,
      "Klassifikationsdatensätze": 5613,
      "Objekt": 5614,
      "Objekten": 5615,
      "Objektiv": 5616,
      "Wortproblemen": 5617,
      "Basismodell": 5618,
      "Basisarchitektur": 5619,
      "explained": 5620,
      "Handlungsteils": 5621,
      "Plausibilität": 5622,
      "shortcuts": 5623,
      "lexikalischen": 5624,
      "lexikalischer": 5625,
      "lexikalisches": 5626,
      "Forschungsziel": 5627,
      "Forschungsarbeit": 5628,
      "Forschungsarbeiten": 5629,
      "kleinen": 5630,
      "kleinste": 5631,
      "semantics": 5632,
      "Additionally": 5633,
      "Additionsoperator": 5634,
      "erwähnten": 5635,
      "Argumentationsfähigkeiten": 5636,
      "distributions": 5637,
      "Herausforderungen": 5638,
      "Phänomene": 5639,
      "Phänomenen": 5640,
      "Zustands": 5641,
      "kürzlich": 5642,
      "kürzere": 5643,
      "öffentlichen": 5644,
      "characters": 5645,
      "begrenzt": 5646,
      "begrenzten": 5647,
      "begrenzte": 5648,
      "berücksichtigen": 5649,
      "berücksichtigt": 5650,
      "berücksichtigten": 5651,
      "Rechtsangelegenheiten": 5652,
      "Aspekt": 5653,
      "Aspekte": 5654,
      "Fazit": 5655,
      "Faktoren": 5656,
      "Gewicht": 5657,
      "Gegensatz": 5658,
      "Hinweis": 5659,
      "Hinzufügen": 5660,
      "Mietern": 5661,
      "New": 5662,
      "Neuer": 5663,
      "Pronomen": 5664,
      "Produkt": 5665,
      "Phrase": 5666,
      "Phrasen": 5667,
      "Szenen": 5668,
      "Szenario": 5669,
      "Stattdess": 5670,
      "Statutory": 5671,
      "Termini": 5672,
      "Terminolog": 5673,
      "Zahlen": 5674,
      "dritten": 5675,
      "dritte": 5676,
      "fairly": 5677,
      "functions": 5678,
      "greater": 5679,
      "gathered": 5680,
      "hesitate": 5681,
      "hilfreich": 5682,
      "idates": 5683,
      "kostspiel": 5684,
      "kostenlosen": 5685,
      "korrelieren": 5686,
      "ktsymbo": 5687,
      "naive": 5688,
      "naiver": 5689,
      "ninete": 5690,
      "ninety": 5691,
      "portion": 5692,
      "porate": 5693,
      "ptions": 5694,
      "sinus": 5695,
      "sinkt": 5696,
      "sorgen": 5697,
      "sorgfältig": 5698,
      "testen": 5699,
      "tests": 5700,
      "wrong": 5701,
      "written": 5702,
      "wahrheits": 5703,
      "years": 5704,
      "ergab": 5705,
      "ergänzen": 5706,
      "erzielt": 5707,
      "erzielte": 5708,
      "increased": 5709,
      "increasing": 5710,
      "changed": 5711,
      "anschauen": 5712,
      "anzuwenden": 5713,
      "anzubieten": 5714,
      "annotated": 5715,
      "annotators": 5716,
      "unwahrscheinlicher": 5717,
      "altering": 5718,
      "alterations": 5719,
      "reinen": 5720,
      "reinem": 5721,
      "required": 5722,
      "requires": 5723,
      "recently": 5724,
      "remains": 5725,
      "remained": 5726,
      "regelbasierten": 5727,
      "referred": 5728,
      "leads": 5729,
      "ichtsgesetzbuch": 5730,
      "geeignet": 5731,
      "geeigneten": 5732,
      "absolute": 5733,
      "absoluten": 5734,
      "abgestimmten": 5735,
      "abgestimmte": 5736,
      "technical": 5737,
      "technisches": 5738,
      "ierungsaufgabe": 5739,
      "externen": 5740,
      "external": 5741,
      "umgewandelt": 5742,
      "umgekehr": 5743,
      "verstanden": 5744,
      "soziale": 5745,
      "sozialer": 5746,
      "schutzlos": 5747,
      "schutzbedürftige": 5748,
      "zuverlässig": 5749,
      "zuverlässiger": 5750,
      "terminate": 5751,
      "terminolog": 5752,
      "veys": 5753,
      "formalen": 5754,
      "Informationsquelle": 5755,
      "Informationsbeschaff": 5756,
      "neuronalen": 5757,
      "prepared": 5758,
      "constant": 5759,
      "constants": 5760,
      "contract": 5761,
      "contradict": 5762,
      "contrast": 5763,
      "contribution": 5764,
      "consuming": 5765,
      "consumption": 5766,
      "converted": 5767,
      "designed": 5768,
      "spielen": 5769,
      "sparks": 5770,
      "sparked": 5771,
      "advance": 5772,
      "advances": 5773,
      "supplement": 5774,
      "supported": 5775,
      "translate": 5776,
      "transitivity": 5777,
      "Referenzsatz": 5778,
      "Referenzsätze": 5779,
      "übereinstimmt": 5780,
      "überprüft": 5781,
      "überprüfen": 5782,
      "Abdeckung": 5783,
      "Abdeckungsgra": 5784,
      "Textklassifikationsmodell": 5785,
      "Textklassifikationsmodells": 5786,
      "paths": 5787,
      "numerischen": 5788,
      "numerical": 5789,
      "Common": 5790,
      "Community": 5791,
      "ipulation": 5792,
      "statistisch": 5793,
      "statistische": 5794,
      "Verfälschungsinstanzen": 5795,
      "Verfälschungseinstellungen": 5796,
      "unterstützen": 5797,
      "unterstützt": 5798,
      "durchschnittliche": 5799,
      "durchschnittlichen": 5800,
      "größer": 5801,
      "größten": 5802,
      "settings": 5803,
      "solcher": 5804,
      "solches": 5805,
      "affect": 5806,
      "affected": 5807,
      "indirekt": 5808,
      "indirekte": 5809,
      "indirectly": 5810,
      "individual": 5811,
      "individuals": 5812,
      "kombinieren": 5813,
      "kombiniert": 5814,
      "einzigartigen": 5815,
      "einzigartiges": 5816,
      "zusammengeführt": 5817,
      "zusammengefasst": 5818,
      "lengthiest": 5819,
      "Evaluationssklassifik": 5820,
      "Evaluationsmetriken": 5821,
      "letzten": 5822,
      "letzte": 5823,
      "subtraction": 5824,
      "subtractions": 5825,
      "eingegebene": 5826,
      "eingegebener": 5827,
      "Einbettungsmodellen": 5828,
      "Einbettungsräumen": 5829,
      "niedrigem": 5830,
      "Konstanten": 5831,
      "Konstante": 5832,
      "Konstruktion": 5833,
      "Konstrukten": 5834,
      "falsche": 5835,
      "semantische": 5836,
      "semantischer": 5837,
      "understanding": 5838,
      "Berechnung": 5839,
      "Berechnungen": 5840,
      "Dokumentänderungen": 5841,
      "Fortschritts": 5842,
      "Fortschritte": 5843,
      "grammatical": 5844,
      "grammatikalisch": 5845,
      "parameterized": 5846,
      "parametrisiert": 5847,
      "implementieren": 5848,
      "implementations": 5849,
      "interessantes": 5850,
      "interpretierbaren": 5851,
      "interpretierbares": 5852,
      "optimizing": 5853,
      "optimizations": 5854,
      "explosionsarti": 5855,
      "Korrekturen": 5856,
      "Testsatz": 5857,
      "Testsätzen": 5858,
      "cleaned": 5859,
      "efficient": 5860,
      "efficiency": 5861,
      "häufigsten": 5862,
      "practice": 5863,
      "practical": 5864,
      "wichtigste": 5865,
      "wichtigsten": 5866,
      "Plausibilitätsbias": 5867,
      "Plausibilitätsverzerrungen": 5868,
      "characteristic": 5869,
      "Bestandteil": 5870,
      "Lärmschwelle": 5871,
      "Optimierung": 5872,
      "Optimierungen": 5873,
      "Rückwärtspfad": 5874,
      "Rückwärtspfade": 5875,
      "agnostische": 5876,
      "agnostic": 5877,
      "discarded": 5878,
      "discussing": 5879,
      "kündigen": 5880,
      "publicly": 5881,
      "riskiere": 5882,
      "Ähnlichkeiten": 5883,
      "investigation": 5884,
      "investigate": 5885,
      "involve": 5886,
      "involves": 5887,
      "unimodalen": 5888,
      "unausgewogenen": 5889,
      "beantwortet": 5890,
      "entwickeln": 5891,
      "entwickelt": 5892,
      "kontrollieren": 5893,
      "kontrolliert": 5894,
      "Bibliotheksänderungen": 5895,
      "790": 5896,
      "After": 5897,
      "Applied": 5898,
      "Autor": 5899,
      "Aktanten": 5900,
      "Assume": 5901,
      "Apfelbäume": 5902,
      "Blätter": 5903,
      "Berufsge": 5904,
      "Birnbäume": 5905,
      "Beseitigung": 5906,
      "Bruchteil": 5907,
      "Brüche": 5908,
      "Change": 5909,
      "Counting": 5910,
      "Dreifach": 5911,
      "Diff": 5912,
      "Durchschnitt": 5913,
      "Dekreten": 5914,
      "Etwa": 5915,
      "Effizien": 5916,
      "Effektivität": 5917,
      "Empfindlichkeit": 5918,
      "Filtern": 5919,
      "Glück": 5920,
      "Gerichtsgesetzbuch": 5921,
      "Gleiche": 5922,
      "Große": 5923,
      "Gemeinschaft": 5924,
      "Gerechtig": 5925,
      "Heute": 5926,
      "However": 5927,
      "Hash": 5928,
      "Hälfte": 5929,
      "Ihnen": 5930,
      "Justiz": 5931,
      "Kluft": 5932,
      "Kosinus": 5933,
      "Kreuz": 5934,
      "Kandidaten": 5935,
      "Kombination": 5936,
      "Kategorien": 5937,
      "Kenntnisse": 5938,
      "Lassen": 5939,
      "Länge": 5940,
      "Lernszenario": 5941,
      "Möglicherweise": 5942,
      "Mühe": 5943,
      "Manipulation": 5944,
      "Muttersprach": 5945,
      "Messung": 5946,
      "Mangels": 5947,
      "Merkmale": 5948,
      "Modalitäten": 5949,
      "Motivation": 5950,
      "Modulen": 5951,
      "Please": 5952,
      "Partys": 5953,
      "Praxis": 5954,
      "Prompting": 5955,
      "Prüfung": 5956,
      "Quotienten": 5957,
      "Räumung": 5958,
      "Resultate": 5959,
      "Sonstiges": 5960,
      "Semantik": 5961,
      "Strafgesetzbuch": 5962,
      "Strategie": 5963,
      "Suggesting": 5964,
      "Sammlung": 5965,
      "Softwareprodukts": 5966,
      "Tatsächlich": 5967,
      "Today": 5968,
      "Tausende": 5969,
      "Tabelle": 5970,
      "Urteile": 5971,
      "Vokabulars": 5972,
      "Woche": 5973,
      "Warum": 5974,
      "Zwischenwerte": 5975,
      "Zunahme": 5976,
      "Zwei": 5977,
      "Zivilgesetzbuch": 5978,
      "aims": 5979,
      "bunch": 5980,
      "boring": 5981,
      "body": 5982,
      "bahnbrech": 5983,
      "brauchen": 5984,
      "citations": 5985,
      "candidates": 5986,
      "cross": 5987,
      "cements": 5988,
      "carefully": 5989,
      "deliver": 5990,
      "dichter": 5991,
      "drawback": 5992,
      "dabei": 5993,
      "dnisfähigkeiten": 5994,
      "eignen": 5995,
      "equals": 5996,
      "evict": 5997,
      "evolution": 5998,
      "everyone": 5999,
      "festen": 6000,
      "firm": 6001,
      "fundamental": 6002,
      "future": 6003,
      "fifteen": 6004,
      "flavors": 6005,
      "fedienst": 6006,
      "gesehen": 6007,
      "geregelt": 6008,
      "getrennt": 6009,
      "huge": 6010,
      "hoffen": 6011,
      "happy": 6012,
      "hauptsächlich": 6013,
      "judicial": 6014,
      "jumped": 6015,
      "jüngsten": 6016,
      "judgment": 6017,
      "künftige": 6018,
      "largest": 6019,
      "landlord": 6020,
      "ligste": 6021,
      "little": 6022,
      "lernbasiertes": 6023,
      "morgens": 6024,
      "memory": 6025,
      "mangelt": 6026,
      "modernste": 6027,
      "manners": 6028,
      "middle": 6029,
      "modalities": 6030,
      "modules": 6031,
      "nächste": 6032,
      "native": 6033,
      "nutzt": 6034,
      "nützlich": 6035,
      "oberen": 6036,
      "passed": 6037,
      "parties": 6038,
      "restlichen": 6039,
      "rankommen": 6040,
      "rationale": 6041,
      "swapped": 6042,
      "sanity": 6043,
      "selbst": 6044,
      "surveys": 6045,
      "szustand": 6046,
      "sichtliche": 6047,
      "selecting": 6048,
      "symbols": 6049,
      "tungssystem": 6050,
      "tedious": 6051,
      "vulnerable": 6052,
      "wändig": 6053,
      "würde": 6054,
      "widmen": 6055,
      "yield": 6056,
      "zögern": 6057,
      "zählen": 6058,
      "ührt": 6059,
      "enables": 6060,
      "encourage": 6061,
      "englischen": 6062,
      "enhancements": 6063,
      "erlebt": 6064,
      "erfordern": 6065,
      "erschwert": 6066,
      "erläutern": 6067,
      "erweitert": 6068,
      "erfassten": 6069,
      "erhebliche": 6070,
      "ermöglicht": 6071,
      "erfordert": 6072,
      "integral": 6073,
      "inherent": 6074,
      "incorporate": 6075,
      "innerhalb": 6076,
      "inhärentes": 6077,
      "chließen": 6078,
      "threshold": 6079,
      "antere": 6080,
      "annotiert": 6081,
      "anstatt": 6082,
      "anschließenden": 6083,
      "announced": 6084,
      "anwendbar": 6085,
      "anfänglicher": 6086,
      "untouched": 6087,
      "unberührt": 6088,
      "unprotected": 6089,
      "unübersichtliche": 6090,
      "unerfahrene": 6091,
      "unwirksam": 6092,
      "unvollständig": 6093,
      "aspects": 6094,
      "eliegende": 6095,
      "already": 6096,
      "alignment": 6097,
      "algorithm": 6098,
      "titive": 6099,
      "receives": 6100,
      "revise": 6101,
      "repetitive": 6102,
      "reassigned": 6103,
      "represents": 6104,
      "returns": 6105,
      "recipes": 6106,
      "review": 6107,
      "leistungsstär": 6108,
      "learned": 6109,
      "einzuteilen": 6110,
      "eindeutigen": 6111,
      "einspeisen": 6112,
      "eingrenzen": 6113,
      "einzurichten": 6114,
      "eingestuften": 6115,
      "starke": 6116,
      "stays": 6117,
      "irgendwelche": 6118,
      "gezwungen": 6119,
      "gewisse": 6120,
      "geordneten": 6121,
      "gefunden": 6122,
      "gegnerischen": 6123,
      "abzuschließen": 6124,
      "abzurufen": 6125,
      "abgerufenen": 6126,
      "abdeckt": 6127,
      "abgeleitete": 6128,
      "towards": 6129,
      "tolerantere": 6130,
      "assumptions": 6131,
      "assistance": 6132,
      "bewerkstelligen": 6133,
      "bemerkenswert": 6134,
      "diverse": 6135,
      "employ": 6136,
      "emails": 6137,
      "exceeding": 6138,
      "exactly": 6139,
      "excludes": 6140,
      "umzuformulieren": 6141,
      "implies": 6142,
      "impliziert": 6143,
      "verfügbar": 6144,
      "verworfen": 6145,
      "vertrieben": 6146,
      "verstehen": 6147,
      "verändern": 6148,
      "versucht": 6149,
      "verletze": 6150,
      "verwandte": 6151,
      "verknüpft": 6152,
      "verbleibenden": 6153,
      "veranschaulichen": 6154,
      "vermittelt": 6155,
      "veröffentlicht": 6156,
      "veranstalten": 6157,
      "amounts": 6158,
      "schaftler": 6159,
      "schlimmstenfalls": 6160,
      "separately": 6161,
      "permissive": 6162,
      "personal": 6163,
      "perturbation": 6164,
      "persönlichen": 6165,
      "zugrundeliegende": 6166,
      "zulässig": 6167,
      "zugewiesen": 6168,
      "Verträgen": 6169,
      "Versuchsergebnissen": 6170,
      "Verfolgung": 6171,
      "Verordnungen": 6172,
      "provisions": 6173,
      "promising": 6174,
      "prompting": 6175,
      "quotient": 6176,
      "Annotatoren": 6177,
      "Analyse": 6178,
      "Ansammlung": 6179,
      "Annahmen": 6180,
      "Anwaltskanz": 6181,
      "Anfangszustand": 6182,
      "novelty": 6183,
      "ausgetauscht": 6184,
      "ausschließt": 6185,
      "auszunutzen": 6186,
      "tracker": 6187,
      "herunterladen": 6188,
      "herangezogenen": 6189,
      "herausgefiltert": 6190,
      "reluctance": 6191,
      "mechanism": 6192,
      "Inhalte": 6193,
      "decomposed": 6194,
      "Sobald": 6195,
      "neighboring": 6196,
      "necessary": 6197,
      "precedents": 6198,
      "preordered": 6199,
      "predefined": 6200,
      "confidentiality": 6201,
      "control": 6202,
      "heuristische": 6203,
      "auffälligste": 6204,
      "validate": 6205,
      "artifacts": 6206,
      "Artefakte": 6207,
      "zeitaufwändig": 6208,
      "allows": 6209,
      "Begriffe": 6210,
      "Bezüglich": 6211,
      "fehlen": 6212,
      "majority": 6213,
      "planting": 6214,
      "vorzuschlagen": 6215,
      "vordefiniert": 6216,
      "vorliegenden": 6217,
      "adversarial": 6218,
      "suffer": 6219,
      "truthful": 6220,
      "Segmente": 6221,
      "Sprachverteilungen": 6222,
      "Sprachverständnisfähigkeiten": 6223,
      "Referenzen": 6224,
      "Reformulierungsphase": 6225,
      "geschriebene": 6226,
      "benachteiligt": 6227,
      "überbrücken": 6228,
      "überwinden": 6229,
      "steadily": 6230,
      "Endpunktsymbo": 6231,
      "resultieren": 6232,
      "Prozentsatz": 6233,
      "counterintuiti": 6234,
      "determined": 6235,
      "detaillierte": 6236,
      "extraktive": 6237,
      "Modellimplementierungen": 6238,
      "Artikelkorpus": 6239,
      "Ausländer": 6240,
      "Ausrichtung": 6241,
      "Ausgewogenheit": 6242,
      "Erweiterungen": 6243,
      "Ermittlungen": 6244,
      "Erkenntnissen": 6245,
      "Abhängigkeit": 6246,
      "Abschließend": 6247,
      "Abschnittsüberschriften": 6248,
      "Abgleichsregel": 6249,
      "Abkürzungen": 6250,
      "Textklassifikation": 6251,
      "download": 6252,
      "interdependence": 6253,
      "intermediate": 6254,
      "straightforward": 6255,
      "object": 6256,
      "beiträgt": 6257,
      "Nachbarartikeln": 6258,
      "Einzelnen": 6259,
      "Exponentialrechnung": 6260,
      "statistical": 6261,
      "statistically": 6262,
      "spezieller": 6263,
      "Fragenbeantwortung": 6264,
      "Feinabstimmungsreformulierungsaufgabe": 6265,
      "beleuchten": 6266,
      "unterteilt": 6267,
      "Bildbeschreibungen": 6268,
      "manipulating": 6269,
      "klassenspezifischer": 6270,
      "zwanzig": 6271,
      "approximate": 6272,
      "Leerzeichen": 6273,
      "kontaktieren": 6274,
      "kontraintuitiv": 6275,
      "Mechanismus": 6276,
      "Schlüsselwörter": 6277,
      "vielversprechend": 6278,
      "angehören": 6279,
      "angekündigt": 6280,
      "Maximalwert": 6281,
      "Maßnahme": 6282,
      "multiplication": 6283,
      "Datenwissenschaftler": 6284,
      "Beschreibung": 6285,
      "highlighting": 6286,
      "scientists": 6287,
      "strategy": 6288,
      "abstrahierende": 6289,
      "Rechtshilfedienst": 6290,
      "Algorithmus": 6291,
      "endgültigen": 6292,
      "ineffective": 6293,
      "weitgehend": 6294,
      "Generierungsprozess": 6295,
      "Multiplikation": 6296,
      "komplexe": 6297,
      "opportunity": 6298,
      "Wortschatzliste": 6299,
      "misleading": 6300,
      "Überprüfung": 6301,
      "conclusion": 6302,
      "Universitätsdatensatz": 6303,
      "Teilnehmer": 6304,
      "festgelegt": 6305,
      "substantial": 6306,
      "Verbesserungspotenzial": 6307,
      "Handlungsverb": 6308,
      "Transitivität": 6309,
      "Zuverlässigkeit": 6310,
      "nachfolgend": 6311,
      "Reluktanz": 6312,
      "Fehlerverwaltungssystem": 6313,
      "Mitarbeitern": 6314,
      "Notationsvarianten": 6315,
      "Relevanzwert": 6316,
      "Textencodern": 6317,
      "Speicherverbrauch": 6318,
      "Reihenfolge": 6319,
      "Zeitpunkt": 6320,
      "Adressen": 6321,
      "Finabstimmungsansatz": 6322,
      "Richtlinien": 6323,
      "domänenspezifisches": 6324,
      "paragraphs": 6325,
      "behavior": 6326,
      "Hauptkategorie": 6327,
      "Hauptbeitrag": 6328,
      "Korrektheit": 6329,
      "Lösungsverfahren": 6330,
      "Präzedenzfälle": 6331,
      "feinabgestimmt": 6332,
      "widerspricht": 6333,
      "gegenseitige": 6334,
      "aufgabenbezogene": 6335,
      "wiederholende": 6336,
      "zurückgreifen": 6337,
      "Gewichtungen": 6338,
      "Neuerung": 6339,
      "Stattdessen": 6340,
      "Terminologie": 6341,
      "kostspielige": 6342,
      "nineteen": 6343,
      "wahrheitsgemäße": 6344,
      "ergänzenden": 6345,
      "umgekehrte": 6346,
      "terminology": 6347,
      "Informationsbeschaffungsaufgabe": 6348,
      "supplementary": 6349,
      "Abdeckungsgrad": 6350,
      "Evaluationssklassifikatoren": 6351,
      "explosionsartige": 6352,
      "Berufsgeheimnis": 6353,
      "Dreifachen": 6354,
      "Effizienz": 6355,
      "Gerechtigkeit": 6356,
      "Kreuzvalidierung": 6357,
      "Muttersprache": 6358,
      "bahnbrechende": 6359,
      "drawbacks": 6360,
      "leistungsstärkste": 6361,
      "Anwaltskanzlei": 6362,
      "Endpunktsymbole": 6363,
      "counterintuitive": 6364
    },
    "merges": [
      [
        "e",
        "n"
      ],
      [
        "e",
        "r"
      ],
      [
        "i",
        "n"
      ],
      [
        "c",
        "h"
      ],
      [
        "e",
        "s"
      ],
      [
        "t",
        "h"
      ],
      [
        "a",
        "n"
      ],
      [
        "a",
        "t"
      ],
      [
        "o",
        "n"
      ],
      [
        "u",
        "n"
      ],
      [
        "i",
        "s"
      ],
      [
        "a",
        "s"
      ],
      [
        "e",
        "l"
      ],
      [
        "o",
        "r"
      ],
      [
        "a",
        "l"
      ],
      [
        "t",
        "i"
      ],
      [
        "i",
        "e"
      ],
      [
        "th",
        "e"
      ],
      [
        "r",
        "e"
      ],
      [
        "i",
        "t"
      ],
      [
        "l",
        "e"
      ],
      [
        "e",
        "in"
      ],
      [
        "e",
        "t"
      ],
      [
        "s",
        "t"
      ],
      [
        "a",
        "r"
      ],
      [
        "i",
        "ch"
      ],
      [
        "o",
        "d"
      ],
      [
        "u",
        "s"
      ],
      [
        "i",
        "r"
      ],
      [
        "g",
        "e"
      ],
      [
        "w",
        "e"
      ],
      [
        "e",
        "d"
      ],
      [
        "in",
        "g"
      ],
      [
        "an",
        "d"
      ],
      [
        "g",
        "en"
      ],
      [
        "r",
        "a"
      ],
      [
        "a",
        "b"
      ],
      [
        "d",
        "ie"
      ],
      [
        "u",
        "r"
      ],
      [
        "t",
        "o"
      ],
      [
        "d",
        "en"
      ],
      [
        "i",
        "on"
      ],
      [
        "d",
        "er"
      ],
      [
        "t",
        "en"
      ],
      [
        "un",
        "d"
      ],
      [
        "t",
        "e"
      ],
      [
        "as",
        "s"
      ],
      [
        "r",
        "o"
      ],
      [
        "i",
        "er"
      ],
      [
        "b",
        "e"
      ],
      [
        "d",
        "i"
      ],
      [
        "od",
        "el"
      ],
      [
        "e",
        "m"
      ],
      [
        "un",
        "g"
      ],
      [
        "e",
        "x"
      ],
      [
        "en",
        "t"
      ],
      [
        "f",
        "or"
      ],
      [
        "u",
        "m"
      ],
      [
        "o",
        "f"
      ],
      [
        "w",
        "ir"
      ],
      [
        "i",
        "m"
      ],
      [
        "i",
        "l"
      ],
      [
        "v",
        "er"
      ],
      [
        "is",
        "t"
      ],
      [
        "u",
        "t"
      ],
      [
        "s",
        "o"
      ],
      [
        "i",
        "g"
      ],
      [
        "a",
        "m"
      ],
      [
        "a",
        "u"
      ],
      [
        "c",
        "t"
      ],
      [
        "at",
        "ion"
      ],
      [
        "s",
        "ch"
      ],
      [
        "m",
        "odel"
      ],
      [
        "ti",
        "on"
      ],
      [
        "s",
        "e"
      ],
      [
        "p",
        "er"
      ],
      [
        "z",
        "u"
      ],
      [
        "l",
        "y"
      ],
      [
        "i",
        "f"
      ],
      [
        "l",
        "ich"
      ],
      [
        "t",
        "er"
      ],
      [
        "l",
        "ass"
      ],
      [
        "v",
        "e"
      ],
      [
        "c",
        "e"
      ],
      [
        "b",
        "er"
      ],
      [
        "u",
        "l"
      ],
      [
        "o",
        "m"
      ],
      [
        "w",
        "er"
      ],
      [
        "V",
        "er"
      ],
      [
        "a",
        "ch"
      ],
      [
        "f",
        "ü"
      ],
      [
        "p",
        "ro"
      ],
      [
        "q",
        "u"
      ],
      [
        "a",
        "h"
      ],
      [
        "es",
        "s"
      ],
      [
        "A",
        "n"
      ],
      [
        "n",
        "o"
      ],
      [
        "a",
        "us"
      ],
      [
        "a",
        "ge"
      ],
      [
        "m",
        "it"
      ],
      [
        "ein",
        "e"
      ],
      [
        "t",
        "ra"
      ],
      [
        "h",
        "er"
      ],
      [
        "d",
        "at"
      ],
      [
        "en",
        "s"
      ],
      [
        "es",
        "e"
      ],
      [
        "r",
        "el"
      ],
      [
        "v",
        "on"
      ],
      [
        "m",
        "e"
      ],
      [
        "for",
        "m"
      ],
      [
        "i",
        "c"
      ],
      [
        "w",
        "en"
      ],
      [
        "th",
        "at"
      ],
      [
        "at",
        "z"
      ],
      [
        "I",
        "n"
      ],
      [
        "d",
        "e"
      ],
      [
        "D",
        "at"
      ],
      [
        "is",
        "ch"
      ],
      [
        "as",
        "e"
      ],
      [
        "S",
        "o"
      ],
      [
        "n",
        "e"
      ],
      [
        "el",
        "l"
      ],
      [
        "al",
        "so"
      ],
      [
        "er",
        "en"
      ],
      [
        "a",
        "re"
      ],
      [
        "p",
        "re"
      ],
      [
        "c",
        "on"
      ],
      [
        "h",
        "e"
      ],
      [
        "h",
        "o"
      ],
      [
        "t",
        "s"
      ],
      [
        "au",
        "f"
      ],
      [
        "d",
        "ass"
      ],
      [
        "un",
        "gen"
      ],
      [
        "i",
        "el"
      ],
      [
        "t",
        "w"
      ],
      [
        "v",
        "al"
      ],
      [
        "un",
        "s"
      ],
      [
        "f",
        "o"
      ],
      [
        "i",
        "th"
      ],
      [
        "p",
        "r"
      ],
      [
        "th",
        "is"
      ],
      [
        "fü",
        "r"
      ],
      [
        "rel",
        "e"
      ],
      [
        "k",
        "e"
      ],
      [
        "a",
        "p"
      ],
      [
        "d",
        "es"
      ],
      [
        "ar",
        "ti"
      ],
      [
        "ich",
        "t"
      ],
      [
        "A",
        "r"
      ],
      [
        "as",
        "et"
      ],
      [
        "ab",
        "en"
      ],
      [
        "d",
        "as"
      ],
      [
        "di",
        "es"
      ],
      [
        "n",
        "en"
      ],
      [
        "z",
        "e"
      ],
      [
        "an",
        "g"
      ],
      [
        "al",
        "l"
      ],
      [
        "h",
        "r"
      ],
      [
        "w",
        "ith"
      ],
      [
        "es",
        "t"
      ],
      [
        "dat",
        "aset"
      ],
      [
        "p",
        "le"
      ],
      [
        "c",
        "an"
      ],
      [
        "c",
        "lass"
      ],
      [
        "w",
        "h"
      ],
      [
        "w",
        "or"
      ],
      [
        "ä",
        "t"
      ],
      [
        "in",
        "d"
      ],
      [
        "al",
        "s"
      ],
      [
        "ra",
        "ch"
      ],
      [
        "at",
        "e"
      ],
      [
        "Dat",
        "ens"
      ],
      [
        "W",
        "ir"
      ],
      [
        "od",
        "er"
      ],
      [
        "al",
        "ly"
      ],
      [
        "B",
        "e"
      ],
      [
        "h",
        "aben"
      ],
      [
        "t",
        "y"
      ],
      [
        "no",
        "t"
      ],
      [
        "c",
        "om"
      ],
      [
        "k",
        "el"
      ],
      [
        "s",
        "p"
      ],
      [
        "we",
        "is"
      ],
      [
        "f",
        "e"
      ],
      [
        "o",
        "ur"
      ],
      [
        "an",
        "n"
      ],
      [
        "i",
        "b"
      ],
      [
        "m",
        "a"
      ],
      [
        "m",
        "en"
      ],
      [
        "p",
        "l"
      ],
      [
        "v",
        "or"
      ],
      [
        "gen",
        "er"
      ],
      [
        "S",
        "p"
      ],
      [
        "s",
        "en"
      ],
      [
        "h",
        "in"
      ],
      [
        "er",
        "e"
      ],
      [
        "ti",
        "m"
      ],
      [
        "c",
        "k"
      ],
      [
        "at",
        "or"
      ],
      [
        "as",
        "k"
      ],
      [
        "ier",
        "en"
      ],
      [
        "ig",
        "h"
      ],
      [
        "An",
        "d"
      ],
      [
        "a",
        "d"
      ],
      [
        "f",
        "in"
      ],
      [
        "l",
        "ang"
      ],
      [
        "s",
        "u"
      ],
      [
        "t",
        "a"
      ],
      [
        "t",
        "r"
      ],
      [
        "ö",
        "n"
      ],
      [
        "arti",
        "c"
      ],
      [
        "S",
        "e"
      ],
      [
        "b",
        "le"
      ],
      [
        "k",
        "ön"
      ],
      [
        "M",
        "odel"
      ],
      [
        "b",
        "es"
      ],
      [
        "o",
        "ut"
      ],
      [
        "p",
        "o"
      ],
      [
        "t",
        "ask"
      ],
      [
        "u",
        "f"
      ],
      [
        "u",
        "age"
      ],
      [
        "wer",
        "den"
      ],
      [
        "Sp",
        "rach"
      ],
      [
        "lang",
        "uage"
      ],
      [
        "d",
        "em"
      ],
      [
        "s",
        "ion"
      ],
      [
        "ä",
        "l"
      ],
      [
        "on",
        "e"
      ],
      [
        "st",
        "ell"
      ],
      [
        "ro",
        "m"
      ],
      [
        "tra",
        "in"
      ],
      [
        "isch",
        "en"
      ],
      [
        "R",
        "e"
      ],
      [
        "b",
        "as"
      ],
      [
        "b",
        "et"
      ],
      [
        "h",
        "en"
      ],
      [
        "an",
        "t"
      ],
      [
        "or",
        "e"
      ],
      [
        "f",
        "rom"
      ],
      [
        "g",
        "es"
      ],
      [
        "k",
        "t"
      ],
      [
        "it",
        "y"
      ],
      [
        "model",
        "s"
      ],
      [
        "tw",
        "o"
      ],
      [
        "b",
        "en"
      ],
      [
        "her",
        "e"
      ],
      [
        "A",
        "S"
      ],
      [
        "K",
        "lass"
      ],
      [
        "R",
        "T"
      ],
      [
        "f",
        "f"
      ],
      [
        "i",
        "k"
      ],
      [
        "s",
        "ind"
      ],
      [
        "ü",
        "ber"
      ],
      [
        "et",
        "z"
      ],
      [
        "st",
        "e"
      ],
      [
        "be",
        "i"
      ],
      [
        "Datens",
        "atz"
      ],
      [
        "l",
        "l"
      ],
      [
        "wh",
        "ich"
      ],
      [
        "B",
        "E"
      ],
      [
        "a",
        "ct"
      ],
      [
        "v",
        "i"
      ],
      [
        "ver",
        "wen"
      ],
      [
        "Ver",
        "sion"
      ],
      [
        "BE",
        "RT"
      ],
      [
        "G",
        "es"
      ],
      [
        "U",
        "n"
      ],
      [
        "W",
        "e"
      ],
      [
        "a",
        "ve"
      ],
      [
        "v",
        "is"
      ],
      [
        "ä",
        "n"
      ],
      [
        "per",
        "im"
      ],
      [
        "E",
        "n"
      ],
      [
        "b",
        "y"
      ],
      [
        "m",
        "at"
      ],
      [
        "o",
        "us"
      ],
      [
        "r",
        "es"
      ],
      [
        "z",
        "en"
      ],
      [
        "te",
        "x"
      ],
      [
        "ex",
        "t"
      ],
      [
        "ation",
        "s"
      ],
      [
        "F",
        "e"
      ],
      [
        "P",
        "ro"
      ],
      [
        "c",
        "es"
      ],
      [
        "c",
        "tion"
      ],
      [
        "h",
        "ave"
      ],
      [
        "rele",
        "v"
      ],
      [
        "kön",
        "nen"
      ],
      [
        "Sprach",
        "model"
      ],
      [
        "F",
        "ra"
      ],
      [
        "k",
        "tion"
      ],
      [
        "r",
        "u"
      ],
      [
        "s",
        "ich"
      ],
      [
        "ie",
        "val"
      ],
      [
        "ar",
        "k"
      ],
      [
        "ent",
        "s"
      ],
      [
        "tim",
        "m"
      ],
      [
        "tex",
        "t"
      ],
      [
        "c",
        "o"
      ],
      [
        "d",
        "et"
      ],
      [
        "f",
        "i"
      ],
      [
        "f",
        "eren"
      ],
      [
        "i",
        "ti"
      ],
      [
        "i",
        "gen"
      ],
      [
        "j",
        "ed"
      ],
      [
        "n",
        "icht"
      ],
      [
        "th",
        "er"
      ],
      [
        "th",
        "ese"
      ],
      [
        "ier",
        "t"
      ],
      [
        "ex",
        "tra"
      ],
      [
        "Model",
        "l"
      ],
      [
        "D",
        "i"
      ],
      [
        "T",
        "he"
      ],
      [
        "V",
        "A"
      ],
      [
        "h",
        "al"
      ],
      [
        "s",
        "ho"
      ],
      [
        "u",
        "re"
      ],
      [
        "u",
        "ally"
      ],
      [
        "es",
        "tion"
      ],
      [
        "ab",
        "e"
      ],
      [
        "qu",
        "estion"
      ],
      [
        "rele",
        "ase"
      ],
      [
        "Ar",
        "ti"
      ],
      [
        "f",
        "äl"
      ],
      [
        "s",
        "ie"
      ],
      [
        "ung",
        "s"
      ],
      [
        "ke",
        "it"
      ],
      [
        "ble",
        "m"
      ],
      [
        "Arti",
        "kel"
      ],
      [
        "A",
        "us"
      ],
      [
        "D",
        "ie"
      ],
      [
        "E",
        "r"
      ],
      [
        "p",
        "iel"
      ],
      [
        "q",
        "_"
      ],
      [
        "s",
        "hin"
      ],
      [
        "w",
        "ie"
      ],
      [
        "th",
        "an"
      ],
      [
        "an",
        "s"
      ],
      [
        "is",
        "piel"
      ],
      [
        "it",
        "e"
      ],
      [
        "ein",
        "em"
      ],
      [
        "et",
        "r"
      ],
      [
        "et",
        "un"
      ],
      [
        "ex",
        "am"
      ],
      [
        "weis",
        "e"
      ],
      [
        "Version",
        "shin"
      ],
      [
        "A",
        "b"
      ],
      [
        "B",
        "il"
      ],
      [
        "T",
        "ext"
      ],
      [
        "c",
        "or"
      ],
      [
        "d",
        "o"
      ],
      [
        "e",
        "ach"
      ],
      [
        "i",
        "z"
      ],
      [
        "l",
        "es"
      ],
      [
        "p",
        "a"
      ],
      [
        "th",
        "od"
      ],
      [
        "lich",
        "e"
      ],
      [
        "ul",
        "ti"
      ],
      [
        "wor",
        "k"
      ],
      [
        "fin",
        "etun"
      ],
      [
        "l",
        "a"
      ],
      [
        "z",
        "we"
      ],
      [
        "in",
        "ter"
      ],
      [
        "ch",
        "r"
      ],
      [
        "or",
        "t"
      ],
      [
        "le",
        "g"
      ],
      [
        "st",
        "ra"
      ],
      [
        "form",
        "ation"
      ],
      [
        "val",
        "u"
      ],
      [
        "uns",
        "er"
      ],
      [
        "artic",
        "les"
      ],
      [
        "Ges",
        "etz"
      ],
      [
        "exam",
        "ple"
      ],
      [
        "A",
        "uf"
      ],
      [
        "F",
        "un"
      ],
      [
        "T",
        "h"
      ],
      [
        "b",
        "ess"
      ],
      [
        "g",
        "et"
      ],
      [
        "g",
        "abe"
      ],
      [
        "l",
        "ie"
      ],
      [
        "m",
        "ore"
      ],
      [
        "o",
        "b"
      ],
      [
        "p",
        "ut"
      ],
      [
        "ä",
        "ch"
      ],
      [
        "le",
        "d"
      ],
      [
        "ar",
        "ch"
      ],
      [
        "us",
        "e"
      ],
      [
        "be",
        "it"
      ],
      [
        "au",
        "ch"
      ],
      [
        "if",
        "ic"
      ],
      [
        "qu",
        "en"
      ],
      [
        "Be",
        "ispiel"
      ],
      [
        "act",
        "ually"
      ],
      [
        "Fun",
        "ktion"
      ],
      [
        "C",
        "AS"
      ],
      [
        "L",
        "S"
      ],
      [
        "N",
        "ach"
      ],
      [
        "k",
        "ann"
      ],
      [
        "n",
        "um"
      ],
      [
        "s",
        "i"
      ],
      [
        "en",
        "ti"
      ],
      [
        "ein",
        "en"
      ],
      [
        "ein",
        "ab"
      ],
      [
        "ex",
        "perim"
      ],
      [
        "per",
        "ator"
      ],
      [
        "ah",
        "l"
      ],
      [
        "ah",
        "r"
      ],
      [
        "sen",
        "ten"
      ],
      [
        "ta",
        "in"
      ],
      [
        "hal",
        "ten"
      ],
      [
        "fäl",
        "sch"
      ],
      [
        "C",
        "om"
      ],
      [
        "E",
        "in"
      ],
      [
        "h",
        "ase"
      ],
      [
        "s",
        "timm"
      ],
      [
        "es",
        "ent"
      ],
      [
        "an",
        "ti"
      ],
      [
        "ein",
        "er"
      ],
      [
        "ab",
        "le"
      ],
      [
        "di",
        "ese"
      ],
      [
        "sch",
        "r"
      ],
      [
        "wor",
        "d"
      ],
      [
        "fe",
        "at"
      ],
      [
        "igh",
        "t"
      ],
      [
        "stell",
        "en"
      ],
      [
        "leg",
        "al"
      ],
      [
        "bess",
        "er"
      ],
      [
        "D",
        "as"
      ],
      [
        "E",
        "x"
      ],
      [
        "M",
        "en"
      ],
      [
        "c",
        "oder"
      ],
      [
        "d",
        "ar"
      ],
      [
        "g",
        "i"
      ],
      [
        "i",
        "p"
      ],
      [
        "l",
        "i"
      ],
      [
        "n",
        "is"
      ],
      [
        "w",
        "o"
      ],
      [
        "y",
        "st"
      ],
      [
        "an",
        "ce"
      ],
      [
        "st",
        "at"
      ],
      [
        "to",
        "mat"
      ],
      [
        "di",
        "ff"
      ],
      [
        "ig",
        "n"
      ],
      [
        "per",
        "form"
      ],
      [
        "lich",
        "en"
      ],
      [
        "ess",
        "ion"
      ],
      [
        "dies",
        "en"
      ],
      [
        "VA",
        "LS"
      ],
      [
        "num",
        "ber"
      ],
      [
        "yst",
        "em"
      ],
      [
        "VALS",
        "E"
      ],
      [
        "F",
        "einab"
      ],
      [
        "S",
        "T"
      ],
      [
        "d",
        "ing"
      ],
      [
        "g",
        "t"
      ],
      [
        "k",
        "te"
      ],
      [
        "n",
        "ur"
      ],
      [
        "v",
        "en"
      ],
      [
        "z",
        "ahl"
      ],
      [
        "er",
        "halten"
      ],
      [
        "in",
        "to"
      ],
      [
        "at",
        "ed"
      ],
      [
        "al",
        "y"
      ],
      [
        "re",
        "tr"
      ],
      [
        "ir",
        "st"
      ],
      [
        "ur",
        "ch"
      ],
      [
        "ur",
        "es"
      ],
      [
        "im",
        "age"
      ],
      [
        "Ver",
        "fälsch"
      ],
      [
        "pro",
        "blem"
      ],
      [
        "me",
        "hr"
      ],
      [
        "sp",
        "e"
      ],
      [
        "su",
        "ch"
      ],
      [
        "po",
        "s"
      ],
      [
        "vis",
        "ion"
      ],
      [
        "Fe",
        "ST"
      ],
      [
        "Sprachmodel",
        "l"
      ],
      [
        "Fra",
        "gen"
      ],
      [
        "Feinab",
        "stimm"
      ],
      [
        "H",
        "ier"
      ],
      [
        "b",
        "el"
      ],
      [
        "r",
        "ü"
      ],
      [
        "z",
        "us"
      ],
      [
        "in",
        "ing"
      ],
      [
        "an",
        "aly"
      ],
      [
        "un",
        "ter"
      ],
      [
        "ge",
        "b"
      ],
      [
        "am",
        "men"
      ],
      [
        "au",
        "tomat"
      ],
      [
        "pr",
        "esent"
      ],
      [
        "res",
        "ul"
      ],
      [
        "relev",
        "ant"
      ],
      [
        "fi",
        "ve"
      ],
      [
        "Bil",
        "d"
      ],
      [
        "Feinabstimm",
        "ung"
      ],
      [
        "F",
        "or"
      ],
      [
        "T",
        "D"
      ],
      [
        "c",
        "ti"
      ],
      [
        "j",
        "e"
      ],
      [
        "m",
        "ess"
      ],
      [
        "m",
        "ark"
      ],
      [
        "ä",
        "h"
      ],
      [
        "on",
        "ly"
      ],
      [
        "or",
        "y"
      ],
      [
        "re",
        "e"
      ],
      [
        "ier",
        "ung"
      ],
      [
        "ex",
        "pr"
      ],
      [
        "ver",
        "s"
      ],
      [
        "if",
        "ik"
      ],
      [
        "ne",
        "u"
      ],
      [
        "fo",
        "il"
      ],
      [
        "bes",
        "te"
      ],
      [
        "ste",
        "p"
      ],
      [
        "verwen",
        "den"
      ],
      [
        "finetun",
        "ing"
      ],
      [
        "zwe",
        "i"
      ],
      [
        "Com",
        "mit"
      ],
      [
        "FeST",
        "E"
      ],
      [
        "expr",
        "ession"
      ],
      [
        "B",
        "ut"
      ],
      [
        "V",
        "or"
      ],
      [
        "c",
        "ap"
      ],
      [
        "i",
        "ge"
      ],
      [
        "l",
        "o"
      ],
      [
        "m",
        "an"
      ],
      [
        "s",
        "am"
      ],
      [
        "u",
        "ch"
      ],
      [
        "en",
        "n"
      ],
      [
        "is",
        "ten"
      ],
      [
        "ie",
        "d"
      ],
      [
        "re",
        "ch"
      ],
      [
        "it",
        "t"
      ],
      [
        "us",
        "ing"
      ],
      [
        "ab",
        "el"
      ],
      [
        "im",
        "pro"
      ],
      [
        "no",
        "w"
      ],
      [
        "form",
        "ul"
      ],
      [
        "isch",
        "e"
      ],
      [
        "ät",
        "ze"
      ],
      [
        "Se",
        "h"
      ],
      [
        "Aus",
        "d"
      ],
      [
        "Funktion",
        "en"
      ],
      [
        "Nach",
        "r"
      ],
      [
        "geb",
        "nis"
      ],
      [
        "0",
        "0"
      ],
      [
        "E",
        "s"
      ],
      [
        "G",
        "en"
      ],
      [
        "M",
        "TD"
      ],
      [
        "N",
        "N"
      ],
      [
        "S",
        "ie"
      ],
      [
        "d",
        "a"
      ],
      [
        "d",
        "urch"
      ],
      [
        "h",
        "t"
      ],
      [
        "k",
        "lass"
      ],
      [
        "l",
        "ä"
      ],
      [
        "l",
        "abel"
      ],
      [
        "o",
        "u"
      ],
      [
        "o",
        "ver"
      ],
      [
        "z",
        "w"
      ],
      [
        "th",
        "ous"
      ],
      [
        "el",
        "t"
      ],
      [
        "so",
        "me"
      ],
      [
        "An",
        "zahl"
      ],
      [
        "dat",
        "a"
      ],
      [
        "ap",
        "pro"
      ],
      [
        "dataset",
        "s"
      ],
      [
        "class",
        "if"
      ],
      [
        "verwen",
        "det"
      ],
      [
        "sho",
        "w"
      ],
      [
        "question",
        "s"
      ],
      [
        "Er",
        "gebnis"
      ],
      [
        "lie",
        "ß"
      ],
      [
        "senten",
        "ce"
      ],
      [
        "stat",
        "ut"
      ],
      [
        "MTD",
        "NN"
      ],
      [
        "thous",
        "and"
      ],
      [
        "L",
        "e"
      ],
      [
        "P",
        "a"
      ],
      [
        "R",
        "etr"
      ],
      [
        "b",
        "i"
      ],
      [
        "f",
        "ra"
      ],
      [
        "g",
        "r"
      ],
      [
        "k",
        "on"
      ],
      [
        "k",
        "now"
      ],
      [
        "o",
        "ther"
      ],
      [
        "s",
        "s"
      ],
      [
        "s",
        "et"
      ],
      [
        "t",
        "ung"
      ],
      [
        "u",
        "b"
      ],
      [
        "u",
        "p"
      ],
      [
        "v",
        "es"
      ],
      [
        "z",
        "ent"
      ],
      [
        "al",
        "le"
      ],
      [
        "re",
        "ct"
      ],
      [
        "st",
        "ru"
      ],
      [
        "so",
        "l"
      ],
      [
        "ig",
        "keit"
      ],
      [
        "qu",
        "anti"
      ],
      [
        "ne",
        "w"
      ],
      [
        "pre",
        "vi"
      ],
      [
        "fo",
        "ur"
      ],
      [
        "Ar",
        "beit"
      ],
      [
        "artic",
        "le"
      ],
      [
        "train",
        "ing"
      ],
      [
        "Re",
        "ch"
      ],
      [
        "Versionshin",
        "weis"
      ],
      [
        "feat",
        "ures"
      ],
      [
        "retr",
        "ieval"
      ],
      [
        "resul",
        "ts"
      ],
      [
        "Retr",
        "ieval"
      ],
      [
        "previ",
        "ous"
      ],
      [
        "M",
        "e"
      ],
      [
        "S",
        "ch"
      ],
      [
        "S",
        "atz"
      ],
      [
        "c",
        "od"
      ],
      [
        "c",
        "ent"
      ],
      [
        "g",
        "ro"
      ],
      [
        "h",
        "at"
      ],
      [
        "i",
        "es"
      ],
      [
        "m",
        "in"
      ],
      [
        "p",
        "en"
      ],
      [
        "u",
        "st"
      ],
      [
        "v",
        "iel"
      ],
      [
        "w",
        "is"
      ],
      [
        "w",
        "ur"
      ],
      [
        "z",
        "ur"
      ],
      [
        "ü",
        "r"
      ],
      [
        "in",
        "k"
      ],
      [
        "th",
        "ir"
      ],
      [
        "an",
        "k"
      ],
      [
        "an",
        "ge"
      ],
      [
        "as",
        "on"
      ],
      [
        "the",
        "y"
      ],
      [
        "it",
        "s"
      ],
      [
        "ar",
        "d"
      ],
      [
        "ar",
        "i"
      ],
      [
        "ier",
        "te"
      ],
      [
        "di",
        "tion"
      ],
      [
        "wir",
        "d"
      ],
      [
        "ct",
        "s"
      ],
      [
        "ul",
        "d"
      ],
      [
        "fü",
        "hr"
      ],
      [
        "me",
        "thod"
      ],
      [
        "fo",
        "l"
      ],
      [
        "not",
        "es"
      ],
      [
        "com",
        "mit"
      ],
      [
        "ib",
        "t"
      ],
      [
        "Di",
        "ese"
      ],
      [
        "äch",
        "st"
      ],
      [
        "C",
        "E"
      ],
      [
        "M",
        "a"
      ],
      [
        "T",
        "ra"
      ],
      [
        "W",
        "enn"
      ],
      [
        "b",
        "ed"
      ],
      [
        "i",
        "d"
      ],
      [
        "i",
        "h"
      ],
      [
        "i",
        "vers"
      ],
      [
        "m",
        "ulti"
      ],
      [
        "w",
        "as"
      ],
      [
        "ö",
        "r"
      ],
      [
        "er",
        "n"
      ],
      [
        "in",
        "formation"
      ],
      [
        "th",
        "en"
      ],
      [
        "at",
        "i"
      ],
      [
        "as",
        "t"
      ],
      [
        "as",
        "es"
      ],
      [
        "ti",
        "g"
      ],
      [
        "the",
        "ir"
      ],
      [
        "re",
        "d"
      ],
      [
        "it",
        "ät"
      ],
      [
        "ein",
        "es"
      ],
      [
        "ed",
        "i"
      ],
      [
        "ier",
        "ten"
      ],
      [
        "ig",
        "er"
      ],
      [
        "se",
        "e"
      ],
      [
        "wen",
        "n"
      ],
      [
        "Dat",
        "en"
      ],
      [
        "arti",
        "kel"
      ],
      [
        "dies",
        "er"
      ],
      [
        "ät",
        "zen"
      ],
      [
        "Th",
        "is"
      ],
      [
        "perform",
        "ance"
      ],
      [
        "appro",
        "ach"
      ],
      [
        "Ergebnis",
        "se"
      ],
      [
        "CE",
        "AS"
      ],
      [
        "B",
        "es"
      ],
      [
        "R",
        "o"
      ],
      [
        "T",
        "e"
      ],
      [
        "a",
        "f"
      ],
      [
        "c",
        "r"
      ],
      [
        "e",
        "valu"
      ],
      [
        "h",
        "igh"
      ],
      [
        "o",
        "k"
      ],
      [
        "o",
        "w"
      ],
      [
        "o",
        "perator"
      ],
      [
        "p",
        "e"
      ],
      [
        "s",
        "c"
      ],
      [
        "s",
        "um"
      ],
      [
        "s",
        "ystem"
      ],
      [
        "t",
        "est"
      ],
      [
        "w",
        "a"
      ],
      [
        "ch",
        "mark"
      ],
      [
        "ti",
        "es"
      ],
      [
        "st",
        "r"
      ],
      [
        "ar",
        "y"
      ],
      [
        "ich",
        "ten"
      ],
      [
        "ab",
        "stra"
      ],
      [
        "te",
        "il"
      ],
      [
        "ist",
        "ung"
      ],
      [
        "se",
        "hen"
      ],
      [
        "se",
        "quen"
      ],
      [
        "Ver",
        "besser"
      ],
      [
        "no",
        "te"
      ],
      [
        "pre",
        "di"
      ],
      [
        "dies",
        "em"
      ],
      [
        "class",
        "es"
      ],
      [
        "out",
        "put"
      ],
      [
        "bas",
        "ed"
      ],
      [
        "Klass",
        "e"
      ],
      [
        "Klass",
        "en"
      ],
      [
        "ru",
        "ck"
      ],
      [
        "Di",
        "es"
      ],
      [
        "pa",
        "ir"
      ],
      [
        "Gesetz",
        "es"
      ],
      [
        "cti",
        "ve"
      ],
      [
        "Ausd",
        "ruck"
      ],
      [
        "Rech",
        "ts"
      ],
      [
        "thir",
        "ty"
      ],
      [
        "Tra",
        "ining"
      ],
      [
        "sequen",
        "ce"
      ],
      [
        "A",
        "l"
      ],
      [
        "B",
        "el"
      ],
      [
        "b",
        "ut"
      ],
      [
        "c",
        "al"
      ],
      [
        "c",
        "aus"
      ],
      [
        "g",
        "est"
      ],
      [
        "g",
        "ibt"
      ],
      [
        "h",
        "und"
      ],
      [
        "h",
        "än"
      ],
      [
        "l",
        "ung"
      ],
      [
        "n",
        "et"
      ],
      [
        "p",
        "hase"
      ],
      [
        "z",
        "ie"
      ],
      [
        "en",
        "d"
      ],
      [
        "en",
        "th"
      ],
      [
        "in",
        "e"
      ],
      [
        "in",
        "di"
      ],
      [
        "ch",
        "e"
      ],
      [
        "an",
        "ten"
      ],
      [
        "el",
        "e"
      ],
      [
        "re",
        "feren"
      ],
      [
        "ar",
        "ge"
      ],
      [
        "us",
        "ed"
      ],
      [
        "we",
        "en"
      ],
      [
        "we",
        "it"
      ],
      [
        "ab",
        "il"
      ],
      [
        "ur",
        "al"
      ],
      [
        "il",
        "l"
      ],
      [
        "ct",
        "ed"
      ],
      [
        "ber",
        "e"
      ],
      [
        "In",
        "formation"
      ],
      [
        "pre",
        "t"
      ],
      [
        "ap",
        "p"
      ],
      [
        "des",
        "cr"
      ],
      [
        "ma",
        "in"
      ],
      [
        "Se",
        "quen"
      ],
      [
        "Model",
        "le"
      ],
      [
        "bet",
        "ween"
      ],
      [
        "Sprachmodel",
        "le"
      ],
      [
        "Versionshin",
        "weise"
      ],
      [
        "Auf",
        "gabe"
      ],
      [
        "si",
        "x"
      ],
      [
        "Men",
        "gen"
      ],
      [
        "spe",
        "c"
      ],
      [
        "Gen",
        "er"
      ],
      [
        "statut",
        "ory"
      ],
      [
        "Me",
        "thod"
      ],
      [
        "artikel",
        "n"
      ],
      [
        "Ro",
        "ber"
      ],
      [
        "hund",
        "red"
      ],
      [
        "Sequen",
        "z"
      ],
      [
        "A",
        "ber"
      ],
      [
        "M",
        "ark"
      ],
      [
        "M",
        "ulti"
      ],
      [
        "V",
        "i"
      ],
      [
        "a",
        "ges"
      ],
      [
        "d",
        "ung"
      ],
      [
        "f",
        "ass"
      ],
      [
        "f",
        "irst"
      ],
      [
        "f",
        "rü"
      ],
      [
        "g",
        "aben"
      ],
      [
        "h",
        "l"
      ],
      [
        "h",
        "as"
      ],
      [
        "h",
        "ier"
      ],
      [
        "i",
        "den"
      ],
      [
        "l",
        "ing"
      ],
      [
        "m",
        "ent"
      ],
      [
        "n",
        "f"
      ],
      [
        "n",
        "am"
      ],
      [
        "p",
        "ie"
      ],
      [
        "p",
        "us"
      ],
      [
        "u",
        "al"
      ],
      [
        "w",
        "ill"
      ],
      [
        "en",
        "coder"
      ],
      [
        "er",
        "t"
      ],
      [
        "er",
        "ent"
      ],
      [
        "in",
        "t"
      ],
      [
        "on",
        "g"
      ],
      [
        "ing",
        "le"
      ],
      [
        "em",
        "bed"
      ],
      [
        "ct",
        "ure"
      ],
      [
        "sch",
        "ließ"
      ],
      [
        "per",
        "cent"
      ],
      [
        "wer",
        "de"
      ],
      [
        "An",
        "s"
      ],
      [
        "her",
        "s"
      ],
      [
        "con",
        "d"
      ],
      [
        "con",
        "s"
      ],
      [
        "wh",
        "en"
      ],
      [
        "ate",
        "g"
      ],
      [
        "kön",
        "n"
      ],
      [
        "bet",
        "t"
      ],
      [
        "ges",
        "am"
      ],
      [
        "kt",
        "ur"
      ],
      [
        "Un",
        "s"
      ],
      [
        "Fra",
        "ge"
      ],
      [
        "jed",
        "e"
      ],
      [
        "la",
        "gen"
      ],
      [
        "unser",
        "em"
      ],
      [
        "ob",
        "tain"
      ],
      [
        "led",
        "ge"
      ],
      [
        "schr",
        "if"
      ],
      [
        "Ex",
        "perim"
      ],
      [
        "diff",
        "erent"
      ],
      [
        "analy",
        "s"
      ],
      [
        "beste",
        "ht"
      ],
      [
        "cap",
        "tion"
      ],
      [
        "rech",
        "t"
      ],
      [
        "impro",
        "v"
      ],
      [
        "zw",
        "ischen"
      ],
      [
        "know",
        "ledge"
      ],
      [
        "cod",
        "es"
      ],
      [
        "gro",
        "ß"
      ],
      [
        "Bes",
        "chr"
      ],
      [
        "Bel",
        "gi"
      ],
      [
        "caus",
        "e"
      ],
      [
        "Information",
        "en"
      ],
      [
        "spec",
        "ific"
      ],
      [
        "embed",
        "ding"
      ],
      [
        "B",
        "i"
      ],
      [
        "F",
        "irst"
      ],
      [
        "G",
        "it"
      ],
      [
        "H",
        "ub"
      ],
      [
        "L",
        "I"
      ],
      [
        "L",
        "BERT"
      ],
      [
        "O",
        "perator"
      ],
      [
        "S",
        "i"
      ],
      [
        "S",
        "chr"
      ],
      [
        "Z",
        "iel"
      ],
      [
        "b",
        "ar"
      ],
      [
        "b",
        "ase"
      ],
      [
        "c",
        "ed"
      ],
      [
        "d",
        "ann"
      ],
      [
        "f",
        "t"
      ],
      [
        "h",
        "and"
      ],
      [
        "i",
        "le"
      ],
      [
        "k",
        "om"
      ],
      [
        "l",
        "le"
      ],
      [
        "l",
        "arge"
      ],
      [
        "m",
        "o"
      ],
      [
        "m",
        "ö"
      ],
      [
        "m",
        "ar"
      ],
      [
        "o",
        "p"
      ],
      [
        "s",
        "im"
      ],
      [
        "t",
        "ar"
      ],
      [
        "t",
        "ing"
      ],
      [
        "u",
        "g"
      ],
      [
        "v",
        "el"
      ],
      [
        "z",
        "er"
      ],
      [
        "er",
        "s"
      ],
      [
        "ch",
        "re"
      ],
      [
        "un",
        "ächst"
      ],
      [
        "is",
        "ti"
      ],
      [
        "the",
        "m"
      ],
      [
        "re",
        "ason"
      ],
      [
        "ein",
        "z"
      ],
      [
        "ein",
        "lich"
      ],
      [
        "ar",
        "t"
      ],
      [
        "ab",
        "out"
      ],
      [
        "be",
        "cause"
      ],
      [
        "ent",
        "y"
      ],
      [
        "um",
        "ent"
      ],
      [
        "im",
        "m"
      ],
      [
        "ig",
        "t"
      ],
      [
        "sch",
        "einlich"
      ],
      [
        "if",
        "tung"
      ],
      [
        "ul",
        "ar"
      ],
      [
        "wer",
        "t"
      ],
      [
        "he",
        "ad"
      ],
      [
        "ho",
        "ch"
      ],
      [
        "uns",
        "eren"
      ],
      [
        "ple",
        "x"
      ],
      [
        "Datens",
        "ätze"
      ],
      [
        "pl",
        "es"
      ],
      [
        "task",
        "s"
      ],
      [
        "ben",
        "en"
      ],
      [
        "Klass",
        "ifik"
      ],
      [
        "En",
        "ti"
      ],
      [
        "En",
        "coder"
      ],
      [
        "Pro",
        "zent"
      ],
      [
        "feren",
        "z"
      ],
      [
        "iti",
        "es"
      ],
      [
        "ans",
        "form"
      ],
      [
        "cor",
        "rect"
      ],
      [
        "la",
        "w"
      ],
      [
        "Gesetz",
        "b"
      ],
      [
        "enti",
        "eren"
      ],
      [
        "experim",
        "ent"
      ],
      [
        "ahr",
        "en"
      ],
      [
        "ahr",
        "scheinlich"
      ],
      [
        "word",
        "s"
      ],
      [
        "pos",
        "it"
      ],
      [
        "bel",
        "g"
      ],
      [
        "zus",
        "ammen"
      ],
      [
        "Le",
        "istung"
      ],
      [
        "igkeit",
        "en"
      ],
      [
        "quanti",
        "ties"
      ],
      [
        "app",
        "ly"
      ],
      [
        "Rober",
        "ta"
      ],
      [
        "Vi",
        "LBERT"
      ],
      [
        "improv",
        "em"
      ],
      [
        "Beschr",
        "iftung"
      ],
      [
        "Belgi",
        "an"
      ],
      [
        "Git",
        "Hub"
      ],
      [
        "Si",
        "am"
      ],
      [
        "mar",
        "iz"
      ],
      [
        "tar",
        "get"
      ],
      [
        "H",
        "ere"
      ],
      [
        "O",
        "b"
      ],
      [
        "S",
        "ho"
      ],
      [
        "S",
        "ystem"
      ],
      [
        "W",
        "ort"
      ],
      [
        "a",
        "c"
      ],
      [
        "a",
        "um"
      ],
      [
        "b",
        "in"
      ],
      [
        "c",
        "ur"
      ],
      [
        "d",
        "ed"
      ],
      [
        "f",
        "ach"
      ],
      [
        "f",
        "fe"
      ],
      [
        "f",
        "ahren"
      ],
      [
        "g",
        "o"
      ],
      [
        "i",
        "en"
      ],
      [
        "k",
        "es"
      ],
      [
        "k",
        "ti"
      ],
      [
        "l",
        "u"
      ],
      [
        "l",
        "en"
      ],
      [
        "m",
        "ü"
      ],
      [
        "m",
        "is"
      ],
      [
        "o",
        "ch"
      ],
      [
        "r",
        "ight"
      ],
      [
        "s",
        "ign"
      ],
      [
        "t",
        "at"
      ],
      [
        "v",
        "o"
      ],
      [
        "v",
        "ier"
      ],
      [
        "y",
        "ou"
      ],
      [
        "z",
        "um"
      ],
      [
        "z",
        "if"
      ],
      [
        "Ü",
        "ber"
      ],
      [
        "ü",
        "ch"
      ],
      [
        "ü",
        "ck"
      ],
      [
        "en",
        "te"
      ],
      [
        "th",
        "ing"
      ],
      [
        "th",
        "ree"
      ],
      [
        "el",
        "le"
      ],
      [
        "or",
        "re"
      ],
      [
        "or",
        "ies"
      ],
      [
        "ti",
        "ge"
      ],
      [
        "re",
        "present"
      ],
      [
        "re",
        "formul"
      ],
      [
        "it",
        "ed"
      ],
      [
        "st",
        "en"
      ],
      [
        "and",
        "eren"
      ],
      [
        "ab",
        "er"
      ],
      [
        "ur",
        "ist"
      ],
      [
        "den",
        "en"
      ],
      [
        "sch",
        "ie"
      ],
      [
        "fü",
        "nf"
      ],
      [
        "qu",
        "er"
      ],
      [
        "aus",
        "ge"
      ],
      [
        "dat",
        "ens"
      ],
      [
        "wen",
        "iger"
      ],
      [
        "con",
        "c"
      ],
      [
        "tw",
        "enty"
      ],
      [
        "ze",
        "igt"
      ],
      [
        "sp",
        "a"
      ],
      [
        "gener",
        "at"
      ],
      [
        "gener",
        "ate"
      ],
      [
        "hin",
        "zu"
      ],
      [
        "bes",
        "chre"
      ],
      [
        "äl",
        "t"
      ],
      [
        "stell",
        "t"
      ],
      [
        "Un",
        "ter"
      ],
      [
        "Un",
        "ivers"
      ],
      [
        "ction",
        "s"
      ],
      [
        "co",
        "lle"
      ],
      [
        "ans",
        "wer"
      ],
      [
        "äch",
        "lich"
      ],
      [
        "li",
        "ke"
      ],
      [
        "Verfälsch",
        "ungen"
      ],
      [
        "automat",
        "ic"
      ],
      [
        "mess",
        "ages"
      ],
      [
        "foil",
        "s"
      ],
      [
        "Vor",
        "hers"
      ],
      [
        "man",
        "y"
      ],
      [
        "Nachr",
        "icht"
      ],
      [
        "Nachr",
        "ichten"
      ],
      [
        "classif",
        "y"
      ],
      [
        "wis",
        "e"
      ],
      [
        "wur",
        "den"
      ],
      [
        "Te",
        "il"
      ],
      [
        "Gesetzes",
        "artikeln"
      ],
      [
        "referen",
        "ces"
      ],
      [
        "frü",
        "her"
      ],
      [
        "isti",
        "c"
      ],
      [
        "Gesetzb",
        "üch"
      ],
      [
        "Sho",
        "t"
      ],
      [
        "B",
        "as"
      ],
      [
        "D",
        "er"
      ],
      [
        "D",
        "ar"
      ],
      [
        "E",
        "valu"
      ],
      [
        "G",
        "E"
      ],
      [
        "G",
        "P"
      ],
      [
        "G",
        "r"
      ],
      [
        "I",
        "ch"
      ],
      [
        "M",
        "P"
      ],
      [
        "O",
        "U"
      ],
      [
        "O",
        "ur"
      ],
      [
        "P",
        "un"
      ],
      [
        "R",
        "OU"
      ],
      [
        "S",
        "um"
      ],
      [
        "S",
        "VA"
      ],
      [
        "T",
        "o"
      ],
      [
        "W",
        "is"
      ],
      [
        "W",
        "ik"
      ],
      [
        "Z",
        "us"
      ],
      [
        "b",
        "is"
      ],
      [
        "c",
        "re"
      ],
      [
        "c",
        "ess"
      ],
      [
        "f",
        "est"
      ],
      [
        "f",
        "ind"
      ],
      [
        "g",
        "el"
      ],
      [
        "g",
        "le"
      ],
      [
        "h",
        "el"
      ],
      [
        "h",
        "ig"
      ],
      [
        "j",
        "urist"
      ],
      [
        "l",
        "im"
      ],
      [
        "l",
        "ess"
      ],
      [
        "l",
        "ink"
      ],
      [
        "n",
        "at"
      ],
      [
        "o",
        "h"
      ],
      [
        "p",
        "on"
      ],
      [
        "r",
        "ä"
      ],
      [
        "r",
        "ich"
      ],
      [
        "s",
        "ens"
      ],
      [
        "s",
        "sen"
      ],
      [
        "s",
        "ächlich"
      ],
      [
        "t",
        "re"
      ],
      [
        "t",
        "ab"
      ],
      [
        "u",
        "ell"
      ],
      [
        "v",
        "ed"
      ],
      [
        "w",
        "ä"
      ],
      [
        "w",
        "ier"
      ],
      [
        "w",
        "here"
      ],
      [
        "w",
        "ard"
      ],
      [
        "ü",
        "n"
      ],
      [
        "er",
        "k"
      ],
      [
        "in",
        "es"
      ],
      [
        "in",
        "put"
      ],
      [
        "an",
        "ts"
      ],
      [
        "el",
        "ines"
      ],
      [
        "le",
        "t"
      ],
      [
        "ein",
        "fach"
      ],
      [
        "st",
        "ate"
      ],
      [
        "ich",
        "en"
      ],
      [
        "od",
        "u"
      ],
      [
        "te",
        "en"
      ],
      [
        "di",
        "re"
      ],
      [
        "ex",
        "per"
      ],
      [
        "ex",
        "pl"
      ],
      [
        "for",
        "e"
      ],
      [
        "il",
        "ter"
      ],
      [
        "ver",
        "schie"
      ],
      [
        "model",
        "l"
      ],
      [
        "se",
        "arch"
      ],
      [
        "se",
        "ven"
      ],
      [
        "se",
        "cond"
      ],
      [
        "fü",
        "gen"
      ],
      [
        "qu",
        "al"
      ],
      [
        "ic",
        "al"
      ],
      [
        "In",
        "ter"
      ],
      [
        "de",
        "pen"
      ],
      [
        "ne",
        "ed"
      ],
      [
        "he",
        "it"
      ],
      [
        "val",
        "id"
      ],
      [
        "ap",
        "pl"
      ],
      [
        "Ar",
        "g"
      ],
      [
        "dies",
        "es"
      ],
      [
        "ze",
        "igen"
      ],
      [
        "class",
        "ific"
      ],
      [
        "ind",
        "em"
      ],
      [
        "Be",
        "i"
      ],
      [
        "ib",
        "en"
      ],
      [
        "ma",
        "ke"
      ],
      [
        "gener",
        "ation"
      ],
      [
        "ad",
        "d"
      ],
      [
        "ad",
        "dition"
      ],
      [
        "su",
        "b"
      ],
      [
        "train",
        "ed"
      ],
      [
        "Pro",
        "blem"
      ],
      [
        "feren",
        "ce"
      ],
      [
        "extra",
        "h"
      ],
      [
        "q_",
        "2"
      ],
      [
        "Ab",
        "fra"
      ],
      [
        "inter",
        "est"
      ],
      [
        "Auf",
        "gaben"
      ],
      [
        "experim",
        "ents"
      ],
      [
        "ip",
        "edi"
      ],
      [
        "Verfälsch",
        "ung"
      ],
      [
        "Sprachmodell",
        "en"
      ],
      [
        "ammen",
        "fass"
      ],
      [
        "je",
        "cts"
      ],
      [
        "mess",
        "age"
      ],
      [
        "äh",
        "n"
      ],
      [
        "neu",
        "e"
      ],
      [
        "min",
        "us"
      ],
      [
        "führ",
        "t"
      ],
      [
        "Ma",
        "th"
      ],
      [
        "ih",
        "re"
      ],
      [
        "ör",
        "ter"
      ],
      [
        "sum",
        "mariz"
      ],
      [
        "str",
        "um"
      ],
      [
        "Verbesser",
        "ung"
      ],
      [
        "cons",
        "ist"
      ],
      [
        "schrif",
        "ten"
      ],
      [
        "reason",
        "ing"
      ],
      [
        "ansform",
        "er"
      ],
      [
        "mü",
        "ssen"
      ],
      [
        "datens",
        "atz"
      ],
      [
        "früher",
        "en"
      ],
      [
        "GP",
        "T"
      ],
      [
        "ROU",
        "GE"
      ],
      [
        "SVA",
        "MP"
      ],
      [
        "Wik",
        "ipedi"
      ],
      [
        "Zus",
        "ammenfass"
      ],
      [
        "hig",
        "her"
      ],
      [
        "depen",
        "den"
      ],
      [
        "classific",
        "ation"
      ],
      [
        "Wikipedi",
        "a"
      ],
      [
        "A",
        "s"
      ],
      [
        "B",
        "en"
      ],
      [
        "D",
        "ann"
      ],
      [
        "H",
        "and"
      ],
      [
        "I",
        "t"
      ],
      [
        "T",
        "r"
      ],
      [
        "U",
        "m"
      ],
      [
        "W",
        "örter"
      ],
      [
        "Z",
        "e"
      ],
      [
        "Z",
        "u"
      ],
      [
        "Z",
        "unächst"
      ],
      [
        "a",
        "y"
      ],
      [
        "b",
        "o"
      ],
      [
        "d",
        "ist"
      ],
      [
        "e",
        "igen"
      ],
      [
        "e",
        "ffe"
      ],
      [
        "f",
        "as"
      ],
      [
        "f",
        "ilter"
      ],
      [
        "g",
        "er"
      ],
      [
        "g",
        "lich"
      ],
      [
        "g",
        "lichen"
      ],
      [
        "i",
        "al"
      ],
      [
        "i",
        "led"
      ],
      [
        "m",
        "lich"
      ],
      [
        "n",
        "ach"
      ],
      [
        "n",
        "ied"
      ],
      [
        "p",
        "h"
      ],
      [
        "p",
        "are"
      ],
      [
        "r",
        "ese"
      ],
      [
        "s",
        "ti"
      ],
      [
        "t",
        "ree"
      ],
      [
        "v",
        "ing"
      ],
      [
        "er",
        "re"
      ],
      [
        "in",
        "st"
      ],
      [
        "an",
        "z"
      ],
      [
        "ti",
        "er"
      ],
      [
        "it",
        "ten"
      ],
      [
        "ein",
        "ge"
      ],
      [
        "ein",
        "ige"
      ],
      [
        "st",
        "and"
      ],
      [
        "ge",
        "m"
      ],
      [
        "ab",
        "hän"
      ],
      [
        "der",
        "n"
      ],
      [
        "be",
        "im"
      ],
      [
        "il",
        "ar"
      ],
      [
        "ut",
        "z"
      ],
      [
        "ct",
        "or"
      ],
      [
        "sch",
        "en"
      ],
      [
        "if",
        "iz"
      ],
      [
        "om",
        "en"
      ],
      [
        "ah",
        "er"
      ],
      [
        "An",
        "tw"
      ],
      [
        "ic",
        "s"
      ],
      [
        "wen",
        "den"
      ],
      [
        "isch",
        "er"
      ],
      [
        "con",
        "si"
      ],
      [
        "auf",
        "gabe"
      ],
      [
        "uns",
        "ere"
      ],
      [
        "all",
        "o"
      ],
      [
        "Datens",
        "ätzen"
      ],
      [
        "ma",
        "kes"
      ],
      [
        "gener",
        "iert"
      ],
      [
        "fin",
        "den"
      ],
      [
        "bas",
        "is"
      ],
      [
        "bet",
        "rach"
      ],
      [
        "ff",
        "en"
      ],
      [
        "jed",
        "och"
      ],
      [
        "sho",
        "t"
      ],
      [
        "Ab",
        "stra"
      ],
      [
        "pa",
        "per"
      ],
      [
        "inter",
        "pret"
      ],
      [
        "enti",
        "ty"
      ],
      [
        "senten",
        "ces"
      ],
      [
        "Ein",
        "bett"
      ],
      [
        "feat",
        "ure"
      ],
      [
        "pos",
        "ed"
      ],
      [
        "je",
        "kte"
      ],
      [
        "neu",
        "en"
      ],
      [
        "sam",
        "ples"
      ],
      [
        "da",
        "zu"
      ],
      [
        "classif",
        "ier"
      ],
      [
        "Pa",
        "ar"
      ],
      [
        "Pa",
        "per"
      ],
      [
        "Versionshinweis",
        "en"
      ],
      [
        "viel",
        "e"
      ],
      [
        "führ",
        "en"
      ],
      [
        "evalu",
        "ation"
      ],
      [
        "operator",
        "s"
      ],
      [
        "sc",
        "ore"
      ],
      [
        "abstra",
        "ct"
      ],
      [
        "predi",
        "ction"
      ],
      [
        "enth",
        "ält"
      ],
      [
        "abil",
        "ity"
      ],
      [
        "bere",
        "ch"
      ],
      [
        "iden",
        "ti"
      ],
      [
        "ling",
        "u"
      ],
      [
        "Ziel",
        "datensatz"
      ],
      [
        "sim",
        "ilar"
      ],
      [
        "belg",
        "ischen"
      ],
      [
        "tat",
        "sächlich"
      ],
      [
        "quer",
        "y"
      ],
      [
        "Wis",
        "sens"
      ],
      [
        "hel",
        "p"
      ],
      [
        "dependen",
        "t"
      ],
      [
        "Ben",
        "chmark"
      ],
      [
        "nied",
        "r"
      ],
      [
        "rese",
        "arch"
      ],
      [
        "consi",
        "der"
      ],
      [
        "Wissens",
        "basis"
      ],
      [
        "B",
        "L"
      ],
      [
        "C",
        "am"
      ],
      [
        "E",
        "U"
      ],
      [
        "G",
        "ly"
      ],
      [
        "N",
        "LI"
      ],
      [
        "P",
        "l"
      ],
      [
        "P",
        "hase"
      ],
      [
        "R",
        "el"
      ],
[...]
