{
  "version": "1.0",
  "truncation": null,
  "padding": null,
  "added_tokens": [
    {
      "id": 0,
      "content": "[UNK]",
      "single_word": false,
      "lstrip": false,
      "rstrip": false,
      "normalized": false,
      "special": true
    },
    {
      "id": 1,
      "content": "[PAD]",
      "single_word": false,
      "lstrip": false,
      "rstrip": false,
      "normalized": false,
      "special": true
    },
    {
      "id": 2,
      "content": "[CLS]",
      "single_word": false,
      "lstrip": false,
      "rstrip": false,
      "normalized": false,
      "special": true
    },
    {
      "id": 3,
      "content": "[SEP]",
      "single_word": false,
      "lstrip": false,
      "rstrip": false,
      "normalized": false,
      "special": true
    },
    {
      "id": 4,
      "content": "[MASK]",
      "single_word": false,
      "lstrip": false,
      "rstrip": false,
      "normalized": false,
      "special": true
    }
  ],
  "normalizer": null,
  "pre_tokenizer": {
    "type": "ByteLevel",
    "add_prefix_space": true,
    "trim_offsets": true,
    "use_regex": true
  },
  "post_processor": null,
  "decoder": null,
  "model": {
    "type": "BPE",
    "dropout": null,
    "unk_token": "[UNK]",
    "continuing_subword_prefix": null,
    "end_of_word_suffix": null,
    "fuse_unk": false,
    "byte_fallback": false,
    "ignore_merges": false,
    "vocab": {
      "[UNK]": 0,
      "[PAD]": 1,
      "[CLS]": 2,
      "[SEP]": 3,
      "[MASK]": 4,
      "!": 5,
      "$": 6,
      "&": 7,
      "'": 8,
      ",": 9,
      "-": 10,
      ".": 11,
      "3": 12,
      ":": 13,
      ";": 14,
      "?": 15,
      "A": 16,
      "B": 17,
      "C": 18,
      "D": 19,
      "E": 20,
      "F": 21,
      "G": 22,
      "H": 23,
      "I": 24,
      "J": 25,
      "K": 26,
      "L": 27,
      "M": 28,
      "N": 29,
      "O": 30,
      "P": 31,
      "Q": 32,
      "R": 33,
      "S": 34,
      "T": 35,
      "U": 36,
      "V": 37,
      "W": 38,
      "X": 39,
      "Y": 40,
      "Z": 41,
      "a": 42,
      "b": 43,
      "c": 44,
      "d": 45,
      "e": 46,
      "f": 47,
      "g": 48,
      "h": 49,
      "i": 50,
      "j": 51,
      "k": 52,
      "l": 53,
      "m": 54,
      "n": 55,
      "o": 56,
      "p": 57,
      "q": 58,
      "r": 59,
      "s": 60,
      "t": 61,
      "u": 62,
      "v": 63,
      "w": 64,
      "x": 65,
      "y": 66,
      "z": 67,
      "Ċ": 68,
      "Ġ": 69,
      "Ġt": 70,
      "he": 71,
      "Ġa": 72,
      "ou": 73,
      "Ġs": 74,
      "Ġm": 75,
      "Ġw": 76,
      "in": 77,
      "re": 78,
      "ha": 79,
      "Ġthe": 80,
      "nd": 81,
      "Ġb": 82,
      "is": 83,
      "or": 84,
      "ĠĊ": 85,
      "Ġf": 86,
      "ĠI": 87,
      "er": 88,
      "ll": 89,
      "it": 90,
      "on": 91,
      "Ġd": 92,
      "Ġc": 93,
      "Ġn": 94,
      "Ġl": 95,
      "Ġy": 96,
      "es": 97,
      "en": 98,
      "Ġth": 99,
      "ar": 100,
      "Ġh": 101,
      "Ġo": 102,
      "Ġto": 103,
      "Ġyou": 104,
      "Ġp": 105,
      "ĠT": 106,
      "hat": 107,
      "ĠA": 108,
      "Ġhe": 109,
      "ve": 110,
      "ot": 111,
      "Ġand": 112,
      "st": 113,
      "ow": 114,
      "ing": 115,
      "Ġof": 116,
      "an": 117,
      "om": 118,
      "Ġg": 119,
      "at": 120,
      "Ġbe": 121,
      "ĠW": 122,
      "se": 123,
      "Ġmy": 124,
      "Ġin": 125,
      "Ġha": 126,
      "ce": 127,
      "le": 128,
      "ay": 129,
      "ld": 130,
      "ir": 131,
      "et": 132,
      "ed": 133,
      "ut": 134,
      "ĠB": 135,
      "Ġme": 136,
      "im": 137,
      "ĠS": 138,
      "ith": 139,
      "Ġnot": 140,
      "'s": 141,
      "ĠH": 142,
      "ch": 143,
      "Ġthat": 144,
      "Ġis": 145,
      "ĠM": 146,
      "gh": 147,
      "ĠAnd": 148,
      "Ġfor": 149,
      "Ġu": 150,
      "ke": 151,
      "ĠC": 152,
      "Ġwe": 153,
      "our": 154,
      "oo": 155,
      "ill": 156,
      "Ġe": 157,
      "Ġwith": 158,
      "her": 159,
      "Ġit": 160,
      "ent": 161,
      "Ġyour": 162,
      "ad": 163,
      "ri": 164,
      "ĠO": 165,
      "Ġthou": 166,
      "Ġst": 167,
      "Ġk": 168,
      "ĠL": 169,
      "'d": 170,
      "ome": 171,
      "Ġhis": 172,
      "ĠF": 173,
      "ĠG": 174,
      "ght": 175,
      "EN": 176,
      "Ġre": 177,
      "ord": 178,
      "id": 179,
      "ra": 180,
      "ĠThe": 181,
      "Ġhave": 182,
      "Ġhim": 183,
      "IN": 184,
      "ly": 185,
      "Ġli": 186,
      "as": 187,
      "ĠP": 188,
      "Ġthis": 189,
      "ur": 190,
      "IO": 191,
      "al": 192,
      "Ġso": 193,
      "Ġas": 194,
      "Ġde": 195,
      "Ġon": 196,
      "ĠR": 197,
      "ore": 198,
      "ro": 199,
      "ĠN": 200,
      "hi": 201,
      "ould": 202,
      "ood": 203,
      "AR": 204,
      "ck": 205,
      "ain": 206,
      "ver": 207,
      "ĠY": 208,
      "est": 209,
      "Ġsha": 210,
      "Ġthy": 211,
      "ess": 212,
      "Ġwill": 213,
      "Ġdo": 214,
      "ea": 215,
      "Ġno": 216,
      "am": 217,
      "ĠE": 218,
      "Ġbut": 219,
      "ĠD": 220,
      "us": 221,
      "Ġse": 222,
      "US": 223,
      "if": 224,
      "Ġ'": 225,
      "ge": 226,
      "Ġall": 227,
      "and": 228,
      "ĠTh": 229,
      "Ġsu": 230,
      "ake": 231,
      "ĠTo": 232,
      "Ġher": 233,
      "ru": 234,
      "ion": 235,
      "Ġan": 236,
      "ĠK": 237,
      "Ġlo": 238,
      "ter": 239,
      "ard": 240,
      "han": 241,
      "Ġsp": 242,
      "ell": 243,
      "ear": 244,
      "Ġthee": 245,
      "Ġfa": 246,
      "Ġshall": 247,
      "Ġour": 248,
      "Ġby": 249,
      "th": 250,
      "UC": 251,
      "Ġare": 252,
      "il": 253,
      "ING": 254,
      "Ġne": 255,
      "Ġkn": 256,
      "rom": 257,
      "ho": 258,
      "Ġv": 259,
      "ĠThat": 260,
      "ER": 261,
      "OR": 262,
      "ast": 263,
      "ct": 264,
      "ous": 265,
      "Ġwhat": 266,
      "Ġsh": 267,
      "ight": 268,
      "ul": 269,
      "ET": 270,
      "ant": 271,
      "Ġup": 272,
      "Ġgood": 273,
      "sel": 274,
      "qu": 275,
      "ĠBut": 276,
      "art": 277,
      "row": 278,
      "ine": 279,
      "Ġcom": 280,
      "ath": 281,
      "Ġmu": 282,
      "Ġlord": 283,
      "hich": 284,
      "nt": 285,
      "Ġpr": 286,
      "Ġman": 287,
      "'ll": 288,
      "Ġat": 289,
      "ĠV": 290,
      "one": 291,
      "Ġwhe": 292,
      "Ġcon": 293,
      "ĠWhat": 294,
      "Ġam": 295,
      "end": 296,
      "ic": 297,
      "ES": 298,
      "ble": 299,
      "ry": 300,
      "Ġfrom": 301,
      "ong": 302,
      "ie": 303,
      "Ġshe": 304,
      "Ġbl": 305,
      "ive": 306,
      "ven": 307,
      "Ġgo": 308,
      "Ġmore": 309,
      "ĠFor": 310,
      "Ġthem": 311,
      "em": 312,
      "Ġwas": 313,
      "IC": 314,
      "out": 315,
      "au": 316,
      "Ġsir": 317,
      "other": 318,
      "are": 319,
      "oth": 320,
      "ol": 321,
      "Ġif": 322,
      "Ġnow": 323,
      "ĠHe": 324,
      "Ġhat": 325,
      "Ġthere": 326,
      "Ġwould": 327,
      "AN": 328,
      "ost": 329,
      "Ġknow": 330,
      "Ġcan": 331,
      "LO": 332,
      "ind": 333,
      "ers": 334,
      "IUS": 335,
      "ep": 336,
      "self": 337,
      "Ġsay": 338,
      "ARD": 339,
      "ĠKING": 340,
      "ather": 341,
      "ond": 342,
      "res": 343,
      "ate": 344,
      "fe": 345,
      "Ġsw": 346,
      "Ġhere": 347,
      "Ġlove": 348,
      "Ġtheir": 349,
      "Ġor": 350,
      "Ġthan": 351,
      "ĠMy": 352,
      "Ġbr": 353,
      "pp": 354,
      "--": 355,
      "Ġthey": 356,
      "Ġus": 357,
      "Ġking": 358,
      "Ġthen": 359,
      "all": 360,
      "Ġar": 361,
      "od": 362,
      "Ġlet": 363,
      "Ġun": 364,
      "ig": 365,
      "Ġwor": 366,
      "ure": 367,
      "ink": 368,
      "Ġmay": 369,
      "hy": 370,
      "Ġcome": 371,
      "ame": 372,
      "fore": 373,
      "ort": 374,
      "ĠAs": 375,
      "Ġqu": 376,
      "ook": 377,
      "Ġwell": 378,
      "el": 379,
      "ish": 380,
      "LI": 381,
      "ĠWhe": 382,
      "Ġj": 383,
      "KE": 384,
      "ves": 385,
      "Ġone": 386,
      "Ġhath": 387,
      "irst": 388,
      "Ġmake": 389,
      "ĠYou": 390,
      "Ġgra": 391,
      "reat": 392,
      "ak": 393,
      "ng": 394,
      "Ġmust": 395,
      "gain": 396,
      "ound": 397,
      "Ġwere": 398,
      "Ġho": 399,
      "Ġsee": 400,
      "Ġshould": 401,
      "Ġlike": 402,
      "ci": 403,
      "Ġpro": 404,
      "ue": 405,
      "eak": 406,
      "TIO": 407,
      "Ġsa": 408,
      "ity": 409,
      "Ġmad": 410,
      "Ġpl": 411,
      "Ġfather": 412,
      "Ġhad": 413,
      "um": 414,
      "Ġdid": 415,
      "Ġupon": 416,
      "OM": 417,
      "ime": 418,
      "pe": 419,
      "Ġtoo": 420,
      "ice": 421,
      "ON": 422,
      "ĠJ": 423,
      "Ġdis": 424,
      "ence": 425,
      "Ġdeath": 426,
      "ward": 427,
      "Ġwhich": 428,
      "Ġen": 429,
      "ĠIf": 430,
      "ose": 431,
      "own": 432,
      "Ġspeak": 433,
      "Ġpo": 434,
      "Ġwhen": 435,
      "ful": 436,
      "Ġout": 437,
      "Ġfri": 438,
      "Ġhow": 439,
      "entle": 440,
      "io": 441,
      "pt": 442,
      "un": 443,
      "Ġagain": 444,
      "ICH": 445,
      "ĠRICH": 446,
      "Ġtru": 447,
      "OL": 448,
      "UKE": 449,
      "de": 450,
      "ĠDUKE": 451,
      "man": 452,
      "Ġheart": 453,
      "Ġyet": 454,
      "ick": 455,
      "Ġhand": 456,
      "very": 457,
      "ĠWith": 458,
      "ĠRICHARD": 459,
      "Ġwho": 460,
      "ENTIO": 461,
      "ĠThou": 462,
      "Ġsome": 463,
      "ĠWe": 464,
      "ign": 465,
      "ance": 466,
      "ĠWhich": 467,
      "Ġmar": 468,
      "Ġhon": 469,
      "nce": 470,
      "ies": 471,
      "Ġr": 472,
      "Ġson": 473,
      "ĠIn": 474,
      "ire": 475,
      "Ġmine": 476,
      "Ġoff": 477,
      "ist": 478,
      "Ġal": 479,
      "ince": 480,
      "INC": 481,
      "har": 482,
      "orn": 483,
      "ack": 484,
      "ĠWhy": 485,
      "'t": 486,
      "wn": 487,
      "ĠOf": 488,
      "ĠGod": 489,
      "EL": 490,
      "Ġtime": 491,
      "Ġhea": 492,
      "Ġsuch": 493,
      "oy": 494,
      "ĠFirst": 495,
      "Ġhear": 496,
      "ĠSo": 497,
      "ness": 498,
      "Ġbrother": 499,
      "ec": 500,
      "Ġthese": 501,
      "ĠCl": 502,
      "Ġblood": 503,
      "Ġab": 504,
      "ither": 505,
      "Ġex": 506,
      "Ġgive": 507,
      "UE": 508,
      "Ġfo": 509,
      "ĠIs": 510,
      "Ġday": 511,
      "ĠNo": 512,
      "Ġear": 513,
      "Ġro": 514,
      "Ġlook": 515,
      "Ġthink": 516,
      "Ġtell": 517,
      "ĠII": 518,
      "ĠHow": 519,
      "Ġlife": 520,
      "TER": 521,
      "ise": 522,
      "Ġey": 523,
      "AB": 524,
      "eet": 525,
      "Ġwhere": 526,
      "Ġtake": 527,
      "Ġword": 528,
      "UCH": 529,
      "oul": 530,
      "Ġfriend": 531,
      "ther": 532,
      "ĠQ": 533,
      "ĠThis": 534,
      "ag": 535,
      "age": 536,
      "Ġdes": 537,
      "ĠGLO": 538,
      "UCES": 539,
      "ĠGLOUCES": 540,
      "ĠGLOUCESTER": 541,
      "ef": 542,
      "een": 543,
      "erv": 544,
      "ĠCome": 545,
      "ust": 546,
      "Ġgentle": 547,
      "ady": 548,
      "rown": 549,
      "ings": 550,
      "ĠLord": 551,
      "ĠU": 552,
      "Ġri": 553,
      "urse": 554,
      "ave": 555,
      "RY": 556,
      "ase": 557,
      "ĠRome": 558,
      "tis": 559,
      "Ġlea": 560,
      "ĠVINC": 561,
      "Ġart": 562,
      "UEEN": 563,
      "ĠQUEEN": 564,
      "ĠVINCENTIO": 565,
      "way": 566,
      "Ġwar": 567,
      "ĠOF": 568,
      "Ġmost": 569,
      "Ġhonour": 570,
      "Ġfl": 571,
      "ĠMar": 572,
      "Ġmuch": 573,
      "UM": 574,
      "LAN": 575,
      "Ġsl": 576,
      "ĠWhere": 577,
      "AM": 578,
      "urn": 579,
      "Ġmade": 580,
      "Ġtw": 581,
      "ment": 582,
      "Ġfear": 583,
      "Ġhast": 584,
      "ĠNow": 585,
      "ĠWho": 586,
      "Ġbet": 587,
      "ĠHEN": 588,
      "aught": 589,
      "ĠHENRY": 590,
      "Ġcou": 591,
      "Ġgreat": 592,
      "ĠBe": 593,
      "ber": 594,
      "not": 595,
      "Ġbre": 596,
      "ved": 597,
      "Ġnever": 598,
      "Ġfair": 599,
      "Ġnew": 600,
      "cc": 601,
      "ee": 602,
      "ss": 603,
      "Ġaf": 604,
      "ower": 605,
      "ap": 606,
      "igh": 607,
      "Ġmen": 608,
      "ĠAN": 609,
      "tle": 610,
      "orrow": 611,
      "ĠYour": 612,
      "aster": 613,
      "uke": 614,
      "ĠIt": 615,
      "iz": 616,
      "ough": 617,
      "ĠYOR": 618,
      "ĠYORK": 619,
      "Ġcall": 620,
      "Ġpart": 621,
      "Ġany": 622,
      "Ġra": 623,
      "ation": 624,
      "ĠOr": 625,
      "INIUS": 626,
      "ST": 627,
      "Ġad": 628,
      "ree": 629,
      "ide": 630,
      "Ġcomm": 631,
      "Ġcannot": 632,
      "Ġpre": 633,
      "Ġstand": 634,
      "Ġtrue": 635,
      "Ġheaven": 636,
      "Ġname": 637,
      "ĠPET": 638,
      "AU": 639,
      "Ġbeen": 640,
      "Ġpray": 641,
      "hing": 642,
      "old": 643,
      "Ġcl": 644,
      "Ġsweet": 645,
      "DW": 646,
      "Ġper": 647,
      "Ġple": 648,
      "ĠEDW": 649,
      "ĠEDWARD": 650,
      "ple": 651,
      "ĠGR": 652,
      ",--": 653,
      "Ġdoth": 654,
      "Ġnoble": 655,
      "Ġwr": 656,
      "Ġown": 657,
      "ears": 658,
      "ĠLUC": 659,
      "ouse": 660,
      "Ġdone": 661,
      "ĠThere": 662,
      "ull": 663,
      "Ġtr": 664,
      "Ġway": 665,
      "Ġother": 666,
      "Ġhead": 667,
      "ife": 668,
      "RO": 669,
      "aw": 670,
      "Ġmean": 671,
      "Ġpres": 672,
      "UT": 673,
      "Ġbear": 674,
      "ĠEd": 675,
      "Ġsc": 676,
      "red": 677,
      "Ġnor": 678,
      "AP": 679,
      "EO": 680,
      "Ġvery": 681,
      "Ġsoul": 682,
      "ĠAy": 683,
      "ĠROM": 684,
      "ĠWhen": 685,
      "ĠEdward": 686,
      "ĠROMEO": 687,
      "ving": 688,
      "Ġboth": 689,
      "Ġnight": 690,
      "ĠAn": 691,
      "Ġbefore": 692,
      "ĠMEN": 693,
      "ENIUS": 694,
      "ass": 695,
      "aint": 696,
      "Ġworld": 697,
      "ĠMENENIUS": 698,
      "ace": 699,
      "ger": 700,
      "ĠBy": 701,
      "ause": 702,
      "Ġqueen": 703,
      "li": 704,
      "ĠLet": 705,
      "TH": 706,
      "Ġmo": 707,
      "Ġchi": 708,
      "aughter": 709,
      "RUCH": 710,
      "ĠThen": 711,
      "ĠHere": 712,
      "ĠPETRUCH": 713,
      "ĠPETRUCHIO": 714,
      "able": 715,
      "Ġdown": 716,
      "Ġdead": 717,
      "Ġcont": 718,
      "TES": 719,
      "Ġapp": 720,
      "Ġwh": 721,
      "ite": 722,
      "Ġke": 723,
      "Ġbeing": 724,
      "Ġrem": 725,
      "per": 726,
      "Ġmyself": 727,
      "ab": 728,
      "les": 729,
      "ĠThan": 730,
      "ĠMAR": 731,
      "Ġbeg": 732,
      "Ġarm": 733,
      "Ġthus": 734,
      "ĠCOR": 735,
      "IOLAN": 736,
      "ilt": 737,
      "Ġleave": 738,
      "ĠCORIOLAN": 739,
      "ĠCORIOLANUS": 740,
      "ĠSec": 741,
      "Ġgrace": 742,
      "ĠSecond": 743,
      "Ġunt": 744,
      "ction": 745,
      "ĠNor": 746,
      "ress": 747,
      "Ġeyes": 748,
      "Ġim": 749,
      "Ġmother": 750,
      "ĠLE": 751,
      "less": 752,
      "Ġma": 753,
      "Ġold": 754,
      "land": 755,
      "ran": 756,
      "Ġrep": 757,
      "INA": 758,
      "itiz": 759,
      "Ġever": 760,
      "itizen": 761,
      "lo": 762,
      "ps": 763,
      "sw": 764,
      "Ġwife": 765,
      "Ġlong": 766,
      "Ġint": 767,
      "ĠShe": 768,
      "Ġlive": 769,
      "Ġchild": 770,
      "Ġwom": 771,
      "Ġpoor": 772,
      "Ġfriends": 773,
      "Ġaway": 774,
      "Ġcons": 775,
      "ĠIII": 776,
      "ĠGo": 777,
      "Ġmight": 778,
      "ford": 779,
      "nder": 780,
      "Ġdie": 781,
      "ĠSir": 782,
      "Ġstay": 783,
      "eace": 784,
      "Ġcomes": 785,
      "ks": 786,
      "wick": 787,
      "oud": 788,
      "atch": 789,
      "ĠWar": 790,
      "led": 791,
      "Ġmany": 792,
      "Ġru": 793,
      "Ġhouse": 794,
      "Ġrest": 795,
      "Ġcrown": 796,
      "Ġpe": 797,
      "ĠWarwick": 798,
      "ff": 799,
      "Ġcour": 800,
      "Ġle": 801,
      "ows": 802,
      "Tis": 803,
      "come": 804,
      "Ġent": 805,
      "ison": 806,
      "Ġhar": 807,
      "ĠHis": 808,
      "Ġthought": 809,
      "LA": 810,
      "SAB": 811,
      "ĠISAB": 812,
      "Ġlie": 813,
      "ELLA": 814,
      "ĠISABELLA": 815,
      "ian": 816,
      "uck": 817,
      "iss": 818,
      "erc": 819,
      "RAN": 820,
      "Ġset": 821,
      "Ġdaughter": 822,
      "che": 823,
      "ĠWell": 824,
      "Ġnothing": 825,
      "ĠRomeo": 826,
      "ULI": 827,
      "Ġtong": 828,
      "ors": 829,
      "atter": 830,
      "ONTES": 831,
      "ĠJULI": 832,
      "Ġbetter": 833,
      "ĠLEONTES": 834,
      "ĠJULIET": 835,
      "ittle": 836,
      "Ġgone": 837,
      "ĠSt": 838,
      "ĠNay": 839,
      "Ġprince": 840,
      "ĠVI": 841,
      "rant": 842,
      "AD": 843,
      "ought": 844,
      "Ġwit": 845,
      "int": 846,
      "ĠLAD": 847,
      "ĠLADY": 848,
      "AL": 849,
      "CE": 850,
      "well": 851,
      "Ġtri": 852,
      "ENCE": 853,
      "ied": 854,
      "me": 855,
      "ĠPro": 856,
      "Ġnews": 857,
      "Ġkeep": 858,
      "os": 859,
      "Ġsle": 860,
      "Ġbest": 861,
      "Ġres": 862,
      "Ġagainst": 863,
      "ces": 864,
      "for": 865,
      "ious": 866,
      "hall": 867,
      "Ġthose": 868,
      "ĠServ": 869,
      "ier": 870,
      "Ġacc": 871,
      "Ġlittle": 872,
      "Ġhence": 873,
      "Ġgri": 874,
      "ĠSIC": 875,
      "ĠCitizen": 876,
      "ool": 877,
      "Ġcomp": 878,
      "hard": 879,
      "ĠSICINIUS": 880,
      "Ġthing": 881,
      "Ġhour": 882,
      "ĠNot": 883,
      "Ġlords": 884,
      "ty": 885,
      "Ġput": 886,
      "ardon": 887,
      "Ġface": 888,
      "akes": 889,
      "une": 890,
      "lse": 891,
      "llow": 892,
      "sed": 893,
      "Ġend": 894,
      "ĠOn": 895,
      "Ġkind": 896,
      "EY": 897,
      "Ġyoung": 898,
      "Ġstill": 899,
      "ult": 900,
      "Ġtwo": 901,
      "ret": 902,
      "ork": 903,
      "ont": 904,
      "Ġpri": 905,
      "Ġhimself": 906,
      "ield": 907,
      "ud": 908,
      "Ġpur": 909,
      "Ġpower": 910,
      "alk": 911,
      "ĠThy": 912,
      "ĠLUCIO": 913,
      "ale": 914,
      "ins": 915,
      "ĠIV": 916,
      "ert": 917,
      "Ġcha": 918,
      "ĠRic": 919,
      "ĠRichard": 920,
      "ew": 921,
      "ĠCL": 922,
      "Ġsub": 923,
      "Ġtherefore": 924,
      "Ġcount": 925,
      "TI": 926,
      "cl": 927,
      "ft": 928,
      "iness": 929,
      "Ġfirst": 930,
      "Ġpeace": 931,
      "Ġgu": 932,
      "Ġelse": 933,
      "ried": 934,
      "Ġdear": 935,
      "cious": 936,
      "Ġunto": 937,
      "Ġtill": 938,
      "Ġsm": 939,
      "Ġduke": 940,
      "Ġcould": 941,
      "ĠWill": 942,
      "ĠBR": 943,
      "ĠHave": 944,
      "ason": 945,
      "hile": 946,
      "ail": 947,
      "ect": 948,
      "ile": 949,
      "Ġtra": 950,
      "Ġback": 951,
      "Ġco": 952,
      "Ġhus": 953,
      "uty": 954,
      "Ġthough": 955,
      "Ġwords": 956,
      "ZAB": 957,
      "Ġtre": 958,
      "Ġbid": 959,
      "Ġfell": 960,
      "Ġfind": 961,
      "Ġdre": 962,
      "ĠYork": 963,
      "ĠELI": 964,
      "Ġneed": 965,
      "ETH": 966,
      "Ġearth": 967,
      "Ġtongue": 968,
      "ZABETH": 969,
      "ĠELIZABETH": 970,
      "band": 971,
      "ius": 972,
      "ople": 973,
      "yal": 974,
      "Ġlady": 975,
      "Ġthine": 976,
      "IAN": 977,
      "men": 978,
      "Ġbra": 979,
      "orse": 980,
      "Ġhome": 981,
      "Ġhel": 982,
      "Ġforth": 983,
      "Ġseem": 984,
      "Ġhope": 985,
      "eech": 986,
      "ray": 987,
      "enry": 988,
      "ark": 989,
      "Ġhigh": 990,
      "eth": 991,
      "ĠHenry": 992,
      "ĠYet": 993,
      "Ġhusband": 994,
      "vere": 995,
      "ĠGood": 996,
      "Ġright": 997,
      "get": 998,
      "Ġchan": 999,
      "WIC": 1000,
      "tw": 1001,
      "Ġmind": 1002,
      "Ġban": 1003,
      "ĠWAR": 1004,
      "uth": 1005,
      "Ġpeople": 1006,
      "WICK": 1007,
      "ĠWARWICK": 1008,
      "AST": 1009,
      "ach": 1010,
      "ds": 1011,
      "ix": 1012,
      "rer": 1013,
      "ister": 1014,
      "Ġche": 1015,
      "Ġchar": 1016,
      "ĠAll": 1017,
      "ĠShall": 1018,
      "hip": 1019,
      "ĠDo": 1020,
      "Ġshow": 1021,
      "Ġconf": 1022,
      "ged": 1023,
      "Ġbri": 1024,
      "Ġhands": 1025,
      "HAM": 1026,
      "fort": 1027,
      "Ġmaster": 1028,
      "Ġwhy": 1029,
      "Ġcause": 1030,
      "ĠNurse": 1031,
      "Ġjoy": 1032,
      "Ġimp": 1033,
      "LET": 1034,
      "ULET": 1035,
      "Ġserv": 1036,
      "Ġmist": 1037,
      "Ġnone": 1038,
      "Ġlaw": 1039,
      "Ġgl": 1040,
      "ĠCAP": 1041,
      "ĠThey": 1042,
      "Ġonce": 1043,
      "Ġsaid": 1044,
      "ĠCAPULET": 1045,
      "Ġfort": 1046,
      "Ġevery": 1047,
      "GE": 1048,
      "IL": 1049,
      "MIO": 1050,
      "ren": 1051,
      "Ġbod": 1052,
      "ousin": 1053,
      "Ġbring": 1054,
      "RI": 1055,
      "bt": 1056,
      "Ġdou": 1057,
      "KING": 1058,
      "eed": 1059,
      "Ġpass": 1060,
      "ates": 1061,
      "ĠBUC": 1062,
      "Ġplease": 1063,
      "UTUS": 1064,
      "ĠBRUTUS": 1065,
      "KINGHAM": 1066,
      "ĠBUCKINGHAM": 1067,
      "BRO": 1068,
      "iet": 1069,
      "lt": 1070,
      "ĠTRAN": 1071,
      "ird": 1072,
      "ĠBOL": 1073,
      "ĠFrom": 1074,
      "Ġlight": 1075,
      "INGBRO": 1076,
      "ESS": 1077,
      "ĠTRANIO": 1078,
      "ĠBOLINGBRO": 1079,
      "ĠBOLINGBROKE": 1080,
      "eel": 1081,
      "vost": 1082,
      "Ġtears": 1083,
      "Ġwo": 1084,
      "Ġbes": 1085,
      "Ġnat": 1086,
      "Ġthr": 1087,
      "Ġwhose": 1088,
      "Ġroyal": 1089,
      "Ġpresent": 1090,
      "swer": 1091,
      "cle": 1092,
      "mb": 1093,
      "Ġsince": 1094,
      "Ġboy": 1095,
      "its": 1096,
      "Ġcame": 1097,
      "ary": 1098,
      "ĠOur": 1099,
      "Ġjust": 1100,
      "lf": 1101,
      "ock": 1102,
      "vy": 1103,
      "ory": 1104,
      "Ġfull": 1105,
      "Ġpardon": 1106,
      "Ġheard": 1107,
      "Ġunder": 1108,
      "Ġdev": 1109,
      "roke": 1110,
      "Ġafter": 1111,
      "Ġwrong": 1112,
      "GAR": 1113,
      "NE": 1114,
      "pose": 1115,
      "Ġland": 1116,
      "Ġhapp": 1117,
      "Ġplace": 1118,
      "ĠMARGAR": 1119,
      "ĠMARGARET": 1120,
      "ATH": 1121,
      "Ġmis": 1122,
      "Ġlast": 1123,
      "ens": 1124,
      "Ġere": 1125,
      "Ġstate": 1126,
      "ĠKing": 1127,
      "AMIL": 1128,
      "sand": 1129,
      "Ġsorrow": 1130,
      "Ġcare": 1131,
      "Ġmeet": 1132,
      "Ġkill": 1133,
      "Ġhold": 1134,
      "cent": 1135,
      "ition": 1136,
      "Ġthousand": 1137,
      "esty": 1138,
      "ORD": 1139,
      "Ġeye": 1140,
      "ĠANGE": 1141,
      "ĠGRE": 1142,
      "Ġwhom": 1143,
      "Ġhelp": 1144,
      "ĠANGELO": 1145,
      "Ġfal": 1146,
      "Ġless": 1147,
      "ARINA": 1148,
      "ĠEng": 1149,
      "Ġanswer": 1150,
      "arence": 1151,
      "Ġfollow": 1152,
      "SC": 1153,
      "Ġbus": 1154,
      "Ġfar": 1155,
      "Ġfool": 1156,
      "Ġch": 1157,
      "Ġhither": 1158,
      "Ġpat": 1159,
      "ceive": 1160,
      "irt": 1161,
      "ĠSh": 1162,
      "Ġweep": 1163,
      "Ġshame": 1164,
      "Ġsun": 1165,
      "ĠKATH": 1166,
      "selves": 1167,
      "cius": 1168,
      "Ġenem": 1169,
      "ĠClarence": 1170,
      "Ġabout": 1171,
      "ĠKATHARINA": 1172,
      "iol": 1173,
      "urde": 1174,
      "Ġfall": 1175,
      "Ġgentleman": 1176,
      "ĠMarcius": 1177,
      "Ġmaid": 1178,
      "day": 1179,
      "Ġob": 1180,
      "asure": 1181,
      "Ġinto": 1182,
      "Ġmakes": 1183,
      "Ġcousin": 1184,
      "ĠESC": 1185,
      "Ġhate": 1186,
      "Ġgracious": 1187,
      "ĠUn": 1188,
      "ĠUp": 1189,
      "Ġcoun": 1190,
      "Ġcourt": 1191,
      "ALUS": 1192,
      "Ġgrief": 1193,
      "ĠESCALUS": 1194,
      "air": 1195,
      "ject": 1196,
      "ĠAl": 1197,
      "imes": 1198,
      "Ġstri": 1199,
      "Ġwoman": 1200,
      "iv": 1201,
      "ove": 1202,
      "Ġturn": 1203,
      "ĠHath": 1204,
      "Ġstre": 1205,
      "Ġcomfort": 1206,
      "Ġworth": 1207,
      "ild": 1208,
      "ling": 1209,
      "Ġtalk": 1210,
      "Ġwilt": 1211,
      "ons": 1212,
      "Ġhum": 1213,
      "Ġbed": 1214,
      "alt": 1215,
      "Ġdost": 1216,
      "ĠDUCH": 1217,
      "ĠDuke": 1218,
      "ices": 1219,
      "deed": 1220,
      "Ġsleep": 1221,
      "urderer": 1222,
      "ĠDUCHESS": 1223,
      "pher": 1224,
      "ount": 1225,
      "itor": 1226,
      "Ġover": 1227,
      "Ġbel": 1228,
      "ERC": 1229,
      "ĠAnge": 1230,
      "Ġbody": 1231,
      "morrow": 1232,
      "Ġi": 1233,
      "Ġsound": 1234,
      "Ġbu": 1235,
      "Ġdra": 1236,
      "Ġinst": 1237,
      "ute": 1238,
      "ĠHer": 1239,
      "Ġfault": 1240,
      "Ġatt": 1241,
      "Ġthank": 1242,
      "ĠAngelo": 1243,
      "IA": 1244,
      "ience": 1245,
      "ised": 1246,
      "Ġindeed": 1247,
      "ĠCAMIL": 1248,
      "Ġanother": 1249,
      "Ġprove": 1250,
      "Ġplay": 1251,
      "Ġadv": 1252,
      "Ġfalse": 1253,
      "ĠCAMILLO": 1254,
      "ily": 1255,
      "Ġser": 1256,
      "omet": 1257,
      "ĠWould": 1258,
      "Ġhas": 1259,
      "Ġuse": 1260,
      "Ġwel": 1261,
      "Ġret": 1262,
      "Ġdeed": 1263,
      "ĠEven": 1264,
      "Ġvo": 1265,
      "ieve": 1266,
      "Ġsword": 1267,
      "ĠProvost": 1268,
      "Ġfellow": 1269,
      "TEN": 1270,
      "Ġmatter": 1271,
      "Ġbo": 1272,
      "Ġfight": 1273,
      "Ġpers": 1274,
      "ans": 1275,
      "ĠHOR": 1276,
      "illain": 1277,
      "Ġeven": 1278,
      "ade": 1279,
      "Ġfortune": 1280,
      "TENS": 1281,
      "ĠHORTENS": 1282,
      "Ġsent": 1283,
      "ĠFRI": 1284,
      "Ġsovere": 1285,
      "hold": 1286,
      "Ġprison": 1287,
      "Ġgrave": 1288,
      "Ġcountry": 1289,
      "ĠUpon": 1290,
      "ĠHORTENSIO": 1291,
      "ĠFRIAR": 1292,
      ",'": 1293,
      "eal": 1294,
      "Ġmerc": 1295,
      "Ġdan": 1296,
      "Ġcur": 1297,
      "Ġyears": 1298,
      "ĠAre": 1299,
      "ĠBAP": 1300,
      "ury": 1301,
      "Ġsend": 1302,
      "Ġvirt": 1303,
      "Ġrather": 1304,
      "STA": 1305,
      "TISTA": 1306,
      "Ġbanish": 1307,
      "Ġdoubt": 1308,
      "ĠBAPTISTA": 1309,
      "CUS": 1310,
      "YCUS": 1311,
      "mp": 1312,
      "ouch": 1313,
      "Ġwant": 1314,
      "Ġwish": 1315,
      "ĠTy": 1316,
      "ĠAUT": 1317,
      "Ġgr": 1318,
      "Ġhang": 1319,
      "ĠCOM": 1320,
      "Ġreven": 1321,
      "Ġass": 1322,
      "fect": 1323,
      "pect": 1324,
      "OLYCUS": 1325,
      "Ġtruth": 1326,
      "Ġbusiness": 1327,
      "ĠAUTOLYCUS": 1328,
      "ĠCOMINIUS": 1329,
      ".'": 1330,
      "dd": 1331,
      "ĠAt": 1332,
      "ĠMore": 1333,
      "Ġreason": 1334,
      "Ġlies": 1335,
      "Ġonly": 1336,
      "ARENCE": 1337,
      "Ġshalt": 1338,
      "ĠThird": 1339,
      "Ġdisc": 1340,
      "ĠCLARENCE": 1341,
      "ere": 1342,
      "ior": 1343,
      "ms": 1344,
      "pen": 1345,
      "rance": 1346,
      "Ġsea": 1347,
      "Ġcra": 1348,
      "Ġstra": 1349,
      "ENES": 1350,
      "Ġbreath": 1351,
      "Ġcommand": 1352,
      "Ġarms": 1353,
      "Ġdream": 1354,
      "pherd": 1355,
      "VOL": 1356,
      "der": 1357,
      "Ġlay": 1358,
      "ener": 1359,
      "Ġprom": 1360,
      "Ġgi": 1361,
      "ĠBEN": 1362,
      "Ġstran": 1363,
      "ĠGentle": 1364,
      "ĠNOR": 1365,
      "Ġsec": 1366,
      "ĠClown": 1367,
      "VOLIO": 1368,
      "ĠBENVOLIO": 1369,
      "PER": 1370,
      "SPER": 1371,
      "Ġsen": 1372,
      "Ġsomet": 1373,
      "Ġwind": 1374,
      "Ġpity": 1375,
      "ĠTake": 1376,
      "ĠPRO": 1377,
      "Ġproud": 1378,
      "Ġholy": 1379,
      "Ġenough": 1380,
      "UMIO": 1381,
      "ĠGRUMIO": 1382,
      "Ġcontent": 1383,
      "Ġremem": 1384,
      "SPERO": 1385,
      "ĠPROSPERO": 1386,
      "UTIO": 1387,
      "ia": 1388,
      "ken": 1389,
      "ten": 1390,
      "hed": 1391,
      "Ġdare": 1392,
      "Ġthree": 1393,
      "ator": 1394,
      "Ġbea": 1395,
      "ĠSu": 1396,
      "ĠMurderer": 1397,
      "ĠMERC": 1398,
      "Ġlives": 1399,
      "Ġsold": 1400,
      "ĠDid": 1401,
      "ĠKate": 1402,
      "Ġspir": 1403,
      "Ġfare": 1404,
      "Ġswear": 1405,
      "ĠMERCUTIO": 1406,
      "IS": 1407,
      "ike": 1408,
      "Ġtend": 1409,
      "Ġget": 1410,
      "eter": 1411,
      "Ġwithin": 1412,
      "Ġdep": 1413,
      "Ġvillain": 1414,
      "Ġgods": 1415,
      "ĠWere": 1416,
      "ĠLUCENTIO": 1417,
      "ĠServant": 1418,
      "Ġnature": 1419,
      "Ġwelcome": 1420,
      "Ġsister": 1421,
      "ham": 1422,
      "Ġfoul": 1423,
      "Ġfree": 1424,
      "Ġthings": 1425,
      "ars": 1426,
      "Ġgre": 1427,
      "Ġkiss": 1428,
      "ĠPOM": 1429,
      "ester": 1430,
      "Ġsaw": 1431,
      "Ġmadam": 1432,
      "LAND": 1433,
      "Ġmistress": 1434,
      "Ġhappy": 1435,
      "Ġsovereign": 1436,
      "ĠPOMP": 1437,
      "LINA": 1438,
      "apt": 1439,
      "ient": 1440,
      "unt": 1441,
      "hal": 1442,
      "Ġcity": 1443,
      "Ġyield": 1444,
      "any": 1445,
      "ĠWas": 1446,
      "ĠGive": 1447,
      "ĠPAU": 1448,
      "vers": 1449,
      "Ġbreak": 1450,
      "Ġmeans": 1451,
      "Ġsubject": 1452,
      "Ġbeseech": 1453,
      "ĠPAULINA": 1454,
      "Ġaw": 1455,
      "Ġmer": 1456,
      "Ġborn": 1457,
      "ery": 1458,
      "Ġden": 1459,
      "Ġhorse": 1460,
      "Ġoath": 1461,
      "ĠSay": 1462,
      "Ġyours": 1463,
      "ĠLook": 1464,
      "onder": 1465,
      "gainst": 1466,
      "ague": 1467,
      "eft": 1468,
      "gether": 1469,
      "ĠGREMIO": 1470,
      "ĠPOMPEY": 1471,
      "NIA": 1472,
      "OLI": 1473,
      "XENES": 1474,
      "balt": 1475,
      "Ġtem": 1476,
      "Ġwound": 1477,
      "Ġwhile": 1478,
      "Ġfire": 1479,
      "Ġdru": 1480,
      "anc": 1481,
      "ĠCom": 1482,
      "Ġyourself": 1483,
      "ĠPOLI": 1484,
      "usic": 1485,
      "Ġsupp": 1486,
      "Ġfaith": 1487,
      "ĠVOL": 1488,
      "Ġbloody": 1489,
      "Ġlooks": 1490,
      "UMNIA": 1491,
      "ches": 1492,
      "ĠEngland": 1493,
      "ĠPOLIXENES": 1494,
      "ĠVOLUMNIA": 1495,
      "ey": 1496,
      "ues": 1497,
      "Ġsit": 1498,
      "Ġwin": 1499,
      "Ġcar": 1500,
      "Ġcond": 1501,
      "enger": 1502,
      "ingman": 1503,
      "ĠHAST": 1504,
      "ĠFare": 1505,
      "Ġrequ": 1506,
      "Ġspo": 1507,
      "INGS": 1508,
      "Ġcommon": 1509,
      "Ġmaj": 1510,
      "ĠServingman": 1511,
      "Ġtraitor": 1512,
      "centio": 1513,
      "ĠHASTINGS": 1514,
      "RENCE": 1515,
      "by": 1516,
      "broke": 1517,
      "rong": 1518,
      "Ġmon": 1519,
      "Ġlam": 1520,
      "ĠHast": 1521,
      "ĠMay": 1522,
      "ĠCan": 1523,
      "ĠLAU": 1524,
      "Ġdef": 1525,
      "essenger": 1526,
      "Ġuncle": 1527,
      "Ġmark": 1528,
      "Ġchildren": 1529,
      "ertain": 1530,
      "ĠLAURENCE": 1531,
      "BY": 1532,
      "BER": 1533,
      "Ġsight": 1534,
      "Ġmet": 1535,
      "Ġlate": 1536,
      "Ġleft": 1537,
      "ĠAh": 1538,
      "Ġbeat": 1539,
      "Ġsoon": 1540,
      "Ġval": 1541,
      "ĠJul": 1542,
      "ĠTherefore": 1543,
      "form": 1544,
      "Ġdanger": 1545,
      "ĠTybalt": 1546,
      "Ġtender": 1547,
      "Ġmajesty": 1548,
      "FF": 1549,
      "use": 1550,
      "Ġsin": 1551,
      "Ġtold": 1552,
      "ĠSp": 1553,
      "Ġseen": 1554,
      "Ġsure": 1555,
      "LIFF": 1556,
      "Ġsave": 1557,
      "Ġfoot": 1558,
      "Ġdays": 1559,
      "Ġwarrant": 1560,
      "UMBER": 1561,
      "like": 1562,
      "THUMBER": 1563,
      "Ġwoe": 1564,
      "ĠNORTHUMBER": 1565,
      "ĠNORTHUMBERLAND": 1566,
      "ID": 1567,
      "TA": 1568,
      "ting": 1569,
      "Ġsad": 1570,
      "rem": 1571,
      "Ġgener": 1572,
      "ĠLu": 1573,
      "ides": 1574,
      "idow": 1575,
      "ĠPl": 1576,
      "Ġdoes": 1577,
      "Ġreport": 1578,
      "Ġreturn": 1579,
      "Ġmercy": 1580,
      "Ġfarewell": 1581,
      "dom": 1582,
      "ring": 1583,
      "up": 1584,
      "hes": 1585,
      "rel": 1586,
      "Ġtogether": 1587,
      "Ġwithout": 1588,
      "Ġdeep": 1589,
      "ters": 1590,
      "earn": 1591,
      "Ġgold": 1592,
      "unes": 1593,
      "ĠThough": 1594,
      "Ġmarry": 1595,
      "Ġheavy": 1596,
      "ĠANNE": 1597,
      "Ġpurpose": 1598,
      "Ġthrough": 1599,
      "RINC": 1600,
      "aim": 1601,
      "bl": 1602,
      "ca": 1603,
      "cher": 1604,
      "ict": 1605,
      "vent": 1606,
      "Ġill": 1607,
      "Ġcho": 1608,
      "Ġcold": 1609,
      "Ġnurse": 1610,
      "Ġgrow": 1611,
      "ĠHad": 1612,
      "ĠMont": 1613,
      "Ġrec": 1614,
      "ĠPRINC": 1615,
      "ifford": 1616,
      "Ġlost": 1617,
      "ERD": 1618,
      "ignior": 1619,
      "ĠClifford": 1620,
      "Ġears": 1621,
      "Ġdeser": 1622,
      "ments": 1623,
      "Ġperson": 1624,
      "Ġstrange": 1625,
      "ĠJuliet": 1626,
      "ĠPRINCE": 1627,
      "az": 1628,
      "mer": 1629,
      "Ġtimes": 1630,
      "Ġwat": 1631,
      "oriol": 1632,
      "ĠTell": 1633,
      "ingbroke": 1634,
      "ceed": 1635,
      "ĠBol": 1636,
      "ĠMI": 1637,
      "ĠCam": 1638,
      "ours": 1639,
      "enty": 1640,
      "Ġask": 1641,
      "ĠRi": 1642,
      "ross": 1643,
      "Ġthyself": 1644,
      "ush": 1645,
      "Ġsuff": 1646,
      "Ġpluck": 1647,
      "Ġdisp": 1648,
      "Ġliege": 1649,
      "Ġbelieve": 1650,
      "Ġspirit": 1651,
      "ĠBolingbroke": 1652,
      "ever": 1653,
      "Ġair": 1654,
      "Ġage": 1655,
      "Ġsil": 1656,
      "Ġlearn": 1657,
      "ĠAway": 1658,
      "Ġheir": 1659,
      "ĠWh": 1660,
      "ets": 1661,
      "ĠSome": 1662,
      "ĠSignior": 1663,
      "ĠHa": 1664,
      "ains": 1665,
      "ift": 1666,
      "Ġloss": 1667,
      "Ġsays": 1668,
      "Ġjo": 1669,
      "Ġpoint": 1670,
      "ĠWhose": 1671,
      "ĠOne": 1672,
      "ĠShould": 1673,
      "aid": 1674,
      "ial": 1675,
      "ner": 1676,
      "Ġbat": 1677,
      "Ġfly": 1678,
      "Ġcry": 1679,
      "Ġpast": 1680,
      "ced": 1681,
      "ĠCoriol": 1682,
      "Ġfriar": 1683,
      "Ġtrust": 1684,
      "Ġdesire": 1685,
      "Ġhaste": 1686,
      "Ġentreat": 1687,
      "Ġjustice": 1688,
      "Ġdevil": 1689,
      "Ġinstru": 1690,
      "Ġground": 1691,
      "ĠFarewell": 1692,
      "gu": 1693,
      "ges": 1694,
      "night": 1695,
      "sh": 1696,
      "Ġord": 1697,
      "outh": 1698,
      "Ġmur": 1699,
      "ina": 1700,
      "ined": 1701,
      "Ġbold": 1702,
      "Ġfound": 1703,
      "Ġnear": 1704,
      "Ġtoward": 1705,
      "ĠSen": 1706,
      "ĠLike": 1707,
      "ĠFrance": 1708,
      "ĠPray": 1709,
      "Ġfast": 1710,
      "Ġvis": 1711,
      "aud": 1712,
      "aking": 1713,
      "Ġslain": 1714,
      "Ġbetw": 1715,
      "ixt": 1716,
      "Ġservice": 1717,
      "Ġstraight": 1718,
      "Ġremember": 1719,
      "FID": 1720,
      "IZ": 1721,
      "LE": 1722,
      "LOR": 1723,
      "UFID": 1724,
      "Ġcurse": 1725,
      "ĠAUFID": 1726,
      "oman": 1727,
      "ution": 1728,
      "ĠMessenger": 1729,
      "Ġwear": 1730,
      "Ġstrong": 1731,
      "ĠFLOR": 1732,
      "ĠGl": 1733,
      "ĠThese": 1734,
      "Ġquick": 1735,
      "Ġmarried": 1736,
      "Ġalone": 1737,
      "Ġhard": 1738,
      "Ġworthy": 1739,
      "Ġbeauty": 1740,
      "IZEL": 1741,
      "ĠAUFIDIUS": 1742,
      "ĠFLORIZEL": 1743,
      "TON": 1744,
      "ning": 1745,
      "xt": 1746,
      "Ġtouch": 1747,
      "Ġwoo": 1748,
      "Ġfit": 1749,
      "ithe": 1750,
      "Ġhu": 1751,
      "Ġopen": 1752,
      "Ġgrant": 1753,
      "Ġbec": 1754,
      "let": 1755,
      "ĠSee": 1756,
      "adam": 1757,
      "Ġready": 1758,
      "ION": 1759,
      "Ġbrought": 1760,
      "ured": 1761,
      "Ġposs": 1762,
      "ĠClaud": 1763,
      "Ġexec": 1764,
      "Ġrun": 1765,
      "Ġenemy": 1766,
      "Ġrevenge": 1767,
      "Ġgeneral": 1768,
      "ĠClaudio": 1769,
      "!'": 1770,
      "bs": 1771,
      "gs": 1772,
      "ible": 1773,
      "Ġfur": 1774,
      "Ġduty": 1775,
      "Ġyouth": 1776,
      "Ġinc": 1777,
      "Ġinf": 1778,
      "cept": 1779,
      "Ġiss": 1780,
      "Ġitself": 1781,
      "Ġdeli": 1782,
      "Ġlose": 1783,
      "ERS": 1784,
      "aunt": 1785,
      "Ġknows": 1786,
      "Ġcanst": 1787,
      "inks": 1788,
      "Ġquar": 1789,
      "Ġprof": 1790,
      "umber": 1791,
      "Ġthoughts": 1792,
      "Ġhours": 1793,
      "Ġcharge": 1794,
      "Ġconfess": 1795,
      "ĠGentleman": 1796,
      "ĠSenator": 1797,
      "AS": 1798,
      "BAST": 1799,
      "CIUS": 1800,
      "EBAST": 1801,
      "cester": 1802,
      "pl": 1803,
      "ship": 1804,
      "ua": 1805,
      "vo": 1806,
      "Ġmorn": 1807,
      "Ġfeel": 1808,
      "Ġpar": 1809,
      "ĠAgainst": 1810,
      "ĠBec": 1811,
      "ĠSEBAST": 1812,
      "ĠMaster": 1813,
      "ĠMadam": 1814,
      "illo": 1815,
      "riage": 1816,
      "Ġread": 1817,
      "Ġdel": 1818,
      "Ġspeed": 1819,
      "Ġdesp": 1820,
      "Ġtwenty": 1821,
      "Ġstands": 1822,
      "ĠMARCIUS": 1823,
      "ĠShepherd": 1824,
      "ched": 1825,
      "Ġstreng": 1826,
      "ĠMontague": 1827,
      "ĠGlou": 1828,
      "ithee": 1829,
      "ĠSEBASTIAN": 1830,
      "OW": 1831,
      "cess": 1832,
      "eep": 1833,
      "op": 1834,
      "ted": 1835,
      "Ġfore": 1836,
      "Ġfield": 1837,
      "Ġdiv": 1838,
      "Ġpost": 1839,
      "Ġhell": 1840,
      "ingham": 1841,
      "Ġbehold": 1842,
      "Ġhalf": 1843,
      "oop": 1844,
      "ĠPr": 1845,
      "olk": 1846,
      "fection": 1847,
      "Ġjud": 1848,
      "ump": 1849,
      "Ġfearful": 1850,
      "Ġmock": 1851,
      "Ġresol": 1852,
      "Ġcounsel": 1853,
      "ĠCamillo": 1854,
      "DEL": 1855,
      "no": 1856,
      "Ġter": 1857,
      "Ġmin": 1858,
      "Ġwret": 1859,
      "Ġbound": 1860,
      "Ġbos": 1861,
      "Ġdam": 1862,
      "Ġcut": 1863,
      "Ġye": 1864,
      "ĠTill": 1865,
      "ĠBo": 1866,
      "ĠBuck": 1867,
      "ĠBION": 1868,
      "Ġeach": 1869,
      "ads": 1870,
      "alm": 1871,
      "Ġshort": 1872,
      "ĠVol": 1873,
      "Ġknown": 1874,
      "Ġwork": 1875,
      "ortal": 1876,
      "Ġhearts": 1877,
      "Ġmarriage": 1878,
      "Ġhonest": 1879,
      "Ġtrib": 1880,
      "ĠHastings": 1881,
      "ĠGloucester": 1882,
      "DELLO": 1883,
      "Ġbosom": 1884,
      "ĠBuckingham": 1885,
      "ĠBIONDELLO": 1886,
      "folk": 1887,
      "iers": 1888,
      "of": 1889,
      "pare": 1890,
      "sc": 1891,
      "the": 1892,
      "Ġve": 1893,
      "Ġtit": 1894,
      "Ġten": 1895,
      "Ġtale": 1896,
      "Ġwhi": 1897,
      "Ġwonder": 1898,
      "Ġwidow": 1899,
      "Ġbit": 1900,
      "ones": 1901,
      "Ġdish": 1902,
      "ench": 1903,
      "ĠCap": 1904,
      "rah": 1905,
      "ĠThus": 1906,
      "Ġsuit": 1907,
      "Ġseek": 1908,
      "ĠNorfolk": 1909,
      "Ġwomen": 1910,
      "Ġharm": 1911,
      "Ġcompany": 1912,
      "Ġguilt": 1913,
      "Ġhighness": 1914,
      "Ġstrike": 1915,
      "Ġdraw": 1916,
      "Ġattend": 1917,
      "Ġserve": 1918,
      "Ġvoices": 1919,
      "Ġsomething": 1920,
      "Ġmurder": 1921,
      "ĠVols": 1922,
      "OP": 1923,
      "Tw": 1924,
      "hood": 1925,
      "most": 1926,
      "Ġag": 1927,
      "Ġsing": 1928,
      "Ġsat": 1929,
      "Ġside": 1930,
      "Ġwatch": 1931,
      "Ġbur": 1932,
      "ished": 1933,
      "Ġcor": 1934,
      "ĠAUM": 1935,
      "ĠCA": 1936,
      "ander": 1937,
      "Ġloving": 1938,
      "Ġknew": 1939,
      "ERLE": 1940,
      "Ġdidst": 1941,
      "Ġdist": 1942,
      "Ġgentlemen": 1943,
      "ĠANTON": 1944,
      "Ġpret": 1945,
      "Ġheavens": 1946,
      "Ġchange": 1947,
      "ĠLucentio": 1948,
      "Ġstrength": 1949,
      "ĠAUMERLE": 1950,
      "ĠANTONIO": 1951,
      "ALO": 1952,
      "ZALO": 1953,
      "Ġact": 1954,
      "Ġsake": 1955,
      "Ġwast": 1956,
      "ĠTran": 1957,
      "ĠWel": 1958,
      "ĠBian": 1959,
      "ents": 1960,
      "Ġstir": 1961,
      "ĠLanc": 1962,
      "ĠGON": 1963,
      "ĠPet": 1964,
      "ĠMarry": 1965,
      "Ġaff": 1966,
      "Ġcloud": 1967,
      "Ġpleasure": 1968,
      "Ġenter": 1969,
      "Ġbrave": 1970,
      "ethinks": 1971,
      "Ġenemies": 1972,
      "ĠLancaster": 1973,
      "ĠGONZALO": 1974,
      "bly": 1975,
      "fid": 1976,
      "ives": 1977,
      "Ġty": 1978,
      "Ġsign": 1979,
      "Ġmusic": 1980,
      "Ġwa": 1981,
      "rew": 1982,
      "Ġbreat": 1983,
      "Ġdr": 1984,
      "Ġpra": 1985,
      "Ġpie": 1986,
      "Ġpale": 1987,
      "Ġgar": 1988,
      "Ġgates": 1989,
      "ĠSw": 1990,
      "ĠHER": 1991,
      "ĠMost": 1992,
      "oose": 1993,
      "ĠLady": 1994,
      "ĠPom": 1995,
      "ils": 1996,
      "Ġnext": 1997,
      "Ġcoming": 1998,
      "Ġthanks": 1999,
      "Ġext": 2000,
      "ĠUnt": 2001,
      "Ġclose": 2002,
      "Ġsouls": 2003,
      "Ġbegg": 2004,
      "Ġcourse": 2005,
      "Ġwithal": 2006,
      "Ġchee": 2007,
      "ceived": 2008,
      "Ġsuffer": 2009,
      "Ġdeliver": 2010,
      "Ġtitle": 2011,
      "ĠBianca": 2012,
      "DIO": 2013,
      "be": 2014,
      "vour": 2015,
      "Ġsk": 2016,
      "Ġsick": 2017,
      "ĠAu": 2018,
      "oward": 2019,
      "Ġbecome": 2020,
      "etch": 2021,
      "Ġforg": 2022,
      "ĠCh": 2023,
      "ĠCLIFF": 2024,
      "Ġweak": 2025,
      "Ġeither": 2026,
      "Ġlips": 2027,
      "Ġthemselves": 2028,
      "els": 2029,
      "Ġjest": 2030,
      "Ġplain": 2031,
      "Ġabs": 2032,
      "Ġrich": 2033,
      "AUDIO": 2034,
      "Ġgrie": 2035,
      "ĠCLAUDIO": 2036,
      "claim": 2037,
      "MIONE": 2038,
      "Ġpatience": 2039,
      "ĠRich": 2040,
      "Ġorder": 2041,
      "ĠPetru": 2042,
      "ĠHERMIONE": 2043,
      "ĠCLIFFORD": 2044,
      "DA": 2045,
      "kes": 2046,
      "ses": 2047,
      "Ġac": 2048,
      "Ġsame": 2049,
      "Ġwis": 2050,
      "Ġwall": 2051,
      "rest": 2052,
      "ready": 2053,
      "isf": 2054,
      "lly": 2055,
      "Ġcast": 2056,
      "arry": 2057,
      "irth": 2058,
      "ĠBes": 2059,
      "ĠSince": 2060,
      "chio": 2061,
      "ĠMake": 2062,
      "Ġforb": 2063,
      "Ġforget": 2064,
      "ĠCall": 2065,
      "oof": 2066,
      "ries": 2067,
      "ĠLORD": 2068,
      "Ġreg": 2069,
      "race": 2070,
      "urp": 2071,
      "east": 2072,
      "ĠEL": 2073,
      "Ġven": 2074,
      "Ġsworn": 2075,
      "Ġworse": 2076,
      "Ġprop": 2077,
      "Ġtook": 2078,
      "ĠJO": 2079,
      "Ġpoison": 2080,
      "Ġalong": 2081,
      "ĠBeing": 2082,
      "Ġbreast": 2083,
      "Ġconsul": 2084,
      "RANDA": 2085,
      "twas": 2086,
      "twere": 2087,
      "Ġcheer": 2088,
      "Ġvirtue": 2089,
      "Ġmerry": 2090,
      "ĠMIRANDA": 2091,
      "Ġfurther": 2092,
      "ĠTranio": 2093,
      "fidius": 2094,
      "ĠAufidius": 2095,
      "ĠPetruchio": 2096,
      "HN": 2097,
      "SON": 2098,
      "cy": 2099,
      "lst": 2100,
      "mit": 2101,
      "Ġta": 2102,
      "Ġmouth": 2103,
      "Ġwed": 2104,
      "Ġwise": 2105,
      "Ġbad": 2106,
      "Ġbook": 2107,
      "Ġfour": 2108,
      "Ġdu": 2109,
      "Ġdire": 2110,
      "Ġcr": 2111,
      "Ġgave": 2112,
      "Ġemb": 2113,
      "Ġred": 2114,
      "Ġliber": 2115,
      "Ġsoft": 2116,
      "ĠRe": 2117,
      "vern": 2118,
      "Ġself": 2119,
      "rust": 2120,
      "ions": 2121,
      "Ġloves": 2122,
      "rows": 2123,
      "ally": 2124,
      "Ġenc": 2125,
      "Ġoffice": 2126,
      "Ġalready": 2127,
      "Ġwrit": 2128,
      "Ġmove": 2129,
      "ĠHereford": 2130,
      "Ġbegin": 2131,
      "Ġconsent": 2132,
      "ĠAlas": 2133,
      "Ġgiven": 2134,
      "Ġrequest": 2135,
      "Ġdangerous": 2136,
      "Ġbattle": 2137,
      "Ġissue": 2138,
      "Ġmorning": 2139,
      "ĠJOHN": 2140,
      "fter": 2141,
      "mond": 2142,
      "mber": 2143,
      "nk": 2144,
      "pes": 2145,
      "rist": 2146,
      "uous": 2147,
      "used": 2148,
      "Ġburn": 2149,
      "orge": 2150,
      "Ġfrown": 2151,
      "Ġfeast": 2152,
      "Ġlad": 2153,
      "Ġpay": 2154,
      "ĠTower": 2155,
      "anus": 2156,
      "Ġgro": 2157,
      "ats": 2158,
      "ĠYes": 2159,
      "each": 2160,
      "Ġsucc": 2161,
      "Ġneither": 2162,
      "icer": 2163,
      "Ġblack": 2164,
      "Ġgoes": 2165,
      "Ġsons": 2166,
      "Ġexp": 2167,
      "Ġfoe": 2168,
      "ĠBefore": 2169,
      "Ġtrou": 2170,
      "dden": 2171,
      "Ġsoldiers": 2172,
      "Ġwounds": 2173,
      "ĠSpeak": 2174,
      "Ġbetween": 2175,
      "Ġquarrel": 2176,
      "Ġsatisf": 2177,
      "ĠRichmond": 2178,
      "NT": 2179,
      "chan": 2180,
      "ging": 2181,
      "gare": 2182,
      "ires": 2183,
      "ures": 2184,
      "Ġest": 2185,
      "hem": 2186,
      "Ġsigh": 2187,
      "Ġmal": 2188,
      "Ġbar": 2189,
      "Ġbaw": 2190,
      "Ġdro": 2191,
      "Ġdark": 2192,
      "Ġcase": 2193,
      "Ġthri": 2194,
      "aris": 2195,
      "Ġhot": 2196,
      "ĠAb": 2197,
      "ĠAr": 2198,
      "ots": 2199,
      "owers": 2200,
      "Ġoften": 2201,
      "Ġhaving": 2202,
      "ĠMust": 2203,
      "Ġund": 2204,
      "Ġspeech": 2205,
      "Ġvict": 2206,
      "Ġbless": 2207,
      "empt": 2208,
      "Ġthence": 2209,
      "Ġpresence": 2210,
      "TESBY": 2211,
      "Ġpriv": 2212,
      "Ġbride": 2213,
      "Ġbrief": 2214,
      "Ġservant": 2215,
      "ĠUnless": 2216,
      "ĠSuch": 2217,
      "Ġwater": 2218,
      "ĠBecause": 2219,
      "ĠCATESBY": 2220,
      "ĠWelcome": 2221,
      "garet": 2222,
      "ILI": 2223,
      "oint": 2224,
      "Ġmortal": 2225,
      "Ġbow": 2226,
      "Ġble": 2227,
      "ona": 2228,
      "Ġtown": 2229,
      "Ġpen": 2230,
      "Ġgot": 2231,
      "Ġinter": 2232,
      "irm": 2233,
      "ĠBoth": 2234,
      "ĠBapt": 2235,
      "ĠSaint": 2236,
      "Ġev": 2237,
      "ĠLond": 2238,
      "ĠTheir": 2239,
      "alth": 2240,
      "Ġsum": 2241,
      "ĠKeep": 2242,
      "ends": 2243,
      "emn": 2244,
      "Ġloved": 2245,
      "Ġkings": 2246,
      "cient": 2247,
      "Ġwars": 2248,
      "Ġflatter": 2249,
      "ĠMargaret": 2250,
      "ĠGREY": 2251,
      "Ġmighty": 2252,
      "Ġrespect": 2253,
      "Ġcompl": 2254,
      "Ġdread": 2255,
      "Ġseems": 2256,
      "Ġthrone": 2257,
      "Ġvoice": 2258,
      "Ġdeny": 2259,
      "Ġspoke": 2260,
      "ĠWhom": 2261,
      "ĠCoriolanus": 2262,
      "Ġvisit": 2263,
      "ĠBaptist": 2264,
      "ĠLondon": 2265,
      "CA": 2266,
      "IV": 2267,
      "bed": 2268,
      "eorge": 2269,
      "ip": 2270,
      "iant": 2271,
      "so": 2272,
      "ught": 2273,
      "Ġaction": 2274,
      "oun": 2275,
      "Ġbro": 2276,
      "Ġbab": 2277,
      "Ġfra": 2278,
      "ern": 2279,
      "Ġcol": 2280,
      "Ġcap": 2281,
      "Ġhur": 2282,
      "ĠBIAN": 2283,
      "ourn": 2284,
      "ĠLest": 2285,
      "ĠGeorge": 2286,
      "ided": 2287,
      "ĠParis": 2288,
      "ĠRIV": 2289,
      "ĠEre": 2290,
      "ĠDe": 2291,
      "Ġsudden": 2292,
      "Ġancient": 2293,
      "Ġknock": 2294,
      "Ġvow": 2295,
      "Ġprot": 2296,
      "Ġworship": 2297,
      "Ġsafe": 2298,
      "ired": 2299,
      "ĠIsab": 2300,
      "Ġprayers": 2301,
      "ainted": 2302,
      "Ġappear": 2303,
      "Ġprincely": 2304,
      "Ġchamber": 2305,
      "Ġbuy": 2306,
      "Ġdeeds": 2307,
      "Ġpromise": 2308,
      "Ġbitter": 2309,
      "Ġdishon": 2310,
      "ILIA": 2311,
      "ĠBaptista": 2312,
      "ĠBIANCA": 2313,
      "ĠRIVERS": 2314,
      "BOW": 2315,
      "ls": 2316,
      "lish": 2317,
      "now": 2318,
      "nown": 2319,
      "ura": 2320,
      "Ġign": 2321,
      "Ġfres": 2322,
      "Ġfetch": 2323,
      "Ġcreat": 2324,
      "Ġcross": 2325,
      "Ġcoward": 2326,
      "Ġlim": 2327,
      "esh": 2328,
      "essed": 2329,
      "Ġopp": 2330,
      "Ġpu": 2331,
      "otion": 2332,
      "stand": 2333,
      "ated": 2334,
      "right": 2335,
      "ĠGAU": 2336,
      "Ġreb": 2337,
      "urch": 2338,
      "ĠRoman": 2339,
      "cks": 2340,
      "Ġang": 2341,
      "Ġviol": 2342,
      "antage": 2343,
      "oney": 2344,
      "Ġkingdom": 2345,
      "Ġsac": 2346,
      "Ġflesh": 2347,
      "Ġrage": 2348,
      "Ġprepare": 2349,
      "Ġheads": 2350,
      "Ġscorn": 2351,
      "Ġappro": 2352,
      "Ġlead": 2353,
      "ĠStand": 2354,
      "Ġwitness": 2355,
      "Ġtriump": 2356,
      "Ġpresently": 2357,
      "Ġpatient": 2358,
      "Ġlament": 2359,
      "Ġvaliant": 2360,
      "ĠELBOW": 2361,
      "Ġsuccess": 2362,
      "Ġbawd": 2363,
      "ĠGAUNT": 2364,
      "GUE": 2365,
      "UR": 2366,
      "bit": 2367,
      "ler": 2368,
      "mand": 2369,
      "sper": 2370,
      "to": 2371,
      "xford": 2372,
      "Ġ3": 2373,
      "Ġcle": 2374,
      "Ġlack": 2375,
      "Ġlab": 2376,
      "Ġthrow": 2377,
      "Ġow": 2378,
      "Ġpit": 2379,
      "ĠTY": 2380,
      "Ġgall": 2381,
      "Ġins": 2382,
      "ĠBl": 2383,
      "ĠHort": 2384,
      "ĠMON": 2385,
      "ĠMerc": 2386,
      "Ġforward": 2387,
      "Ġeat": 2388,
      "ĠOxford": 2389,
      "Ġkins": 2390,
      "urs": 2391,
      "iff": 2392,
      "ĠThink": 2393,
      "antag": 2394,
      "Ġprin": 2395,
      "Ġprithee": 2396,
      "Ġwash": 2397,
      "Ġunw": 2398,
      "aken": 2399,
      "Ġoffer": 2400,
      "Ġleast": 2401,
      "Ġslave": 2402,
      "Ġscar": 2403,
      "Ġmoon": 2404,
      "ensio": 2405,
      "Ġfaults": 2406,
      "Ġsecret": 2407,
      "Ġdefend": 2408,
      "TAGUE": 2409,
      "Ġtribunes": 2410,
      "Ġdrink": 2411,
      "ĠChrist": 2412,
      "ĠHortensio": 2413,
      "ĠMONTAGUE": 2414,
      "ac": 2415,
      "aul": 2416,
      "ees": 2417,
      "king": 2418,
      "po": 2419,
      "ued": 2420,
      "vest": 2421,
      "ying": 2422,
      "Ġid": 2423,
      "Ġsur": 2424,
      "Ġmid": 2425,
      "ines": 2426,
      "Ġben": 2427,
      "Ġfie": 2428,
      "Ġdest": 2429,
      "Ġnay": 2430,
      "Ġthither": 2431,
      "Ġhide": 2432,
      "Ġocc": 2433,
      "athar": 2434,
      "Ġbeast": 2435,
      "ĠWhi": 2436,
      "ley": 2437,
      "ĠHark": 2438,
      "ĠCon": 2439,
      "ĠGre": 2440,
      "als": 2441,
      "ĠDoth": 2442,
      "ĠKathar": 2443,
      "thumber": 2444,
      "host": 2445,
      "asters": 2446,
      "feit": 2447,
      "aked": 2448,
      "pey": 2449,
      "ĠJo": 2450,
      "Ġalmost": 2451,
      "Ġslaughter": 2452,
      "ully": 2453,
      "ĠNorthumber": 2454,
      "Ġsmall": 2455,
      "Ġchance": 2456,
      "Ġdepart": 2457,
      "Ġsubjects": 2458,
      "Ġpossess": 2459,
      "Ġexecution": 2460,
      "Ġdamn": 2461,
      "ĠBohem": 2462,
      "Ġpretty": 2463,
      "ĠPompey": 2464,
      "ĠKatharina": 2465,
      "ĠNorthumberland": 2466,
      "GILIA": 2467,
      "ITA": 2468,
      "RGILIA": 2469,
      "hind": 2470,
      "Ġut": 2471,
      "Ġtear": 2472,
      "Ġwert": 2473,
      "Ġbase": 2474,
      "Ġbirth": 2475,
      "Ġfill": 2476,
      "Ġfond": 2477,
      "Ġcertain": 2478,
      "arl": 2479,
      "Ġpain": 2480,
      "ĠAd": 2481,
      "ĠAm": 2482,
      "inger": 2483,
      "Ġinno": 2484,
      "ĠBr": 2485,
      "ĠHold": 2486,
      "Ġform": 2487,
      "ĠCa": 2488,
      "Ġeas": 2489,
      "Ġstru": 2490,
      "Ġliving": 2491,
      "ĠPeace": 2492,
      "ĠPERD": 2493,
      "ĠPaul": 2494,
      "ĠEx": 2495,
      "rum": 2496,
      "Ġfavour": 2497,
      "Ġgoodly": 2498,
      "Ġusurp": 2499,
      "cience": 2500,
      "Ġproceed": 2501,
      "Ġhadst": 2502,
      "umb": 2503,
      "Ġwhence": 2504,
      "Ġtrump": 2505,
      "Ġoffence": 2506,
      "Ġhearing": 2507,
      "Ġperform": 2508,
      "perate": 2509,
      "ledge": 2510,
      "ĠVIRGILIA": 2511,
      "Ġglad": 2512,
      "Ġvirtuous": 2513,
      "Ġawhile": 2514,
      "Ġquickly": 2515,
      "then": 2516,
      "ĠSweet": 2517,
      "ural": 2518,
      "ĠBohemia": 2519,
      "ĠPERDITA": 2520,
      "LY": 2521,
      "ding": 2522,
      "dge": 2523,
      "eem": 2524,
      "iest": 2525,
      "over": 2526,
      "ror": 2527,
      "ze": 2528,
      "Ġtor": 2529,
      "Ġay": 2530,
      "Ġshi": 2531,
      "Ġmatch": 2532,
      "Ġmild": 2533,
      "Ġwalk": 2534,
      "Ġwild": 2535,
      "isure": 2536,
      "orth": 2537,
      "Ġfier": 2538,
      "ities": 2539,
      "Ġca": 2540,
      "omes": 2541,
      "Ġinj": 2542,
      "eds": 2543,
      "edant": 2544,
      "ĠSLY": 2545,
      "Ġforsw": 2546,
      "Ġur": 2547,
      "raw": 2548,
      "ĠYea": 2549,
      "Ġshad": 2550,
      "Ġknee": 2551,
      "Ġkneel": 2552,
      "astard": 2553,
      "Ġblows": 2554,
      "Ġworst": 2555,
      "Ġquiet": 2556,
      "ĠOff": 2557,
      "ustom": 2558,
      "Ġgreater": 2559,
      "Ġaffection": 2560,
      "Ġpleas": 2561,
      "ĠMARIAN": 2562,
      "Ġleisure": 2563,
      "ĠStay": 2564,
      "Ġslew": 2565,
      "force": 2566,
      "Ġtreason": 2567,
      "Ġlawful": 2568,
      "Ġchurch": 2569,
      "Ġweeping": 2570,
      "Ġsoldier": 2571,
      "Ġdeserved": 2572,
      "Ġguilty": 2573,
      "ĠIsabel": 2574,
      "Ġangry": 2575,
      "ĠMARIANA": 2576,
      "awn": 2577,
      "fully": 2578,
      "gg": 2579,
      "gue": 2580,
      "joy": 2581,
      "ked": 2582,
      "med": 2583,
      "ual": 2584,
      "vol": 2585,
      "zen": 2586,
      "Ġap": 2587,
      "Ġsho": 2588,
      "Ġmed": 2589,
      "Ġmod": 2590,
      "Ġwon": 2591,
      "read": 2592,
      "Ġfam": 2593,
      "Ġfled": 2594,
      "ony": 2595,
      "Ġcitizen": 2596,
      "Ġlist": 2597,
      "Ġyear": 2598,
      "eness": 2599,
      "arn": 2600,
      "aring": 2601,
      "ĠTw": 2602,
      "Ġbehind": 2603,
      "ĠWatch": 2604,
      "ĠWhile": 2605,
      "Ġhap": 2606,
      "ĠBel": 2607,
      "Ġmeasure": 2608,
      "ĠST": 2609,
      "ĠMen": 2610,
      "ĠMist": 2611,
      "Ġem": 2612,
      "adua": 2613,
      "ĠOut": 2614,
      "ĠGrem": 2615,
      "ĠGrum": 2616,
      "Ġreign": 2617,
      "ĠPAR": 2618,
      "ĠPadua": 2619,
      "Ġsole": 2620,
      "Ġdoom": 2621,
      "Ġnob": 2622,
      "ames": 2623,
      "rupt": 2624,
      "Ġourselves": 2625,
      "Ġneck": 2626,
      "Ġshows": 2627,
      "ended": 2628,
      "Ġshepherd": 2629,
      "Ġblow": 2630,
      "Ġgovern": 2631,
      "Ġwouldst": 2632,
      "Ġletter": 2633,
      "Ġletters": 2634,
      "Ġunc": 2635,
      "Ġunk": 2636,
      "Ġspeaks": 2637,
      "Ġmarch": 2638,
      "ighb": 2639,
      "Ġcontin": 2640,
      "osition": 2641,
      "Ġneeds": 2642,
      "ĠEnglish": 2643,
      "Ġsentence": 2644,
      "Ġprisoner": 2645,
      "Ġbanishment": 2646,
      "Ġsecond": 2647,
      "Ġsense": 2648,
      "Ġcondemn": 2649,
      "ĠPlantag": 2650,
      "Ġbecause": 2651,
      "Ġclouds": 2652,
      "Ġbreathe": 2653,
      "Ġforbid": 2654,
      "Ġliberty": 2655,
      "Ġencoun": 2656,
      "Ġladies": 2657,
      "Ġtrouble": 2658,
      "Ġdishonour": 2659,
      "Ġignor": 2660,
      "ĠGremio": 2661,
      "ĠGrumio": 2662,
      "ĠPARIS": 2663,
      "ĠPlantagen": 2664,
      ":'": 2665,
      "aves": 2666,
      "acle": 2667,
      "dle": 2668,
      "oor": 2669,
      "oss": 2670,
      "rous": 2671,
      "ĠX": 2672,
      "Ġsort": 2673,
      "Ġmut": 2674,
      "Ġmorrow": 2675,
      "ndred": 2676,
      "Ġbig": 2677,
      "Ġbones": 2678,
      "Ġfive": 2679,
      "ĠInt": 2680,
      "Ġdry": 2681,
      "Ġcru": 2682,
      "Ġlan": 2683,
      "Ġlaid": 2684,
      "Ġpet": 2685,
      "ĠToo": 2686,
      "ĠTru": 2687,
      "ĠAnt": 2688,
      "Ġheld": 2689,
      "vel": 2690,
      "ster": 2691,
      "ingly": 2692,
      "Ġoft": 2693,
      "ators": 2694,
      "Ġnote": 2695,
      "ĠHea": 2696,
      "Ġstor": 2697,
      "Ġsteal": 2698,
      "ĠFear": 2699,
      "ĠGaunt": 2700,
      "Ġref": 2701,
      "ider": 2702,
      "Ġlived": 2703,
      "Ġaside": 2704,
      "Ġdog": 2705,
      "Ġnoise": 2706,
      "Ġseat": 2707,
      "iles": 2708,
      "Ġvain": 2709,
      "Ġgrand": 2710,
      "Ġproclaim": 2711,
      "Ġprosper": 2712,
      "Ġrough": 2713,
      "Ġabove": 2714,
      "ize": 2715,
      "ĠPETER": 2716,
      "Ġappare": 2717,
      "Ġremain": 2718,
      "Ġlonger": 2719,
      "Ġwomb": 2720,
      "Ġconscience": 2721,
      "ĠSirrah": 2722,
      "Ġchoose": 2723,
      "Ġobey": 2724,
      "Ġtemp": 2725,
      "Ġdrunk": 2726,
      "Ġgolden": 2727,
      "Ġdispatch": 2728,
      "Ġjoin": 2729,
      "Ġhundred": 2730,
      "Ġpiece": 2731,
      "Ġvictory": 2732,
      "ointed": 2733,
      "Ġfresh": 2734,
      "ĠPlantagenet": 2735,
      "!--": 2736,
      "TIUS": 2737,
      "WIS": 2738,
      "aith": 2739,
      "bb": 2740,
      "ban": 2741,
      "ffect": 2742,
      "hn": 2743,
      "iled": 2744,
      "ny": 2745,
      "rim": 2746,
      "ts": 2747,
      "ulet": 2748,
      "Ġtent": 2749,
      "Ġsch": 2750,
      "Ġsus": 2751,
      "Ġsaint": 2752,
      "inius": 2753,
      "Ġbroke": 2754,
      "Ġfat": 2755,
      "Ġfine": 2756,
      "erle": 2757,
      "Ġdrown": 2758,
      "Ġlen": 2759,
      "Ġlow": 2760,
      "Ġlau": 2761,
      "Ġlust": 2762,
      "Ġthreat": 2763,
      "ĠARI": 2764,
      "vey": 2765,
      "Ġbend": 2766,
      "set": 2767,
      "Ġind": 2768,
      "ceit": 2769,
      "lease": 2770,
      "ety": 2771,
      "ĠSc": 2772,
      "ĠHear": 2773,
      "ĠMe": 2774,
      "ĠCould": 2775,
      "ĠCates": 2776,
      "Ġeffect": 2777,
      "Ġyourselves": 2778,
      "Ġsto": 2779,
      "Ġstood": 2780,
      "Ġstain": 2781,
      "Ġsteel": 2782,
      "ĠLAR": 2783,
      "Ġrevere": 2784,
      "asion": 2785,
      "ĠPer": 2786,
      "Ġdoing": 2787,
      "ĠEn": 2788,
      "ĠEarl": 2789,
      "ĠDOR": 2790,
      "Ġknees": 2791,
      "ular": 2792,
      "Ġconqu": 2793,
      "icious": 2794,
      "ieu": 2795,
      "Ġshed": 2796,
      "Ġblessed": 2797,
      "Ġknowledge": 2798,
      "Ġswift": 2799,
      "ounds": 2800,
      "Ġsaf": 2801,
      "ume": 2802,
      "Ġexc": 2803,
      "Ġdesperate": 2804,
      "Ġwarm": 2805,
      "Ġslander": 2806,
      "Ġprecious": 2807,
      "Ġbears": 2808,
      "ĠLEWIS": 2809,
      "Ġentertain": 2810,
      "Ġpride": 2811,
      "Ġpurs": 2812,
      "uthor": 2813,
      "Ġglory": 2814,
      "Ġdouble": 2815,
      "Ġwoes": 2816,
      "posed": 2817,
      "Ġlands": 2818,
      "Ġobed": 2819,
      "Ġcounter": 2820,
      "Ġtowards": 2821,
      "Ġdespair": 2822,
      "ĠCapulet": 2823,
      "ĠUnto": 2824,
      "Ġforgot": 2825,
      "Ġwisdom": 2826,
      "Ġvenge": 2827,
      "Ġlabour": 2828,
      "Ġkinsman": 2829,
      "Ġcitizens": 2830,
      "ĠWatchman": 2831,
      "Ġencounter": 2832,
      "ĠXI": 2833,
      "ĠARIEL": 2834,
      "ĠCatesby": 2835,
      "ĠLARTIUS": 2836,
      ";'": 2837,
      "PSON": 2838,
      "bray": 2839,
      "gment": 2840,
      "iance": 2841,
      "ude": 2842,
      "uff": 2843,
      "vail": 2844,
      "Ġauthor": 2845,
      "Ġsour": 2846,
      "Ġmount": 2847,
      "Ġmethinks": 2848,
      "Ġmoney": 2849,
      "Ġmasters": 2850,
      "rent": 2851,
      "rence": 2852,
      "Ġbastard": 2853,
      "Ġfe": 2854,
      "Ġfru": 2855,
      "Ġfought": 2856,
      "Ġfew": 2857,
      "itors": 2858,
      "Ġdance": 2859,
      "Ġdied": 2860,
      "Ġdeter": 2861,
      "Ġcorn": 2862,
      "Ġcapt": 2863,
      "Ġpun": 2864,
      "ĠAum": 2865,
      "Ġhealth": 2866,
      "owbray": 2867,
      "ang": 2868,
      "Ġhair": 2869,
      "irl": 2870,
      "ĠSAM": 2871,
      "ĠMowbray": 2872,
      "ĠCons": 2873,
      "ĠCUR": 2874,
      "Ġeld": 2875,
      "Ġstud": 2876,
      "ĠFri": 2877,
      "ĠPedant": 2878,
      "estion": 2879,
      "ease": 2880,
      "ĠDis": 2881,
      "Ġseal": 2882,
      "Ġsever": 2883,
      "iful": 2884,
      "ility": 2885,
      "cted": 2886,
      "Ġmanner": 2887,
      "ĠVer": 2888,
      "Ġconst": 2889,
      "Ġuns": 2890,
      "Ġquoth": 2891,
      "Ġplant": 2892,
      "Ġenjoy": 2893,
      "ĠWithin": 2894,
      "Ġran": 2895,
      "Ġalive": 2896,
      "Ġabro": 2897,
      "Ġfoll": 2898,
      "Ġhonours": 2899,
      "Ġflowers": 2900,
      "ations": 2901,
      "Ġdeadly": 2902,
      "Ġcontr": 2903,
      "Ġwhite": 2904,
      "Ġkept": 2905,
      "Ġremed": 2906,
      "Ġarmy": 2907,
      "Ġlordship": 2908,
      "ontent": 2909,
      "TIS": 2910,
      "Ġguest": 2911,
      "Ġguess": 2912,
      "Ġunderstand": 2913,
      "Ġpromised": 2914,
      "Ġwretched": 2915,
      "Ġbeggar": 2916,
      "Ġcheeks": 2917,
      "ĠKeeper": 2918,
      "ĠJohn": 2919,
      "Ġstruck": 2920,
      "Ġdeterm": 2921,
      "ĠAumerle": 2922,
      "ĠSAMPSON": 2923,
      "ĠCURTIS": 2924,
      "'re": 2925,
      ":--": 2926,
      "AT": 2927,
      "BU": 2928,
      "GON": 2929,
      "LEY": 2930,
      "bury": 2931,
      "den": 2932,
      "ne": 2933,
      "Ġtry": 2934,
      "Ġteach": 2935,
      "head": 2936,
      "Ġaid": 2937,
      "ounce": 2938,
      "Ġsim": 2939,
      "reed": 2940,
      "orious": 2941,
      "ited": 2942,
      "Ġcred": 2943,
      "Ġcried": 2944,
      "Ġpal": 2945,
      "Ġgent": 2946,
      "utio": 2947,
      "ĠMine": 2948,
      "Ġstars": 2949,
      "ĠLew": 2950,
      "ĠFl": 2951,
      "Ġliest": 2952,
      "ash": 2953,
      "ĠPut": 2954,
      "ĠPardon": 2955,
      "ĠPoor": 2956,
      "Ġdeg": 2957,
      "Ġdemand": 2958,
      "ĠNe": 2959,
      "Ġshake": 2960,
      "ament": 2961,
      "ĠEX": 2962,
      "ĠEither": 2963,
      "Ġseven": 2964,
      "Ġherself": 2965,
      "Ġspent": 2966,
      "Ġneighb": 2967,
      "Ġwhether": 2968,
      "Ġamong": 2969,
      "ief": 2970,
      "Ġgoing": 2971,
      "ppy": 2972,
      "Ġprov": 2973,
      "osed": 2974,
      "Ġtruly": 2975,
      "Ġrot": 2976,
      "Ġofficer": 2977,
      "Ġbrothers": 2978,
      "Ġearly": 2979,
      "ways": 2980,
      "Ġhonourable": 2981,
      "ĠANTI": 2982,
      "Ġcalls": 2983,
      "Ġmoved": 2984,
      "Ġaccount": 2985,
      "ĠCitizens": 2986,
      "Ġkindred": 2987,
      "Ġpriest": 2988,
      "Ġguard": 2989,
      "Ġcharity": 2990,
      "Ġfoolish": 2991,
      "Ġhumble": 2992,
      "Ġdreams": 2993,
      "Ġgreet": 2994,
      "Ġvalour": 2995,
      "Ġjudge": 2996,
      "Ġwretch": 2997,
      "Ġextrem": 2998,
      "Ġsummer": 2999,
      "Ġtriumph": 3000,
      "ĠMercutio": 3001,
      "Ġscarce": 3002,
      "Ġcruel": 3003,
      "ĠHeaven": 3004,
      "BURY": 3005,
      "GONUS": 3006,
      "ĠLewis": 3007,
      "ĠANTIGONUS": 3008,
      "BR": 3009,
      "CLIFF": 3010,
      "house": 3011,
      "lp": 3012,
      "mble": 3013,
      "pir": 3014,
      "under": 3015,
      "Ġwail": 3016,
      "ining": 3017,
      "Ġba": 3018,
      "Ġfart": 3019,
      "Ġfaint": 3020,
      "ites": 3021,
      "Ġdin": 3022,
      "Ġdwell": 3023,
      "Ġcir": 3024,
      "Ġcustom": 3025,
      "Ġyea": 3026,
      "Ġthro": 3027,
      "Ġpack": 3028,
      "Ġga": 3029,
      "Ġbeha": 3030,
      "leep": 3031,
      "ĠBet": 3032,
      "ĠBid": 3033,
      "ĠHarry": 3034,
      "ĠMade": 3035,
      "ĠMusic": 3036,
      "Ġforce": 3037,
      "Ġweary": 3038,
      "Ġease": 3039,
      "ĠOnce": 3040,
      "Ġstone": 3041,
      "ĠFaith": 3042,
      "ask": 3043,
      "ĠRAT": 3044,
      "roy": 3045,
      "ĠNever": 3046,
      "Ġbutcher": 3047,
      "ify": 3048,
      "Ġanon": 3049,
      "Ġfaire": 3050,
      "Ġours": 3051,
      "though": 3052,
      "Ġvie": 3053,
      "arted": 3054,
      "Ġblame": 3055,
      "Ġthereof": 3056,
      "Ġunf": 3057,
      "Ġprovost": 3058,
      "Ġdism": 3059,
      "Ġenvy": 3060,
      "Ġrise": 3061,
      "Ġthinks": 3062,
      "Ġwherefore": 3063,
      "Ġrid": 3064,
      "ĠMars": 3065,
      "Ġparty": 3066,
      "Ġadd": 3067,
      "Ġothers": 3068,
      "Ġimag": 3069,
      "ians": 3070,
      "Ġtrial": 3071,
      "Ġkindness": 3072,
      "Ġchast": 3073,
      "Ġsubst": 3074,
      "Ġbids": 3075,
      "Ġfellows": 3076,
      "Ġbright": 3077,
      "Ġglass": 3078,
      "Ġmiser": 3079,
      "ĠAlack": 3080,
      "Ġcrave": 3081,
      "ĠCominius": 3082,
      "Ġwinter": 3083,
      "Ġcondition": 3084,
      "Ġmonth": 3085,
      "Ġhung": 3086,
      "Ġminister": 3087,
      "ĠVolsces": 3088,
      "Twas": 3089,
      "Ġwalls": 3090,
      "Ġsatisfied": 3091,
      "Ġmalice": 3092,
      "Ġprivate": 3093,
      "Ġidle": 3094,
      "Ġbenef": 3095,
      "orthy": 3096,
      "Ġlaugh": 3097,
      "Ġvengeance": 3098,
      "Ġabroad": 3099,
      "BRA": 3100,
      "ĠRATCLIFF": 3101,
      "Ġview": 3102,
      "BAL": 3103,
      "HOP": 3104,
      "ners": 3105,
      "ope": 3106,
      "vious": 3107,
      "with": 3108,
      "Ġver": 3109,
      "Ġwre": 3110,
      "Ġwag": 3111,
      "Ġwench": 3112,
      "incentio": 3113,
      "rees": 3114,
      "Ġbite": 3115,
      "orous": 3116,
      "Ġfirm": 3117,
      "Ġdull": 3118,
      "Ġcorse": 3119,
      "Ġlest": 3120,
      "enes": 3121,
      "Ġhol": 3122,
      "ĠAfter": 3123,
      "vell": 3124,
      "omas": 3125,
      "Ġgown": 3126,
      "ating": 3127,
      "Ġbef": 3128,
      "Ġincl": 3129,
      "cell": 3130,
      "utland": 3131,
      "ĠBarn": 3132,
      "Ġmeat": 3133,
      "ĠHence": 3134,
      "ĠMant": 3135,
      "ĠMethinks": 3136,
      "Ġformer": 3137,
      "ĠFie": 3138,
      "Ġrel": 3139,
      "Ġreceived": 3140,
      "ident": 3141,
      "ĠPeter": 3142,
      "ĠPlease": 3143,
      "Ġdeal": 3144,
      "ĠRutland": 3145,
      "amp": 3146,
      "ĠDes": 3147,
      "ĠThomas": 3148,
      "Ġsport": 3149,
      "Ġvice": 3150,
      "Ġvile": 3151,
      "Ġshore": 3152,
      "Ġshrew": 3153,
      "ĠVincentio": 3154,
      "Ġconcl": 3155,
      "Ġconvey": 3156,
      "Ġblind": 3157,
      "Ġgod": 3158,
      "ANLEY": 3159,
      "allow": 3160,
      "Ġarri": 3161,
      "Ġunb": 3162,
      "Ġunl": 3163,
      "Ġunp": 3164,
      "Ġmayst": 3165,
      "Ġquite": 3166,
      "Ġquestion": 3167,
      "eless": 3168,
      "icked": 3169,
      "Ġhonesty": 3170,
      "Ġfoes": 3171,
      "Ġroot": 3172,
      "ĠLords": 3173,
      "ĠUnder": 3174,
      "Ġflower": 3175,
      "Ġafford": 3176,
      "lock": 3177,
      "Ġtongues": 3178,
      "Ġcounten": 3179,
      "Ġsmo": 3180,
      "ailor": 3181,
      "Ġcover": 3182,
      "Ġchanged": 3183,
      "rench": 3184,
      "ĠShow": 3185,
      "Ġhumour": 3186,
      "Ġswords": 3187,
      "Ġboot": 3188,
      "ISHOP": 3189,
      "Ġdeputy": 3190,
      "ĠCorioli": 3191,
      "Ġjudgment": 3192,
      "scal": 3193,
      "Ġtyrant": 3194,
      "Ġacqu": 3195,
      "Ġprophe": 3196,
      "Ġevil": 3197,
      "ĠTYBAL": 3198,
      "ĠWhilst": 3199,
      "Ġeasy": 3200,
      "ĠPaulina": 3201,
      "ĠSTANLEY": 3202,
      "ĠTrue": 3203,
      "Ġschool": 3204,
      "Ġexcuse": 3205,
      "Ġfruit": 3206,
      "ĠMantua": 3207,
      "ĠTYBALT": 3208,
      "'?": 3209,
      "AK": 3210,
      "HOM": 3211,
      "acher": 3212,
      "ek": 3213,
      "ead": 3214,
      "ered": 3215,
      "mon": 3216,
      "roth": 3217,
      "rate": 3218,
      "rison": 3219,
      "she": 3220,
      "und": 3221,
      "vish": 3222,
      "woman": 3223,
      "Ġtaken": 3224,
      "Ġwither": 3225,
      "Ġwicked": 3226,
      "Ġbrow": 3227,
      "Ġbrows": 3228,
      "Ġfain": 3229,
      "Ġfeed": 3230,
      "Ġfinger": 3231,
      "ĠInd": 3232,
      "llo": 3233,
      "Ġdust": 3234,
      "Ġcure": 3235,
      "Ġthunder": 3236,
      "Ġpains": 3237,
      "ĠTut": 3238,
      "ĠTHOM": 3239,
      "anley": 3240,
      "omer": 3241,
      "Ġgrown": 3242,
      "Ġgross": 3243,
      "Ġgift": 3244,
      "Ġghost": 3245,
      "Ġgirl": 3246,
      "att": 3247,
      "ĠWilt": 3248,
      "ĠSic": 3249,
      "Ġstab": 3250,
      "Ġstop": 3251,
      "Ġstoop": 3252,
      "ĠLo": 3253,
      "ĠLove": 3254,
      "ENBURY": 3255,
      "idings": 3256,
      "ract": 3257,
      "Ġdoor": 3258,
      "Ġnose": 3259,
      "ĠDost": 3260,
      "arden": 3261,
      "Ġspe": 3262,
      "Ġspake": 3263,
      "Ġspring": 3264,
      "ilia": 3265,
      "Ġnecess": 3266,
      "Ġknave": 3267,
      "Ġproof": 3268,
      "Ġsheep": 3269,
      "Ġblest": 3270,
      "ement": 3271,
      "Ġsirrah": 3272,
      "Ġtherein": 3273,
      "AND": 3274,
      "cians": 3275,
      "ĠJove": 3276,
      "Ġdisg": 3277,
      "Ġalways": 3278,
      "ursed": 3279,
      "Ġleaves": 3280,
      "Ġtwice": 3281,
      "aper": 3282,
      "Ġprevent": 3283,
      "Ġprevail": 3284,
      "Ġperceive": 3285,
      "Ġrepent": 3286,
      "ĠStanley": 3287,
      "ĠBRAK": 3288,
      "Ġtraitors": 3289,
      "twixt": 3290,
      "Ġimport": 3291,
      "Ġundert": 3292,
      "Ġwrongs": 3293,
      "Ġburied": 3294,
      "ealous": 3295,
      "Ġreasons": 3296,
      "Ġsenate": 3297,
      "Ġgreen": 3298,
      "Ġchoice": 3299,
      "azed": 3300,
      "Ġsilence": 3301,
      "Ġjoint": 3302,
      "Ġdivine": 3303,
      "ĠPrince": 3304,
      "Ġwhilst": 3305,
      "Ġaffair": 3306,
      "Ġtyran": 3307,
      "ĠBesides": 3308,
      "Ġembrace": 3309,
      "ĠArt": 3310,
      "ĠDeath": 3311,
      "Ġcreature": 3312,
      "Ġsacred": 3313,
      "Ġoccasion": 3314,
      "Ġinnocent": 3315,
      "ĠBrother": 3316,
      "ĠCaius": 3317,
      "Ġfiery": 3318,
      "ĠMistress": 3319,
      "Ġleng": 3320,
      "Ġsafety": 3321,
      "ĠFriar": 3322,
      "ĠVerona": 3323,
      "Ġremedy": 3324,
      "Ġcirc": 3325,
      "ĠTHOMAS": 3326,
      "ĠBRAKENBURY": 3327,
      "?'": 3328,
      "GOR": 3329,
      "RESS": 3330,
      "VERD": 3331,
      "ault": 3332,
      "eld": 3333,
      "jo": 3334,
      "loy": 3335,
      "mn": 3336,
      "nat": 3337,
      "oly": 3338,
      "oard": 3339,
      "pin": 3340,
      "sp": 3341,
      "shi": 3342,
      "sic": 3343,
      "Ġes": 3344,
      "Ġed": 3345,
      "Ġtast": 3346,
      "Ġavo": 3347,
      "Ġship": 3348,
      "Ġsits": 3349,
      "Ġwent": 3350,
      "Ġwings": 3351,
      "inous": 3352,
      "Ġbark": 3353,
      "orry": 3354,
      "Ġfury": 3355,
      "itol": 3356,
      "itted": 3357,
      "Ġdri": 3358,
      "Ġcre": 3359,
      "Ġlar": 3360,
      "enius": 3361,
      "ĠTurn": 3362,
      "ĠAE": 3363,
      "ĠApo": 3364,
      "anch": 3365,
      "omp": 3366,
      "Ġgarden": 3367,
      "Ġbelly": 3368,
      "Ġinform": 3369,
      "edious": 3370,
      "ĠSomer": 3371,
      "Ġused": 3372,
      "Ġweeds": 3373,
      "Ġele": 3374,
      "Ġeag": 3375,
      "Ġemp": 3376,
      "ĠOVERD": 3377,
      "Ġstones": 3378,
      "Ġrenown": 3379,
      "Ġdec": 3380,
      "Ġdeceived": 3381,
      "Ġshar": 3382,
      "ĠDER": 3383,
      "Ġallow": 3384,
      "Ġanger": 3385,
      "Ġloath": 3386,
      "Ġloyal": 3387,
      "ardine": 3388,
      "hant": 3389,
      "Ġfares": 3390,
      "Ġknight": 3391,
      "ctise": 3392,
      "Ġshr": 3393,
      "Ġshri": 3394,
      "othing": 3395,
      "Ġoracle": 3396,
      "ĠMyself": 3397,
      "Ġmayor": 3398,
      "hysic": 3399,
      "elve": 3400,
      "Ġhollow": 3401,
      "Ġsail": 3402,
      "Ġplot": 3403,
      "Ġplague": 3404,
      "ONE": 3405,
      "Ġfright": 3406,
      "unning": 3407,
      "ĠWithout": 3408,
      "Ġround": 3409,
      "Ġrob": 3410,
      "Ġrock": 3411,
      "Ġwherein": 3412,
      "Ġdesign": 3413,
      "ĠWherein": 3414,
      "aughters": 3415,
      "STRESS": 3416,
      "Ġadieu": 3417,
      "Ġcommend": 3418,
      "Ġprayer": 3419,
      "Ġclaim": 3420,
      "Ġplead": 3421,
      "Ġtroth": 3422,
      "aced": 3423,
      "Ġrude": 3424,
      "Ġsmile": 3425,
      "Ġtreacher": 3426,
      "Ġimprison": 3427,
      "Ġcares": 3428,
      "ĠGREGOR": 3429,
      "Ġmaids": 3430,
      "Ġdrawn": 3431,
      "Ġwanton": 3432,
      "Ġassist": 3433,
      "unts": 3434,
      "Ġtempt": 3435,
      "Ġcondu": 3436,
      "Ġdeserve": 3437,
      "ĠMISTRESS": 3438,
      "ĠHaving": 3439,
      "Ġprofess": 3440,
      "Ġdelight": 3441,
      "Ġdespite": 3442,
      "ĠPrithee": 3443,
      "ĠCapitol": 3444,
      "Ġpractise": 3445,
      "Ġcheek": 3446,
      "Ġabsence": 3447,
      "Ġdrop": 3448,
      "Ġbroken": 3449,
      "Ġviolent": 3450,
      "Ġutter": 3451,
      "Ġtrumpets": 3452,
      "ĠMenenius": 3453,
      "Ġempt": 3454,
      "Ġignorant": 3455,
      "Ġlangu": 3456,
      "Ġrotten": 3457,
      "ĠBarnardine": 3458,
      "Ġcountenance": 3459,
      "ĠIndeed": 3460,
      "ĠSomerset": 3461,
      "ĠOVERDONE": 3462,
      "ĠDERBY": 3463,
      "ĠGREGORY": 3464,
      "FORD": 3465,
      "MON": 3466,
      "XFORD": 3467,
      "act": 3468,
      "cha": 3469,
      "draw": 3470,
      "eous": 3471,
      "mion": 3472,
      "pet": 3473,
      "Ġtune": 3474,
      "Ġtidings": 3475,
      "Ġtedious": 3476,
      "held": 3477,
      "Ġaim": 3478,
      "Ġaught": 3479,
      "Ġsix": 3480,
      "Ġsens": 3481,
      "Ġmotion": 3482,
      "Ġwont": 3483,
      "Ġwives": 3484,
      "rehe": 3485,
      "haps": 3486,
      "Ġball": 3487,
      "isa": 3488,
      "ises": 3489,
      "onounce": 3490,
      "Ġdet": 3491,
      "Ġdur": 3492,
      "Ġdue": 3493,
      "Ġcell": 3494,
      "Ġcries": 3495,
      "Ġnine": 3496,
      "Ġnumber": 3497,
      "Ġnames": 3498,
      "Ġloud": 3499,
      "esy": 3500,
      "Ġthrust": 3501,
      "Ġhit": 3502,
      "Ġhid": 3503,
      "Ġpin": 3504,
      "Ġpil": 3505,
      "Ġpair": 3506,
      "Ġpawn": 3507,
      "othe": 3508,
      "Ġgain": 3509,
      "semb": 3510,
      "Ġinfect": 3511,
      "cend": 3512,
      "utes": 3513,
      "iment": 3514,
      "ĠSha": 3515,
      "ĠSOM": 3516,
      "ĠCousin": 3517,
      "rious": 3518,
      "ĠOXFORD": 3519,
      "Ġstar": 3520,
      "Ġstat": 3521,
      "Ġsteed": 3522,
      "Ġstock": 3523,
      "Ġstuff": 3524,
      "ĠLea": 3525,
      "ĠGreat": 3526,
      "Ġreceive": 3527,
      "rand": 3528,
      "ashi": 3529,
      "ĠPre": 3530,
      "ĠPol": 3531,
      "ĠPisa": 3532,
      "Ġasleep": 3533,
      "Ġdew": 3534,
      "Ġdeare": 3535,
      "Ġdeposed": 3536,
      "Ġones": 3537,
      "ĠRes": 3538,
      "ĠThree": 3539,
      "ĠThurs": 3540,
      "ĠKnow": 3541,
      "ards": 3542,
      "Ġvantage": 3543,
      "ERIA": 3544,
      "ĠVAL": 3545,
      "Ġamb": 3546,
      "ongs": 3547,
      "Ġjealous": 3548,
      "Ġshouldst": 3549,
      "Ġproper": 3550,
      "Ġenvious": 3551,
      "Ġoutward": 3552,
      "ĠRICHMON": 3553,
      "Ġwhole": 3554,
      "Ġoffend": 3555,
      "Ġalas": 3556,
      "Ġheav": 3557,
      "Ġexcell": 3558,
      "Ġearn": 3559,
      "eeth": 3560,
      "ĠMark": 3561,
      "Ġmeaning": 3562,
      "Ġchief": 3563,
      "Ġbegins": 3564,
      "Ġruin": 3565,
      "ission": 3566,
      "Ġresign": 3567,
      "Ġtread": 3568,
      "ethought": 3569,
      "Ġbanished": 3570,
      "Ġpassing": 3571,
      "Ġpleased": 3572,
      "Ġwoful": 3573,
      "Ġdevise": 3574,
      "Ġfollowers": 3575,
      "Ġfools": 3576,
      "ĠHermion": 3577,
      "Ġadvise": 3578,
      "Ġpersu": 3579,
      "Ġhanging": 3580,
      "Ġgives": 3581,
      "Ġrememb": 3582,
      "Ġawake": 3583,
      "Ġborne": 3584,
      "Ġsupper": 3585,
      "Ġcarry": 3586,
      "Ġlamb": 3587,
      "aze": 3588,
      "ĠRivers": 3589,
      "Ġdisposition": 3590,
      "Ġbecomes": 3591,
      "Ġpossible": 3592,
      "ERSET": 3593,
      "Ġburthen": 3594,
      "Ġgarments": 3595,
      "Ġcastle": 3596,
      "Ġexpress": 3597,
      "change": 3598,
      "Ġsighs": 3599,
      "Ġthrive": 3600,
      "Ġundone": 3601,
      "Ġdreadful": 3602,
      "Ġbabe": 3603,
      "Ġcolour": 3604,
      "Ġprotect": 3605,
      "Ġpubl": 3606,
      "Ġprepared": 3607,
      "ĠChristian": 3608,
      "ĠGrey": 3609,
      "Ġdamned": 3610,
      "Ġnobles": 3611,
      "ĠInto": 3612,
      "Ġstorm": 3613,
      "Ġfatal": 3614,
      "Ġauthority": 3615,
      "Ġfollows": 3616,
      "Ġsimple": 3617,
      "Ġfarther": 3618,
      "Ġthroat": 3619,
      "ĠMusician": 3620,
      "Ġbenefit": 3621,
      "Ġaffairs": 3622,
      "pinion": 3623,
      "ĠApollo": 3624,
      "ĠSOMERSET": 3625,
      "ĠThursday": 3626,
      "ĠVALERIA": 3627,
      "ĠRICHMOND": 3628,
      "ĠHermione": 3629,
      "BH": 3630,
      "HY": 3631,
      "LIUS": 3632,
      "SA": 3633,
      "after": 3634,
      "cing": 3635,
      "eg": 3636,
      "go": 3637,
      "gle": 3638,
      "iond": 3639,
      "ron": 3640,
      "thi": 3641,
      "ub": 3642,
      "yard": 3643,
      "yond": 3644,
      "Ġer": 3645,
      "Ġir": 3646,
      "Ġtort": 3647,
      "Ġteeth": 3648,
      "Ġsan": 3649,
      "Ġsorry": 3650,
      "Ġmurderer": 3651,
      "Ġmourn": 3652,
      "Ġwine": 3653,
      "Ġwander": 3654,
      "Ġband": 3655,
      "Ġbond": 3656,
      "erved": 3657,
      "itude": 3658,
      "Ġdaughters": 3659,
      "Ġcal": 3660,
      "Ġcam": 3661,
      "Ġcens": 3662,
      "Ġcunning": 3663,
      "Ġlend": 3664,
      "ene": 3665,
      "enn": 3666,
      "arch": 3667,
      "Ġtop": 3668,
      "Ġpaper": 3669,
      "Ġphysic": 3670,
      "ĠTailor": 3671,
      "ĠABH": 3672,
      "Ġgage": 3673,
      "atsw": 3674,
      "Ġbew": 3675,
      "Ġbelike": 3676,
      "Ġbeheld": 3677,
      "ldom": 3678,
      "eding": 3679,
      "utation": 3680,
      "ĠBUS": 3681,
      "ĠBoy": 3682,
      "ĠBona": 3683,
      "ĠBiond": 3684,
      "ĠHas": 3685,
      "ĠMAMIL": 3686,
      "ĠMOW": 3687,
      "ĠMOP": 3688,
      "Ġweight": 3689,
      "Ġweap": 3690,
      "ills": 3691,
      "illing": 3692,
      "Ġequ": 3693,
      "enture": 3694,
      "rib": 3695,
      "Ġstore": 3696,
      "Ġstep": 3697,
      "ords": 3698,
      "Ġlip": 3699,
      "room": 3700,
      "usion": 3701,
      "Ġseas": 3702,
      "iffe": 3703,
      "Ġsup": 3704,
      "run": 3705,
      "Ġange": 3706,
      "Ġlod": 3707,
      "Ġspend": 3708,
      "Ġspare": 3709,
      "ello": 3710,
      "ellow": 3711,
      "hop": 3712,
      "Ġvan": 3713,
      "ORSON": 3714,
      "ouses": 3715,
      "Ġshut": 3716,
      "ETER": 3717,
      "Ġgoodness": 3718,
      "ĠVery": 3719,
      "Ġconj": 3720,
      "ĠHelp": 3721,
      "Ġsway": 3722,
      "Ġbrook": 3723,
      "Ġkingly": 3724,
      "Ġunnat": 3725,
      "ortion": 3726,
      "Ġquit": 3727,
      "imely": 3728,
      "Ġdisd": 3729,
      "Ġexile": 3730,
      "Ġroom": 3731,
      "Ġdesert": 3732,
      "Ġgentlewoman": 3733,
      "Ġflight": 3734,
      "Ġtwelve": 3735,
      "Ġaffect": 3736,
      "Ġparts": 3737,
      "Ġpartic": 3738,
      "Ġrash": 3739,
      "Ġadm": 3740,
      "Ġprey": 3741,
      "Ġperil": 3742,
      "Ġperish": 3743,
      "Ġperfect": 3744,
      "Ġwrath": 3745,
      "Ġtrans": 3746,
      "Ġwhither": 3747,
      "iteous": 3748,
      "Ġuntil": 3749,
      "loved": 3750,
      "Ġintend": 3751,
      "Ġlean": 3752,
      "Ġlegs": 3753,
      "orses": 3754,
      "ĠStill": 3755,
      "Ġkeeps": 3756,
      "Ġaccess": 3757,
      "Ġaccus": 3758,
      "Ġaccuse": 3759,
      "Ġprize": 3760,
      "Ġchair": 3761,
      "ixenes": 3762,
      "Ġcourtesy": 3763,
      "Ġhumbly": 3764,
      "ounty": 3765,
      "Ġadvantage": 3766,
      "Ġcurst": 3767,
      "Ġcrack": 3768,
      "Ġspirits": 3769,
      "Ġdenied": 3770,
      "Ġdrum": 3771,
      "ancy": 3772,
      "Ġsilver": 3773,
      "Ġbetwixt": 3774,
      "place": 3775,
      "Ġdelay": 3776,
      "Ġresolve": 3777,
      "Ġresolved": 3778,
      "Ġcorrupt": 3779,
      "Ġaccept": 3780,
      "Ġwedding": 3781,
      "Ġpenit": 3782,
      "Ġhurt": 3783,
      "Ġprotest": 3784,
      "Ġclear": 3785,
      "Ġowe": 3786,
      "Ġforsworn": 3787,
      "Ġshadow": 3788,
      "ĠOfficer": 3789,
      "Ġpleasant": 3790,
      "ĠBelieve": 3791,
      "Ġsolemn": 3792,
      "Ġcontinue": 3793,
      "Ġpetition": 3794,
      "Ġthreaten": 3795,
      "Ġconquer": 3796,
      "Ġpunish": 3797,
      "Ġseveral": 3798,
      "Ġcontrary": 3799,
      "Ġpalace": 3800,
      "ĠEXETER": 3801,
      "Ġneighbour": 3802,
      "Ġdinner": 3803,
      "Ġmiserable": 3804,
      "BRAY": 3805,
      "Ġspeci": 3806,
      "Ġcircum": 3807,
      "Ġtaste": 3808,
      "Ġempty": 3809,
      "ĠLeave": 3810,
      "ĠPolixenes": 3811,
      "Ġsanct": 3812,
      "ĠABHORSON": 3813,
      "atswain": 3814,
      "ĠBUSHY": 3815,
      "ĠBiondello": 3816,
      "ĠMAMILLIUS": 3817,
      "ĠMOWBRAY": 3818,
      "ĠMOPSA": 3819,
      "CH": 3820,
      "RCH": 3821,
      "af": 3822,
      "aff": 3823,
      "clock": 3824,
      "dy": 3825,
      "mity": 3826,
      "oot": 3827,
      "oke": 3828,
      "ping": 3829,
      "pic": 3830,
      "rt": 3831,
      "sing": 3832,
      "tune": 3833,
      "ung": 3834,
      "urious": 3835,
      "Ġtut": 3836,
      "Ġtable": 3837,
      "hearted": 3838,
      "Ġscept": 3839,
      "Ġmiss": 3840,
      "Ġmaking": 3841,
      "Ġwot": 3842,
      "Ġwood": 3843,
      "Ġwol": 3844,
      "Ġwond": 3845,
      "rease": 3846,
      "Ġbot": 3847,
      "Ġbas": 3848,
      "Ġbare": 3849,
      "Ġbud": 3850,
      "ising": 3851,
      "Ġfle": 3852,
      "Ġfro": 3853,
      "Ġfee": 3854,
      "Ġfashi": 3855,
      "erve": 3856,
      "Ġdi": 3857,
      "Ġdign": 3858,
      "Ġdies": 3859,
      "Ġdag": 3860,
      "Ġcup": 3861,
      "Ġcalm": 3862,
      "Ġnaked": 3863,
      "Ġyonder": 3864,
      "ency": 3865,
      "aries": 3866,
      "Ġhunt": 3867,
      "Ġhorses": 3868,
      "Ġopinion": 3869,
      "Ġtomb": 3870,
      "Ġpi": 3871,
      "Ġpure": 3872,
      "Ġpainted": 3873,
      "Ġpiteous": 3874,
      "ĠARCH": 3875,
      "Ġheed": 3876,
      "ote": 3877,
      "ane": 3878,
      "Ġgate": 3879,
      "Ġbeyond": 3880,
      "Ġbeloved": 3881,
      "sequ": 3882,
      "irg": 3883,
      "uted": 3884,
      "ĠBear": 3885,
      "ĠBAL": 3886,
      "ĠBISHOP": 3887,
      "Ġmend": 3888,
      "ĠMight": 3889,
      "ĠCo": 3890,
      "Ġweigh": 3891,
      "ourish": 3892,
      "Ġstory": 3893,
      "ĠFather": 3894,
      "ĠFrench": 3895,
      "Ġreward": 3896,
      "ĠPERC": 3897,
      "urance": 3898,
      "Ġdebt": 3899,
      "ĠRight": 3900,
      "ĠRep": 3901,
      "ĠNone": 3902,
      "ĠNap": 3903,
      "ĠNothing": 3904,
      "amed": 3905,
      "Ġsep": 3906,
      "Ġseest": 3907,
      "Ġfail": 3908,
      "Ġfaces": 3909,
      "que": 3910,
      "Ġcomb": 3911,
      "Ġcomple": 3912,
      "Ġpronounce": 3913,
      "Ġamen": 3914,
      "outs": 3915,
      "oler": 3916,
      "Ġhatred": 3917,
      "Ġswallow": 3918,
      "Ġhereafter": 3919,
      "Ġtheirs": 3920,
      "pping": 3921,
      "Ġarg": 3922,
      "igence": 3923,
      "Ġquench": 3924,
      "Ġhopes": 3925,
      "Ġseeing": 3926,
      "cio": 3927,
      "cian": 3928,
      "umble": 3929,
      "Ġdiss": 3930,
      "Ġexpect": 3931,
      "Ġfolly": 3932,
      "Ġrose": 3933,
      "Ġlooking": 3934,
      "ustice": 3935,
      "Ġslow": 3936,
      "Ġfairly": 3937,
      "Ġcalled": 3938,
      "Ġado": 3939,
      "Ġclo": 3940,
      "Ġperpet": 3941,
      "Ġways": 3942,
      "THAS": 3943,
      "Ġwhore": 3944,
      "Ġremains": 3945,
      "lesome": 3946,
      "Ġintent": 3947,
      "Ġcrowns": 3948,
      "Ġcourage": 3949,
      "Ġhark": 3950,
      "Ġwits": 3951,
      "Ġends": 3952,
      "Ġendure": 3953,
      "ĠOnly": 3954,
      "Ġtremb": 3955,
      "Ġneedful": 3956,
      "Ġjoys": 3957,
      "Ġjoyful": 3958,
      "Ġservices": 3959,
      "Ġmistake": 3960,
      "Ġfortunes": 3961,
      "Ġbodies": 3962,
      "Ġnatural": 3963,
      "Ġhappiness": 3964,
      "Ġmisery": 3965,
      "Ġchide": 3966,
      "Ġturns": 3967,
      "Ġattempt": 3968,
      "Ġadvance": 3969,
      "Ġcurses": 3970,
      "Ġassurance": 3971,
      "Ġdiscover": 3972,
      "Ġdiscontent": 3973,
      "Ġcommanded": 3974,
      "Ġsenators": 3975,
      "Ġsometime": 3976,
      "Ġsometimes": 3977,
      "Ġdares": 3978,
      "Ġtemper": 3979,
      "Ġwounded": 3980,
      "Ġspoken": 3981,
      "ĠMayor": 3982,
      "Ġmarket": 3983,
      "cape": 3984,
      "Ġwaters": 3985,
      "Ġinstruct": 3986,
      "Ġinstrument": 3987,
      "Ġcursed": 3988,
      "Ġterror": 3989,
      "Ġshortly": 3990,
      "Ġwhiles": 3991,
      "Ġgriev": 3992,
      "ĠBeseech": 3993,
      "Ġduked": 3994,
      "Ġgroan": 3995,
      "Ġcomplain": 3996,
      "Ġcolours": 3997,
      "Ġprinces": 3998,
      "Ġprincess": 3999,
      "ĠTwo": 4000,
      "Ġgovernment": 4001,
      "Ġapparel": 4002,
      "Ġobedience": 4003,
      "Ġcounterfeit": 4004,
      "Ġcredit": 4005,
      "ĠMarshal": 4006,
      "Ġwreck": 4007,
      "Ġundertake": 4008,
      "Ġlarge": 4009,
      "ĠAEd": 4010,
      "Ġemploy": 4011,
      "Ġsharp": 4012,
      "Ġlanguage": 4013,
      "Ġdurst": 4014,
      "Ġexcellent": 4015,
      "Ġremembrance": 4016,
      "Ġpublic": 4017,
      "Ġunnatural": 4018,
      "picion": 4019,
      "ĠBALTHAS": 4020,
      "ĠPERCY": 4021,
      "Ġdukedom": 4022,
      "ĠBALTHASAR": 4023,
      "?--": 4024,
      "CAS": 4025,
      "FOL": 4026,
      "OS": 4027,
      "afe": 4028,
      "bow": 4029,
      "born": 4030,
      "dds": 4031,
      "fer": 4032,
      "gers": 4033,
      "hor": 4034,
      "lar": 4035,
      "lic": 4036,
      "oe": 4037,
      "oved": 4038,
      "same": 4039,
      "uary": 4040,
      "val": 4041,
      "vours": 4042,
      "whe": 4043,
      "what": 4044,
      "wise": 4045,
      "ys": 4046,
      "Ġtest": 4047,
      "Ġtap": 4048,
      "hest": 4049,
      "Ġsink": 4050,
      "Ġsins": 4051,
      "Ġmill": 4052,
      "Ġmag": 4053,
      "Ġmaint": 4054,
      "Ġmile": 4055,
      "ination": 4056,
      "happy": 4057,
      "isper": 4058,
      "ishop": 4059,
      "Ġfame": 4060,
      "ita": 4061,
      "Ġcease": 4062,
      "Ġnought": 4063,
      "Ġled": 4064,
      "ences": 4065,
      "Ġthief": 4066,
      "Ġhost": 4067,
      "Ġhouses": 4068,
      "Ġodd": 4069,
      "Ġodds": 4070,
      "Ġpol": 4071,
      "Ġpowers": 4072,
      "ĠTit": 4073,
      "ĠApp": 4074,
      "ĠAmen": 4075,
      "strous": 4076,
      "Ġgru": 4077,
      "atic": 4078,
      "Ġbeth": 4079,
      "ĠWidow": 4080,
      "ĠWorthy": 4081,
      "Ġhaz": 4082,
      "Ġmere": 4083,
      "Ġmeant": 4084,
      "ĠSet": 4085,
      "Ġisle": 4086,
      "Ġisland": 4087,
      "ĠCal": 4088,
      "Ġweather": 4089,
      "ourage": 4090,
      "Ġeast": 4091,
      "Ġits": 4092,
      "Ġstol": 4093,
      "Ġkin": 4094,
      "ĠLe": 4095,
      "ĠLay": 4096,
      "ĠLong": 4097,
      "ĠFour": 4098,
      "Ġrepe": 4099,
      "Ġrealm": 4100,
      "idence": 4101,
      "ĠPost": 4102,
      "ĠPage": 4103,
      "ĠRet": 4104,
      "ĠRem": 4105,
      "ĠRos": 4106,
      "ĠROS": 4107,
      "Ġshape": 4108,
      "ĠEl": 4109,
      "ĠDear": 4110,
      "ĠDorse": 4111,
      "uses": 4112,
      "Ġseize": 4113,
      "ified": 4114,
      "ĠThose": 4115,
      "Ġspite": 4116,
      "Ġknife": 4117,
      "Ġvirg": 4118,
      "Ġshun": 4119,
      "ants": 4120,
      "arts": 4121,
      "Ġcomest": 4122,
      "Ġmanners": 4123,
      "Ġconc": 4124,
      "ieved": 4125,
      "Ġblock": 4126,
      "Ġblush": 4127,
      "ared": 4128,
      "arent": 4129,
      "olute": 4130,
      "Ġbrings": 4131,
      "Ġung": 4132,
      "Ġworn": 4133,
      "Ġqual": 4134,
      "Ġjourn": 4135,
      "ĠYoung": 4136,
      "akest": 4137,
      "Ġfathers": 4138,
      "ument": 4139,
      "ĠJack": 4140,
      "Ġenmity": 4141,
      "Ġring": 4142,
      "Ġalter": 4143,
      "ĠSold": 4144,
      "Ġrogue": 4145,
      "Ġfriendly": 4146,
      "Ġflies": 4147,
      "ĠMarch": 4148,
      "Ġslay": 4149,
      "tled": 4150,
      "Ġadvers": 4151,
      "Ġwrite": 4152,
      "Ġtrade": 4153,
      "Ġscope": 4154,
      "Ġscene": 4155,
      "Ġcontract": 4156,
      "Ġapprehe": 4157,
      "Ġarmour": 4158,
      "Ġuntimely": 4159,
      "ctions": 4160,
      "ression": 4161,
      "Ġimm": 4162,
      "Ġrepair": 4163,
      "Ġintell": 4164,
      "Ġconsider": 4165,
      "Ġrule": 4166,
      "Ġleads": 4167,
      "Ġtrick": 4168,
      "Ġslept": 4169,
      "Ġaccord": 4170,
      "Ġcompan": 4171,
      "Ġcompass": 4172,
      "Ġpurcha": 4173,
      "Ġcock": 4174,
      "Ġbrain": 4175,
      "Ġseeming": 4176,
      "Ġimposs": 4177,
      "Ġglorious": 4178,
      "Ġpassion": 4179,
      "Ġpassage": 4180,
      "Ġmaiden": 4181,
      "Ġhateful": 4182,
      "Ġstrew": 4183,
      "Ġinstant": 4184,
      "uteous": 4185,
      "Ġserves": 4186,
      "Ġboar": 4187,
      "Ġwants": 4188,
      "ĠGentlemen": 4189,
      "ĠNORFOL": 4190,
      "Ġwinds": 4191,
      "Ġcontented": 4192,
      "Ġfreely": 4193,
      "Ġgrey": 4194,
      "Ġdrums": 4195,
      "Ġmonstrous": 4196,
      "ĠLucio": 4197,
      "Ġcholer": 4198,
      "Ġgrows": 4199,
      "Ġdeserves": 4200,
      "ĠWhither": 4201,
      "Ġgranted": 4202,
      "Ġincrease": 4203,
      "Ġresolution": 4204,
      "noon": 4205,
      "Ġterms": 4206,
      "ĠBoatswain": 4207,
      "Ġvex": 4208,
      "ĠVolsce": 4209,
      "Ġwait": 4210,
      "Ġpraise": 4211,
      "Ġsky": 4212,
      "Ġabsent": 4213,
      "Ġvenom": 4214,
      "Ġdirect": 4215,
      "chance": 4216,
      "Ġdrops": 4217,
      "Ġprivile": 4218,
      "Ġrespected": 4219,
      "Ġframe": 4220,
      "Ġoppos": 4221,
      "Ġapproach": 4222,
      "ĠExeter": 4223,
      "Ġtorment": 4224,
      "Ġunknown": 4225,
      "Ġprosperous": 4226,
      "Ġsuspicion": 4227,
      "Ġreverend": 4228,
      "ĠDORCAS": 4229,
      "Ġcaptain": 4230,
      "Ġdegree": 4231,
      "Ġbehalf": 4232,
      "Ġsmooth": 4233,
      "Ġtreacherous": 4234,
      "Ġearnest": 4235,
      "Ġcamest": 4236,
      "Ġdisdain": 4237,
      "Ġparticular": 4238,
      "Ġsceptre": 4239,
      "Ġdagger": 4240,
      "ĠNaples": 4241,
      "ĠROSS": 4242,
      "ĠDorset": 4243,
      "ĠNORFOLK": 4244,
      "GH": 4245,
      "God": 4246,
      "NS": 4247,
      "RR": 4248,
      "SET": 4249,
      "aily": 4250,
      "fl": 4251,
      "fret": 4252,
      "iven": 4253,
      "iate": 4254,
      "just": 4255,
      "kin": 4256,
      "mend": 4257,
      "ped": 4258,
      "uce": 4259,
      "Ġing": 4260,
      "Ġtame": 4261,
      "Ġtaught": 4262,
      "Ġtide": 4263,
      "Ġable": 4264,
      "Ġsqu": 4265,
      "Ġsouth": 4266,
      "Ġmor": 4267,
      "Ġmessenger": 4268,
      "iny": 4269,
      "rey": 4270,
      "reland": 4271,
      "reme": 4272,
      "Ġbird": 4273,
      "Ġbury": 4274,
      "Ġfig": 4275,
      "Ġfurn": 4276,
      "ĠIreland": 4277,
      "Ġdig": 4278,
      "Ġdress": 4279,
      "Ġdying": 4280,
      "Ġdaily": 4281,
      "Ġchat": 4282,
      "Ġcatch": 4283,
      "Ġlark": 4284,
      "Ġthorn": 4285,
      "Ġthird": 4286,
      "Ġpurse": 4287,
      "Ġparent": 4288,
      "ĠALO": 4289,
      "ances": 4290,
      "omans": 4291,
      "Ġglo": 4292,
      "ature": 4293,
      "atcl": 4294,
      "atience": 4295,
      "Ġbeard": 4296,
      "ĠBer": 4297,
      "ĠBra": 4298,
      "ĠBring": 4299,
      "Ġmelt": 4300,
      "ĠSe": 4301,
      "ĠSon": 4302,
      "ĠSave": 4303,
      "ĠHunts": 4304,
      "ĠMil": 4305,
      "ĠCame": 4306,
      "Ġwept": 4307,
      "Ġwealth": 4308,
      "ades": 4309,
      "ric": 4310,
      "ricians": 4311,
      "Ġstamp": 4312,
      "ĠLau": 4313,
      "ĠFERD": 4314,
      "ĠFroth": 4315,
      "ĠGhost": 4316,
      "Ġrevol": 4317,
      "rain": 4318,
      "raced": 4319,
      "INAND": 4320,
      "Ġlion": 4321,
      "ales": 4322,
      "aline": 4323,
      "ĠRomans": 4324,
      "ĠRatcl": 4325,
      "ĠYe": 4326,
      "Ġwilling": 4327,
      "Ġwillingly": 4328,
      "Ġnobl": 4329,
      "Ġnobly": 4330,
      "ĠDown": 4331,
      "Ġseason": 4332,
      "andal": 4333,
      "Ġsuck": 4334,
      "Ġspr": 4335,
      "Ġspur": 4336,
      "Ġvows": 4337,
      "Ġvault": 4338,
      "Ġconce": 4339,
      "Ġconceit": 4340,
      "Ġamazed": 4341,
      "ember": 4342,
      "Ġswell": 4343,
      "Ġlovely": 4344,
      "Ġunless": 4345,
      "Ġworthi": 4346,
      "elt": 4347,
      "Ġjew": 4348,
      "Ġmuster": 4349,
      "Ġshoulder": 4350,
      "Ġprovo": 4351,
      "Ġdisper": 4352,
      "Ġens": 4353,
      "Ġenforce": 4354,
      "Ġruth": 4355,
      "Ġalike": 4356,
      "Ġaboard": 4357,
      "Ġabhor": 4358,
      "Ġroar": 4359,
      "Ġtells": 4360,
      "Ġwhereof": 4361,
      "Ġwarlike": 4362,
      "Ġflatt": 4363,
      "Ġfears": 4364,
      "Ġhasty": 4365,
      "Ġgreatest": 4366,
      "Ġrap": 4367,
      "Ġraise": 4368,
      "Ġrascal": 4369,
      "Ġadver": 4370,
      "Ġcommitted": 4371,
      "Ġcommission": 4372,
      "Ġclam": 4373,
      "Ġperj": 4374,
      "Ġperforce": 4375,
      "Ġwrought": 4376,
      "Ġpress": 4377,
      "Ġbearing": 4378,
      "Ġnorth": 4379,
      "liament": 4380,
      "Ġwhisper": 4381,
      "ĠThanks": 4382,
      "Ġbegun": 4383,
      "Ġpeers": 4384,
      "ĠStri": 4385,
      "Ġwitch": 4386,
      "Ġaccused": 4387,
      "Ġputs": 4388,
      "Ġkindly": 4389,
      "Ġcounty": 4390,
      "Ġsmiles": 4391,
      "Ġfinds": 4392,
      "Ġbraw": 4393,
      "Ġcharged": 4394,
      "Ġafternoon": 4395,
      "Ġholds": 4396,
      "ĠGREEN": 4397,
      "Ġstreets": 4398,
      "Ġsoundly": 4399,
      "Ġbuild": 4400,
      "Ġadvice": 4401,
      "Ġboots": 4402,
      "Ġcurrent": 4403,
      "Ġsends": 4404,
      "Ġhanged": 4405,
      "Ġrevenged": 4406,
      "Ġassured": 4407,
      "Ġgiving": 4408,
      "Ġdarest": 4409,
      "ĠSupp": 4410,
      "Ġsupposed": 4411,
      "ĠPlay": 4412,
      "Ġrecom": 4413,
      "Ġrecord": 4414,
      "Ġsilent": 4415,
      "Ġinstruments": 4416,
      "Ġhardly": 4417,
      "Ġprofit": 4418,
      "Ġparliament": 4419,
      "Ġveins": 4420,
      "Ġsingle": 4421,
      "Ġwaste": 4422,
      "Ġaffli": 4423,
      "Ġpieces": 4424,
      "Ġgarland": 4425,
      "ĠPomfret": 4426,
      "ĠUntil": 4427,
      "Ġgrieve": 4428,
      "Ġforbear": 4429,
      "Ġgroans": 4430,
      "Ġestate": 4431,
      "Ġthrice": 4432,
      "ĠAbout": 4433,
      "erns": 4434,
      "Ġrebell": 4435,
      "ĠTYRR": 4436,
      "Ġdestroy": 4437,
      "Ġurged": 4438,
      "Ġaffections": 4439,
      "Ġfamous": 4440,
      "Ġhaply": 4441,
      "Ġlusty": 4442,
      "ĠDORSET": 4443,
      "ĠConspir": 4444,
      "Ġelder": 4445,
      "Ġstudy": 4446,
      "Ġconstant": 4447,
      "Ġgently": 4448,
      "Ġarrived": 4449,
      "ĠSicilia": 4450,
      "Ġavoid": 4451,
      "Ġimprisonment": 4452,
      "Ġconduct": 4453,
      "Ġprotector": 4454,
      "Ġspecial": 4455,
      "Ġcircumst": 4456,
      "Ġsanctuary": 4457,
      "Ġperpetual": 4458,
      "Ġgrievous": 4459,
      "ĠAEdile": 4460,
      "Ġmaintain": 4461,
      "ĠTitus": 4462,
      "Ġbethink": 4463,
      "ĠRosaline": 4464,
      "Ġvirgin": 4465,
      "Ġjourney": 4466,
      "ĠSoldier": 4467,
      "NSO": 4468,
      "ĠALONSO": 4469,
      "ĠHuntsman": 4470,
      "ĠFERDINAND": 4471,
      "ĠRatcliff": 4472,
      "ĠTYRREL": 4473,
      ";--": 4474,
      "Th": 4475,
      "aly": 4476,
      "aces": 4477,
      "con": 4478,
      "dig": 4479,
      "eat": 4480,
      "erer": 4481,
      "father": 4482,
      "fall": 4483,
      "faced": 4484,
      "gl": 4485,
      "gar": 4486,
      "grim": 4487,
      "groom": 4488,
      "ib": 4489,
      "ipp": 4490,
      "ipe": 4491,
      "iving": 4492,
      "ienn": 4493,
      "ker": 4494,
      "law": 4495,
      "lanch": 4496,
      "more": 4497,
      "mory": 4498,
      "nal": 4499,
      "pr": 4500,
      "pass": 4501,
      "rrel": 4502,
      "ser": 4503,
      "time": 4504,
      "ties": 4505,
      "uing": 4506,
      "uch": 4507,
      "upt": 4508,
      "vior": 4509,
      "zz": 4510,
      "Ġz": 4511,
      "Ġtall": 4512,
      "Ġtarry": 4513,
      "Ġtask": 4514,
      "Ġach": 4515,
      "Ġapt": 4516,
      "Ġaunt": 4517,
      "Ġsy": 4518,
      "Ġsal": 4519,
      "Ġsire": 4520,
      "Ġsalt": 4521,
      "Ġsnow": 4522,
      "Ġmir": 4523,
      "Ġmult": 4524,
      "Ġwing": 4525,
      "Ġwide": 4526,
      "Ġwhip": 4527,
      "Ġwaking": 4528,
      "Ġbade": 4529,
      "isbury": 4530,
      "Ġfi": 4531,
      "Ġfood": 4532,
      "Ġfrow": 4533,
      "Ġfun": 4534,
      "Ġfeet": 4535,
      "Ġfires": 4536,
      "Ġfancy": 4537,
      "erity": 4538,
      "erby": 4539,
      "llen": 4540,
      "itation": 4541,
      "onci": 4542,
      "Ġdow": 4543,
      "Ġdim": 4544,
      "Ġdiffe": 4545,
      "Ġcat": 4546,
      "Ġcher": 4547,
      "Ġcaught": 4548,
      "Ġcere": 4549,
      "Ġnail": 4550,
      "Ġlin": 4551,
      "Ġlent": 4552,
      "Ġyond": 4553,
      "Ġyoke": 4554,
      "esar": 4555,
      "essel": 4556,
      "enant": 4557,
      "Ġhor": 4558,
      "Ġhie": 4559,
      "Ġhorn": 4560,
      "Ġoak": 4561,
      "Ġpot": 4562,
      "Ġport": 4563,
      "Ġpound": 4564,
      "Ġpier": 4565,
      "ĠTar": 4566,
      "ĠAcc": 4567,
      "vet": 4568,
      "omen": 4569,
      "ative": 4570,
      "semble": 4571,
      "Ġinqu": 4572,
      "Ġhabit": 4573,
      "etite": 4574,
      "eder": 4575,
      "utenant": 4576,
      "ĠBen": 4577,
      "ĠBus": 4578,
      "Ġmelanch": 4579,
      "ĠSm": 4580,
      "ĠSal": 4581,
      "ĠSix": 4582,
      "ĠHo": 4583,
      "ĠMin": 4584,
      "ĠMakes": 4585,
      "Ġfors": 4586,
      "Ġforced": 4587,
      "Ġforfeit": 4588,
      "ĠCond": 4589,
      "ourse": 4590,
      "Ġevent": 4591,
      "aded": 4592,
      "rif": 4593,
      "Ġsting": 4594,
      "Ġstro": 4595,
      "Ġstout": 4596,
      "Ġstret": 4597,
      "Ġstroke": 4598,
      "ĠFo": 4599,
      "Ġrece": 4600,
      "Ġreck": 4601,
      "Ġrede": 4602,
      "Ġrejo": 4603,
      "rac": 4604,
      "Ġsore": 4605,
      "Ġsooth": 4606,
      "Ġdeceit": 4607,
      "ĠRather": 4608,
      "roll": 4609,
      "ested": 4610,
      "ams": 4611,
      "aming": 4612,
      "ĠDare": 4613,
      "ĠDraw": 4614,
      "ĠDerby": 4615,
      "Ġsell": 4616,
      "Ġsees": 4617,
      "Ġalliance": 4618,
      "Ġsue": 4619,
      "ruction": 4620,
      "Ġsple": 4621,
      "Ġknaves": 4622,
      "Ġvill": 4623,
      "Ġvessel": 4624,
      "ulf": 4625,
      "ulate": 4626,
      "nty": 4627,
      "Ġmanif": 4628,
      "ĠVienn": 4629,
      "Ġconfe": 4630,
      "icy": 4631,
      "Ġblunt": 4632,
      "Ġsaying": 4633,
      "Ġune": 4634,
      "Ġunst": 4635,
      "Ġunhappy": 4636,
      "Ġunjust": 4637,
      "ignty": 4638,
      "orted": 4639,
      "LIS": 4640,
      "Ġgraves": 4641,
      "Ġdisple": 4642,
      "Ġwholesome": 4643,
      "Ġoffended": 4644,
      "Ġalack": 4645,
      "Ġalthough": 4646,
      "harge": 4647,
      "Ġabide": 4648,
      "Ġexerc": 4649,
      "Ġexchange": 4650,
      "ĠNoble": 4651,
      "ages": 4652,
      "Ġdesires": 4653,
      "Ġdescend": 4654,
      "Ġflood": 4655,
      "ĠMarian": 4656,
      "Ġslaves": 4657,
      "Ġtwain": 4658,
      "Ġbetray": 4659,
      "Ġbetimes": 4660,
      "Ġnewly": 4661,
      "Ġparting": 4662,
      "Ġpartly": 4663,
      "Ġrare": 4664,
      "Ġraised": 4665,
      "Ġadmit": 4666,
      "Ġcommons": 4667,
      "Ġstanding": 4668,
      "Ġclim": 4669,
      "Ġwrink": 4670,
      "ullus": 4671,
      "Ġcontempt": 4672,
      "Ġappeal": 4673,
      "Ġappetite": 4674,
      "Ġbegu": 4675,
      "Ġimage": 4676,
      "Ġrust": 4677,
      "Ġruled": 4678,
      "Ġhousehold": 4679,
      "Ġsets": 4680,
      "ĠProceed": 4681,
      "osing": 4682,
      "Ġresist": 4683,
      "forth": 4684,
      "forced": 4685,
      "Ġaccident": 4686,
      "Ġprick": 4687,
      "Ġpowerful": 4688,
      "Ġchase": 4689,
      "Ġcharac": 4690,
      "clam": 4691,
      "Ġsmell": 4692,
      "Ġtreasure": 4693,
      "Ġtremble": 4694,
      "Ġbrace": 4695,
      "Ġhelm": 4696,
      "Ġmistrust": 4697,
      "iety": 4698,
      "Ġbesides": 4699,
      "Ġnative": 4700,
      "Ġboys": 4701,
      "Ġdevotion": 4702,
      "Ġpatricians": 4703,
      "Ġweeps": 4704,
      "Ġbelow": 4705,
      "Ġfalsehood": 4706,
      "Ġsovereignty": 4707,
      "Ġvirtues": 4708,
      "ouchs": 4709,
      "ĠTyrrel": 4710,
      "Ġassure": 4711,
      "Ġsecure": 4712,
      "Ġmerit": 4713,
      "Ġoaths": 4714,
      "Ġfaithful": 4715,
      "ĠCannot": 4716,
      "Ġdefence": 4717,
      "Ġsurely": 4718,
      "Ġreconci": 4719,
      "Ġpoints": 4720,
      "Ġfeeling": 4721,
      "Ġbeholding": 4722,
      "Twere": 4723,
      "Ġago": 4724,
      "Ġagree": 4725,
      "Ġcorre": 4726,
      "Ġprett": 4727,
      "Ġbreathed": 4728,
      "Ġsickness": 4729,
      "Ġforgive": 4730,
      "Ġweakness": 4731,
      "Ġregal": 4732,
      "Ġregard": 4733,
      "Ġmouths": 4734,
      "Ġbooks": 4735,
      "Ġbarren": 4736,
      "Ġbridegroom": 4737,
      "Ġcomplaint": 4738,
      "soever": 4739,
      "Ġpitch": 4740,
      "Ġbeasts": 4741,
      "ĠConf": 4742,
      "ĠCaesar": 4743,
      "Ġtrumpet": 4744,
      "eeming": 4745,
      "Ġshield": 4746,
      "Ġforswear": 4747,
      "Ġunkind": 4748,
      "ĠAnti": 4749,
      "Ġapparent": 4750,
      "Ġtempest": 4751,
      "Ġsuspect": 4752,
      "Ġstopp": 4753,
      "Ġreverence": 4754,
      "Ġentertainment": 4755,
      "Ġobedient": 4756,
      "Ġdetermined": 4757,
      "Ġfairer": 4758,
      "Ġfairest": 4759,
      "Ġsubstit": 4760,
      "Ġholp": 4761,
      "Ġstabb": 4762,
      "Ġdisgrace": 4763,
      "Ġtyranny": 4764,
      "Ġlength": 4765,
      "shire": 4766,
      "Ġrenowned": 4767,
      "Ġballad": 4768,
      "Ġpilgrim": 4769,
      "Ġequal": 4770,
      "Ġpenitent": 4771,
      "Ġfashion": 4772,
      "Ġdignity": 4773,
      "Ġcomplex": 4774,
      "ĠFourth": 4775,
      "Ġaccording": 4776,
      "Ġimpossible": 4777,
      "ĠMilan": 4778,
      "Ġrebellion": 4779,
      "Ġfroward": 4780,
      "Ġmelancholy": 4781,
      "ĠSalisbury": 4782,
      "Ġredeem": 4783,
      "ĠVienna": 4784,
      "Ġconference": 4785,
      ".--": 4786,
      "Ay": 4787,
      "DR": 4788,
      "EOM": 4789,
      "IT": 4790,
      "UGH": 4791,
      "bear": 4792,
      "bod": 4793,
      "bation": 4794,
      "com": 4795,
      "cate": 4796,
      "cary": 4797,
      "cceed": 4798,
      "dita": 4799,
      "eve": 4800,
      "fold": 4801,
      "gn": 4802,
      "iam": 4803,
      "long": 4804,
      "mong": 4805,
      "maid": 4806,
      "ns": 4807,
      "nes": 4808,
      "rs": 4809,
      "rat": 4810,
      "rough": 4811,
      "tic": 4812,
      "teen": 4813,
      "tles": 4814,
      "uit": 4815,
      "uries": 4816,
      "wife": 4817,
      "weal": 4818,
      "xe": 4819,
      "Ġtim": 4820,
      "Ġtres": 4821,
      "Ġtakes": 4822,
      "Ġtail": 4823,
      "Ġtaunt": 4824,
      "Ġaxe": 4825,
      "Ġmood": 4826,
      "Ġmess": 4827,
      "Ġmirth": 4828,
      "Ġwid": 4829,
      "Ġwest": 4830,
      "Ġwake": 4831,
      "Ġwink": 4832,
      "Ġwakes": 4833,
      "inct": 4834,
      "Ġbon": 4835,
      "Ġbir": 4836,
      "Ġbuck": 4837,
      "ories": 4838,
      "Ġfish": 4839,
      "erves": 4840,
      "iter": 4841,
      "itable": 4842,
      "onst": 4843,
      "onation": 4844,
      "Ġcost": 4845,
      "Ġchall": 4846,
      "Ġciv": 4847,
      "Ġnap": 4848,
      "Ġline": 4849,
      "Ġlap": 4850,
      "Ġyes": 4851,
      "Ġthir": 4852,
      "Ġthick": 4853,
      "Ġthread": 4854,
      "Ġope": 4855,
      "Ġtoad": 4856,
      "Ġtoil": 4857,
      "Ġtooth": 4858,
      "Ġped": 4859,
      "Ġpee": 4860,
      "Ġpause": 4861,
      "ĠTime": 4862,
      "ĠTush": 4863,
      "ĠTullus": 4864,
      "ĠAf": 4865,
      "ĠAw": 4866,
      "ĠADR": 4867,
      "othes": 4868,
      "stery": 4869,
      "aning": 4870,
      "omach": 4871,
      "Ġgaze": 4872,
      "ĠWIL": 4873,
      "sell": 4874,
      "Ġmystery": 4875,
      "Ġinfection": 4876,
      "Ġmemory": 4877,
      "imble": 4878,
      "ĠSound": 4879,
      "ĠSomet": 4880,
      "ĠHim": 4881,
      "ĠHail": 4882,
      "ĠMany": 4883,
      "ĠCle": 4884,
      "ĠCur": 4885,
      "ĠCry": 4886,
      "ĠCounty": 4887,
      "illy": 4888,
      "Ġwithdraw": 4889,
      "herit": 4890,
      "Ġste": 4891,
      "Ġstick": 4892,
      "Ġstumble": 4893,
      "ĠLart": 4894,
      "ĠLie": 4895,
      "ĠFRO": 4896,
      "ĠGet": 4897,
      "Ġreap": 4898,
      "Ġlift": 4899,
      "Ġliken": 4900,
      "ases": 4901,
      "Ġdeb": 4902,
      "Ġdeck": 4903,
      "Ġdecl": 4904,
      "ĠRa": 4905,
      "Ġsham": 4906,
      "earer": 4907,
      "ĠEach": 4908,
      "ushes": 4909,
      "Ġseiz": 4910,
      "Ġseldom": 4911,
      "ĠThrough": 4912,
      "Ġsuper": 4913,
      "Ġsuitor": 4914,
      "Ġsullen": 4915,
      "Ġsucceed": 4916,
      "ĠKn": 4917,
      "Ġlover": 4918,
      "Ġlovest": 4919,
      "Ġspl": 4920,
      "Ġspy": 4921,
      "Ġspit": 4922,
      "Ġspect": 4923,
      "Ġfact": 4924,
      "Ġfawn": 4925,
      "Ġnegle": 4926,
      "Ġknot": 4927,
      "Ġvar": 4928,
      "Ġvol": 4929,
      "ulch": 4930,
      "seless": 4931,
      "Ġmanage": 4932,
      "ĠVen": 4933,
      "ĠVal": 4934,
      "ĠVillain": 4935,
      "ical": 4936,
      "icles": 4937,
      "Ġhated": 4938,
      "LOUGH": 4939,
      "Ġswain": 4940,
      "Ġbran": 4941,
      "ĠWhether": 4942,
      "Ġjot": 4943,
      "cies": 4944,
      "Ġproclam": 4945,
      "Ġdisgu": 4946,
      "Ġdeaths": 4947,
      "Ġeng": 4948,
      "Ġheartily": 4949,
      "Ġmarks": 4950,
      "irect": 4951,
      "Ġoffic": 4952,
      "ĠSoft": 4953,
      "Ġabused": 4954,
      "Ġdescent": 4955,
      "Ġripe": 4956,
      "Ġride": 4957,
      "Ġleague": 4958,
      "Ġwarri": 4959,
      "Ġslip": 4960,
      "Ġgreatness": 4961,
      "ĠBehold": 4962,
      "Ġbred": 4963,
      "ĠItaly": 4964,
      "Ġrain": 4965,
      "Ġrail": 4966,
      "Ġheavenly": 4967,
      "Ġclothes": 4968,
      "Ġsweeter": 4969,
      "Ġperhaps": 4970,
      "Ġscold": 4971,
      "Ġscandal": 4972,
      "ĠAnon": 4973,
      "Ġappointed": 4974,
      "Ġwhit": 4975,
      "Ġremorse": 4976,
      "Ġremove": 4977,
      "Ġremoved": 4978,
      "Ġbegan": 4979,
      "Ġrepose": 4980,
      "Ġharsh": 4981,
      "Ġkeeper": 4982,
      "Ġaccursed": 4983,
      "Ġyounger": 4984,
      "Ġyoungest": 4985,
      "ĠCLEOM": 4986,
      "Ġsubtle": 4987,
      "Ġdearly": 4988,
      "ĠWilliam": 4989,
      "Ġcoff": 4990,
      "Ġrights": 4991,
      "Ġminds": 4992,
      "Ġconfirm": 4993,
      "Ġmischance": 4994,
      "Ġsorrows": 4995,
      "Ġcareless": 4996,
      "Ġmeeting": 4997,
      "Ġlesser": 4998,
      "Ġobject": 4999
    },
    "merges": [
      [
        "Ġ",
        "t"
      ],
      [
        "h",
        "e"
      ],
      [
        "Ġ",
        "a"
      ],
      [
        "o",
        "u"
      ],
      [
        "Ġ",
        "s"
      ],
      [
        "Ġ",
        "m"
      ],
      [
        "Ġ",
        "w"
      ],
      [
        "i",
        "n"
      ],
      [
        "r",
        "e"
      ],
      [
        "h",
        "a"
      ],
      [
        "Ġt",
        "he"
      ],
      [
        "n",
        "d"
      ],
      [
        "Ġ",
        "b"
      ],
      [
        "i",
        "s"
      ],
      [
        "o",
        "r"
      ],
      [
        "Ġ",
        "Ċ"
      ],
      [
        "Ġ",
        "f"
      ],
      [
        "Ġ",
        "I"
      ],
      [
        "e",
        "r"
      ],
      [
        "l",
        "l"
      ],
      [
        "i",
        "t"
      ],
      [
        "o",
        "n"
      ],
      [
        "Ġ",
        "d"
      ],
      [
        "Ġ",
        "c"
      ],
      [
        "Ġ",
        "n"
      ],
      [
        "Ġ",
        "l"
      ],
      [
        "Ġ",
        "y"
      ],
      [
        "e",
        "s"
      ],
      [
        "e",
        "n"
      ],
      [
        "Ġt",
        "h"
      ],
      [
        "a",
        "r"
      ],
      [
        "Ġ",
        "h"
      ],
      [
        "Ġ",
        "o"
      ],
      [
        "Ġt",
        "o"
      ],
      [
        "Ġy",
        "ou"
      ],
      [
        "Ġ",
        "p"
      ],
      [
        "Ġ",
        "T"
      ],
      [
        "ha",
        "t"
      ],
      [
        "Ġ",
        "A"
      ],
      [
        "Ġ",
        "he"
      ],
      [
        "v",
        "e"
      ],
      [
        "o",
        "t"
      ],
      [
        "Ġa",
        "nd"
      ],
      [
        "s",
        "t"
      ],
      [
        "o",
        "w"
      ],
      [
        "in",
        "g"
      ],
      [
        "Ġo",
        "f"
      ],
      [
        "a",
        "n"
      ],
      [
        "o",
        "m"
      ],
      [
        "Ġ",
        "g"
      ],
      [
        "a",
        "t"
      ],
      [
        "Ġb",
        "e"
      ],
      [
        "Ġ",
        "W"
      ],
      [
        "s",
        "e"
      ],
      [
        "Ġm",
        "y"
      ],
      [
        "Ġ",
        "in"
      ],
      [
        "Ġ",
        "ha"
      ],
      [
        "c",
        "e"
      ],
      [
        "l",
        "e"
      ],
      [
        "a",
        "y"
      ],
      [
        "l",
        "d"
      ],
      [
        "i",
        "r"
      ],
      [
        "e",
        "t"
      ],
      [
        "e",
        "d"
      ],
      [
        "u",
        "t"
      ],
      [
        "Ġ",
        "B"
      ],
      [
        "Ġm",
        "e"
      ],
      [
        "i",
        "m"
      ],
      [
        "Ġ",
        "S"
      ],
      [
        "it",
        "h"
      ],
      [
        "Ġn",
        "ot"
      ],
      [
        "'",
        "s"
      ],
      [
        "Ġ",
        "H"
      ],
      [
        "c",
        "h"
      ],
      [
        "Ġt",
        "hat"
      ],
      [
        "Ġ",
        "is"
      ],
      [
        "Ġ",
        "M"
      ],
      [
        "g",
        "h"
      ],
      [
        "ĠA",
        "nd"
      ],
      [
        "Ġf",
        "or"
      ],
      [
        "Ġ",
        "u"
      ],
      [
        "k",
        "e"
      ],
      [
        "Ġ",
        "C"
      ],
      [
        "Ġw",
        "e"
      ],
      [
        "ou",
        "r"
      ],
      [
        "o",
        "o"
      ],
      [
        "i",
        "ll"
      ],
      [
        "Ġ",
        "e"
      ],
      [
        "Ġw",
        "ith"
      ],
      [
        "he",
        "r"
      ],
      [
        "Ġ",
        "it"
      ],
      [
        "en",
        "t"
      ],
      [
        "Ġyou",
        "r"
      ],
      [
        "a",
        "d"
      ],
      [
        "r",
        "i"
      ],
      [
        "Ġ",
        "O"
      ],
      [
        "Ġth",
        "ou"
      ],
      [
        "Ġs",
        "t"
      ],
      [
        "Ġ",
        "k"
      ],
      [
        "Ġ",
        "L"
      ],
      [
        "'",
        "d"
      ],
      [
        "om",
        "e"
      ],
      [
        "Ġh",
        "is"
      ],
      [
        "Ġ",
        "F"
      ],
      [
        "Ġ",
        "G"
      ],
      [
        "gh",
        "t"
      ],
      [
        "E",
        "N"
      ],
      [
        "Ġ",
        "re"
      ],
      [
        "or",
        "d"
      ],
      [
        "i",
        "d"
      ],
      [
        "r",
        "a"
      ],
      [
        "ĠT",
        "he"
      ],
      [
        "Ġha",
        "ve"
      ],
      [
        "Ġh",
        "im"
      ],
      [
        "I",
        "N"
      ],
      [
        "l",
        "y"
      ],
      [
        "Ġl",
        "i"
      ],
      [
        "a",
        "s"
      ],
      [
        "Ġ",
        "P"
      ],
      [
        "Ġth",
        "is"
      ],
      [
        "u",
        "r"
      ],
      [
        "I",
        "O"
      ],
      [
        "a",
        "l"
      ],
      [
        "Ġs",
        "o"
      ],
      [
        "Ġa",
        "s"
      ],
      [
        "Ġd",
        "e"
      ],
      [
        "Ġ",
        "on"
      ],
      [
        "Ġ",
        "R"
      ],
      [
        "o",
        "re"
      ],
      [
        "r",
        "o"
      ],
      [
        "Ġ",
        "N"
      ],
      [
        "h",
        "i"
      ],
      [
        "ou",
        "ld"
      ],
      [
        "oo",
        "d"
      ],
      [
        "A",
        "R"
      ],
      [
        "c",
        "k"
      ],
      [
        "a",
        "in"
      ],
      [
        "v",
        "er"
      ],
      [
        "Ġ",
        "Y"
      ],
      [
        "es",
        "t"
      ],
      [
        "Ġs",
        "ha"
      ],
      [
        "Ġth",
        "y"
      ],
      [
        "es",
        "s"
      ],
      [
        "Ġw",
        "ill"
      ],
      [
        "Ġd",
        "o"
      ],
      [
        "e",
        "a"
      ],
      [
        "Ġn",
        "o"
      ],
      [
        "a",
        "m"
      ],
      [
        "Ġ",
        "E"
      ],
      [
        "Ġb",
        "ut"
      ],
      [
        "Ġ",
        "D"
      ],
      [
        "u",
        "s"
      ],
      [
        "Ġs",
        "e"
      ],
      [
        "U",
        "S"
      ],
      [
        "i",
        "f"
      ],
      [
        "Ġ",
        "'"
      ],
      [
        "g",
        "e"
      ],
      [
        "Ġa",
        "ll"
      ],
      [
        "a",
        "nd"
      ],
      [
        "ĠT",
        "h"
      ],
      [
        "Ġs",
        "u"
      ],
      [
        "a",
        "ke"
      ],
      [
        "ĠT",
        "o"
      ],
      [
        "Ġhe",
        "r"
      ],
      [
        "r",
        "u"
      ],
      [
        "i",
        "on"
      ],
      [
        "Ġa",
        "n"
      ],
      [
        "Ġ",
        "K"
      ],
      [
        "Ġl",
        "o"
      ],
      [
        "t",
        "er"
      ],
      [
        "ar",
        "d"
      ],
      [
        "ha",
        "n"
      ],
      [
        "Ġs",
        "p"
      ],
      [
        "e",
        "ll"
      ],
      [
        "e",
        "ar"
      ],
      [
        "Ġthe",
        "e"
      ],
      [
        "Ġf",
        "a"
      ],
      [
        "Ġsha",
        "ll"
      ],
      [
        "Ġ",
        "our"
      ],
      [
        "Ġb",
        "y"
      ],
      [
        "t",
        "h"
      ],
      [
        "U",
        "C"
      ],
      [
        "Ġa",
        "re"
      ],
      [
        "i",
        "l"
      ],
      [
        "IN",
        "G"
      ],
      [
        "Ġn",
        "e"
      ],
      [
        "Ġk",
        "n"
      ],
      [
        "r",
        "om"
      ],
      [
        "h",
        "o"
      ],
      [
        "Ġ",
        "v"
      ],
      [
        "ĠT",
        "hat"
      ],
      [
        "E",
        "R"
      ],
      [
        "O",
        "R"
      ],
      [
        "a",
        "st"
      ],
      [
        "c",
        "t"
      ],
      [
        "ou",
        "s"
      ],
      [
        "Ġw",
        "hat"
      ],
      [
        "Ġs",
        "h"
      ],
      [
        "i",
        "ght"
      ],
      [
        "u",
        "l"
      ],
      [
        "E",
        "T"
      ],
      [
        "an",
        "t"
      ],
      [
        "Ġu",
        "p"
      ],
      [
        "Ġg",
        "ood"
      ],
      [
        "se",
        "l"
      ],
      [
        "q",
        "u"
      ],
      [
        "ĠB",
        "ut"
      ],
      [
        "ar",
        "t"
      ],
      [
        "r",
        "ow"
      ],
      [
        "in",
        "e"
      ],
      [
        "Ġc",
        "om"
      ],
      [
        "at",
        "h"
      ],
      [
        "Ġm",
        "u"
      ],
      [
        "Ġl",
        "ord"
      ],
      [
        "hi",
        "ch"
      ],
      [
        "n",
        "t"
      ],
      [
        "Ġp",
        "r"
      ],
      [
        "Ġm",
        "an"
      ],
      [
        "'",
        "ll"
      ],
      [
        "Ġa",
        "t"
      ],
      [
        "Ġ",
        "V"
      ],
      [
        "on",
        "e"
      ],
      [
        "Ġw",
        "he"
      ],
      [
        "Ġc",
        "on"
      ],
      [
        "ĠW",
        "hat"
      ],
      [
        "Ġa",
        "m"
      ],
      [
        "e",
        "nd"
      ],
      [
        "i",
        "c"
      ],
      [
        "E",
        "S"
      ],
      [
        "b",
        "le"
      ],
      [
        "r",
        "y"
      ],
      [
        "Ġf",
        "rom"
      ],
      [
        "on",
        "g"
      ],
      [
        "i",
        "e"
      ],
      [
        "Ġs",
        "he"
      ],
      [
        "Ġb",
        "l"
      ],
      [
        "i",
        "ve"
      ],
      [
        "v",
        "en"
      ],
      [
        "Ġg",
        "o"
      ],
      [
        "Ġm",
        "ore"
      ],
      [
        "ĠF",
        "or"
      ],
      [
        "Ġthe",
        "m"
      ],
      [
        "e",
        "m"
      ],
      [
        "Ġw",
        "as"
      ],
      [
        "I",
        "C"
      ],
      [
        "ou",
        "t"
      ],
      [
        "a",
        "u"
      ],
      [
        "Ġs",
        "ir"
      ],
      [
        "ot",
        "her"
      ],
      [
        "a",
        "re"
      ],
      [
        "ot",
        "h"
      ],
      [
        "o",
        "l"
      ],
      [
        "Ġ",
        "if"
      ],
      [
        "Ġn",
        "ow"
      ],
      [
        "ĠH",
        "e"
      ],
      [
        "Ġ",
        "hat"
      ],
      [
        "Ġthe",
        "re"
      ],
      [
        "Ġw",
        "ould"
      ],
      [
        "A",
        "N"
      ],
      [
        "o",
        "st"
      ],
      [
        "Ġkn",
        "ow"
      ],
      [
        "Ġc",
        "an"
      ],
      [
        "L",
        "O"
      ],
      [
        "in",
        "d"
      ],
      [
        "er",
        "s"
      ],
      [
        "I",
        "US"
      ],
      [
        "e",
        "p"
      ],
      [
        "sel",
        "f"
      ],
      [
        "Ġs",
        "ay"
      ],
      [
        "AR",
        "D"
      ],
      [
        "ĠK",
        "ING"
      ],
      [
        "at",
        "her"
      ],
      [
        "o",
        "nd"
      ],
      [
        "re",
        "s"
      ],
      [
        "at",
        "e"
      ],
      [
        "f",
        "e"
      ],
      [
        "Ġs",
        "w"
      ],
      [
        "Ġhe",
        "re"
      ],
      [
        "Ġlo",
        "ve"
      ],
      [
        "Ġthe",
        "ir"
      ],
      [
        "Ġ",
        "or"
      ],
      [
        "Ġt",
        "han"
      ],
      [
        "ĠM",
        "y"
      ],
      [
        "Ġb",
        "r"
      ],
      [
        "p",
        "p"
      ],
      [
        "-",
        "-"
      ],
      [
        "Ġthe",
        "y"
      ],
      [
        "Ġu",
        "s"
      ],
      [
        "Ġk",
        "ing"
      ],
      [
        "Ġthe",
        "n"
      ],
      [
        "a",
        "ll"
      ],
      [
        "Ġa",
        "r"
      ],
      [
        "o",
        "d"
      ],
      [
        "Ġl",
        "et"
      ],
      [
        "Ġu",
        "n"
      ],
      [
        "i",
        "g"
      ],
      [
        "Ġw",
        "or"
      ],
      [
        "u",
        "re"
      ],
      [
        "in",
        "k"
      ],
      [
        "Ġm",
        "ay"
      ],
      [
        "h",
        "y"
      ],
      [
        "Ġc",
        "ome"
      ],
      [
        "am",
        "e"
      ],
      [
        "f",
        "ore"
      ],
      [
        "or",
        "t"
      ],
      [
        "ĠA",
        "s"
      ],
      [
        "Ġ",
        "qu"
      ],
      [
        "oo",
        "k"
      ],
      [
        "Ġwe",
        "ll"
      ],
      [
        "e",
        "l"
      ],
      [
        "is",
        "h"
      ],
      [
        "L",
        "I"
      ],
      [
        "ĠW",
        "he"
      ],
      [
        "Ġ",
        "j"
      ],
      [
        "K",
        "E"
      ],
      [
        "v",
        "es"
      ],
      [
        "Ġon",
        "e"
      ],
      [
        "Ġhat",
        "h"
      ],
      [
        "ir",
        "st"
      ],
      [
        "Ġm",
        "ake"
      ],
      [
        "ĠY",
        "ou"
      ],
      [
        "Ġg",
        "ra"
      ],
      [
        "re",
        "at"
      ],
      [
        "a",
        "k"
      ],
      [
        "n",
        "g"
      ],
      [
        "Ġmu",
        "st"
      ],
      [
        "g",
        "ain"
      ],
      [
        "ou",
        "nd"
      ],
      [
        "Ġwe",
        "re"
      ],
      [
        "Ġh",
        "o"
      ],
      [
        "Ġse",
        "e"
      ],
      [
        "Ġsh",
        "ould"
      ],
      [
        "Ġli",
        "ke"
      ],
      [
        "c",
        "i"
      ],
      [
        "Ġp",
        "ro"
      ],
      [
        "u",
        "e"
      ],
      [
        "ea",
        "k"
      ],
      [
        "T",
        "IO"
      ],
      [
        "Ġs",
        "a"
      ],
      [
        "it",
        "y"
      ],
      [
        "Ġm",
        "ad"
      ],
      [
        "Ġp",
        "l"
      ],
      [
        "Ġf",
        "ather"
      ],
      [
        "Ġha",
        "d"
      ],
      [
        "u",
        "m"
      ],
      [
        "Ġd",
        "id"
      ],
      [
        "Ġup",
        "on"
      ],
      [
        "O",
        "M"
      ],
      [
        "im",
        "e"
      ],
      [
        "p",
        "e"
      ],
      [
        "Ġto",
        "o"
      ],
      [
        "i",
        "ce"
      ],
      [
        "O",
        "N"
      ],
      [
        "Ġ",
        "J"
      ],
      [
        "Ġd",
        "is"
      ],
      [
        "en",
        "ce"
      ],
      [
        "Ġde",
        "ath"
      ],
      [
        "w",
        "ard"
      ],
      [
        "Ġw",
        "hich"
      ],
      [
        "Ġ",
        "en"
      ],
      [
        "ĠI",
        "f"
      ],
      [
        "o",
        "se"
      ],
      [
        "ow",
        "n"
      ],
      [
        "Ġsp",
        "eak"
      ],
      [
        "Ġp",
        "o"
      ],
      [
        "Ġwhe",
        "n"
      ],
      [
        "f",
        "ul"
      ],
      [
        "Ġ",
        "out"
      ],
      [
        "Ġf",
        "ri"
      ],
      [
        "Ġh",
        "ow"
      ],
      [
        "ent",
        "le"
      ],
      [
        "i",
        "o"
      ],
      [
        "p",
        "t"
      ],
      [
        "u",
        "n"
      ],
      [
        "Ġa",
        "gain"
      ],
      [
        "IC",
        "H"
      ],
      [
        "ĠR",
        "ICH"
      ],
      [
        "Ġt",
        "ru"
      ],
      [
        "O",
        "L"
      ],
      [
        "U",
        "KE"
      ],
      [
        "d",
        "e"
      ],
      [
        "ĠD",
        "UKE"
      ],
      [
        "m",
        "an"
      ],
      [
        "Ġhe",
        "art"
      ],
      [
        "Ġy",
        "et"
      ],
      [
        "i",
        "ck"
      ],
      [
        "Ġha",
        "nd"
      ],
      [
        "ver",
        "y"
      ],
      [
        "ĠW",
        "ith"
      ],
      [
        "ĠRICH",
        "ARD"
      ],
      [
        "Ġw",
        "ho"
      ],
      [
        "EN",
        "TIO"
      ],
      [
        "ĠTh",
        "ou"
      ],
      [
        "Ġs",
        "ome"
      ],
      [
        "ĠW",
        "e"
      ],
      [
        "ig",
        "n"
      ],
      [
        "an",
        "ce"
      ],
      [
        "ĠW",
        "hich"
      ],
      [
        "Ġm",
        "ar"
      ],
      [
        "Ġh",
        "on"
      ],
      [
        "n",
        "ce"
      ],
      [
        "i",
        "es"
      ],
      [
        "Ġ",
        "r"
      ],
      [
        "Ġs",
        "on"
      ],
      [
        "ĠI",
        "n"
      ],
      [
        "i",
        "re"
      ],
      [
        "Ġm",
        "ine"
      ],
      [
        "Ġof",
        "f"
      ],
      [
        "is",
        "t"
      ],
      [
        "Ġa",
        "l"
      ],
      [
        "in",
        "ce"
      ],
      [
        "IN",
        "C"
      ],
      [
        "ha",
        "r"
      ],
      [
        "or",
        "n"
      ],
      [
        "a",
        "ck"
      ],
      [
        "ĠW",
        "hy"
      ],
      [
        "'",
        "t"
      ],
      [
        "w",
        "n"
      ],
      [
        "ĠO",
        "f"
      ],
      [
        "ĠG",
        "od"
      ],
      [
        "E",
        "L"
      ],
      [
        "Ġt",
        "ime"
      ],
      [
        "Ġhe",
        "a"
      ],
      [
        "Ġsu",
        "ch"
      ],
      [
        "o",
        "y"
      ],
      [
        "ĠF",
        "irst"
      ],
      [
        "Ġhe",
        "ar"
      ],
      [
        "ĠS",
        "o"
      ],
      [
        "n",
        "ess"
      ],
      [
        "Ġbr",
        "other"
      ],
      [
        "e",
        "c"
      ],
      [
        "Ġthe",
        "se"
      ],
      [
        "ĠC",
        "l"
      ],
      [
        "Ġbl",
        "ood"
      ],
      [
        "Ġa",
        "b"
      ],
      [
        "it",
        "her"
      ],
      [
        "Ġe",
        "x"
      ],
      [
        "Ġg",
        "ive"
      ],
      [
        "U",
        "E"
      ],
      [
        "Ġf",
        "o"
      ],
      [
        "ĠI",
        "s"
      ],
      [
        "Ġd",
        "ay"
      ],
      [
        "ĠN",
        "o"
      ],
      [
        "Ġe",
        "ar"
      ],
      [
        "Ġ",
        "ro"
      ],
      [
        "Ġl",
        "ook"
      ],
      [
        "Ġth",
        "ink"
      ],
      [
        "Ġt",
        "ell"
      ],
      [
        "ĠI",
        "I"
      ],
      [
        "ĠH",
        "ow"
      ],
      [
        "Ġli",
        "fe"
      ],
      [
        "T",
        "ER"
      ],
      [
        "is",
        "e"
      ],
      [
        "Ġe",
        "y"
      ],
      [
        "A",
        "B"
      ],
      [
        "e",
        "et"
      ],
      [
        "Ġwhe",
        "re"
      ],
      [
        "Ġt",
        "ake"
      ],
      [
        "Ġw",
        "ord"
      ],
      [
        "UC",
        "H"
      ],
      [
        "ou",
        "l"
      ],
      [
        "Ġfri",
        "end"
      ],
      [
        "t",
        "her"
      ],
      [
        "Ġ",
        "Q"
      ],
      [
        "ĠTh",
        "is"
      ],
      [
        "a",
        "g"
      ],
      [
        "a",
        "ge"
      ],
      [
        "Ġd",
        "es"
      ],
      [
        "ĠG",
        "LO"
      ],
      [
        "UC",
        "ES"
      ],
      [
        "ĠGLO",
        "UCES"
      ],
      [
        "ĠGLOUCES",
        "TER"
      ],
      [
        "e",
        "f"
      ],
      [
        "e",
        "en"
      ],
      [
        "er",
        "v"
      ],
      [
        "ĠC",
        "ome"
      ],
      [
        "u",
        "st"
      ],
      [
        "Ġg",
        "entle"
      ],
      [
        "ad",
        "y"
      ],
      [
        "row",
        "n"
      ],
      [
        "ing",
        "s"
      ],
      [
        "ĠL",
        "ord"
      ],
      [
        "Ġ",
        "U"
      ],
      [
        "Ġ",
        "ri"
      ],
      [
        "ur",
        "se"
      ],
      [
        "a",
        "ve"
      ],
      [
        "R",
        "Y"
      ],
      [
        "a",
        "se"
      ],
      [
        "ĠR",
        "ome"
      ],
      [
        "t",
        "is"
      ],
      [
        "Ġl",
        "ea"
      ],
      [
        "ĠV",
        "INC"
      ],
      [
        "Ġar",
        "t"
      ],
      [
        "UE",
        "EN"
      ],
      [
        "ĠQ",
        "UEEN"
      ],
      [
        "ĠVINC",
        "ENTIO"
      ],
      [
        "w",
        "ay"
      ],
      [
        "Ġw",
        "ar"
      ],
      [
        "ĠO",
        "F"
      ],
      [
        "Ġm",
        "ost"
      ],
      [
        "Ġhon",
        "our"
      ],
      [
        "Ġf",
        "l"
      ],
      [
        "ĠM",
        "ar"
      ],
      [
        "Ġmu",
        "ch"
      ],
      [
        "U",
        "M"
      ],
      [
        "L",
        "AN"
      ],
      [
        "Ġs",
        "l"
      ],
      [
        "ĠWhe",
        "re"
      ],
      [
        "A",
        "M"
      ],
      [
        "ur",
        "n"
      ],
      [
        "Ġmad",
        "e"
      ],
      [
        "Ġt",
        "w"
      ],
      [
        "m",
        "ent"
      ],
      [
        "Ġf",
        "ear"
      ],
      [
        "Ġha",
        "st"
      ],
      [
        "ĠN",
        "ow"
      ],
      [
        "ĠW",
        "ho"
      ],
      [
        "Ġbe",
        "t"
      ],
      [
        "ĠH",
        "EN"
      ],
      [
        "au",
        "ght"
      ],
      [
        "ĠHEN",
        "RY"
      ],
      [
        "Ġc",
        "ou"
      ],
      [
        "Ġg",
        "reat"
      ],
      [
        "ĠB",
        "e"
      ],
      [
        "b",
        "er"
      ],
      [
        "n",
        "ot"
      ],
      [
        "Ġb",
        "re"
      ],
      [
        "ve",
        "d"
      ],
      [
        "Ġne",
        "ver"
      ],
      [
        "Ġfa",
        "ir"
      ],
      [
        "Ġne",
        "w"
      ],
      [
        "c",
        "c"
      ],
      [
        "e",
        "e"
      ],
      [
        "s",
        "s"
      ],
      [
        "Ġa",
        "f"
      ],
      [
        "ow",
        "er"
      ],
      [
        "a",
        "p"
      ],
      [
        "i",
        "gh"
      ],
      [
        "Ġm",
        "en"
      ],
      [
        "ĠA",
        "N"
      ],
      [
        "t",
        "le"
      ],
      [
        "or",
        "row"
      ],
      [
        "ĠY",
        "our"
      ],
      [
        "ast",
        "er"
      ],
      [
        "u",
        "ke"
      ],
      [
        "ĠI",
        "t"
      ],
      [
        "i",
        "z"
      ],
      [
        "ou",
        "gh"
      ],
      [
        "ĠY",
        "OR"
      ],
      [
        "ĠYOR",
        "K"
      ],
      [
        "Ġc",
        "all"
      ],
      [
        "Ġp",
        "art"
      ],
      [
        "Ġan",
        "y"
      ],
      [
        "Ġ",
        "ra"
      ],
      [
        "at",
        "ion"
      ],
      [
        "ĠO",
        "r"
      ],
      [
        "IN",
        "IUS"
      ],
      [
        "S",
        "T"
      ],
      [
        "Ġa",
        "d"
      ],
      [
        "re",
        "e"
      ],
      [
        "id",
        "e"
      ],
      [
        "Ġcom",
        "m"
      ],
      [
        "Ġcan",
        "not"
      ],
      [
        "Ġp",
        "re"
      ],
      [
        "Ġst",
        "and"
      ],
      [
        "Ġtru",
        "e"
      ],
      [
        "Ġhea",
        "ven"
      ],
      [
        "Ġn",
        "ame"
      ],
      [
        "ĠP",
        "ET"
      ],
      [
        "A",
        "U"
      ],
      [
        "Ġbe",
        "en"
      ],
      [
        "Ġpr",
        "ay"
      ],
      [
        "h",
        "ing"
      ],
      [
        "o",
        "ld"
      ],
      [
        "Ġc",
        "l"
      ],
      [
        "Ġsw",
        "eet"
      ],
      [
        "D",
        "W"
      ],
      [
        "Ġp",
        "er"
      ],
      [
        "Ġp",
        "le"
      ],
      [
        "ĠE",
        "DW"
      ],
      [
        "ĠEDW",
        "ARD"
      ],
      [
        "p",
        "le"
      ],
      [
        "ĠG",
        "R"
      ],
      [
        ",",
        "--"
      ],
      [
        "Ġd",
        "oth"
      ],
      [
        "Ġno",
        "ble"
      ],
      [
        "Ġw",
        "r"
      ],
      [
        "Ġo",
        "wn"
      ],
      [
        "ear",
        "s"
      ],
      [
        "ĠL",
        "UC"
      ],
      [
        "ou",
        "se"
      ],
      [
        "Ġd",
        "one"
      ],
      [
        "ĠThe",
        "re"
      ],
      [
        "u",
        "ll"
      ],
      [
        "Ġt",
        "r"
      ],
      [
        "Ġw",
        "ay"
      ],
      [
        "Ġo",
        "ther"
      ],
      [
        "Ġhe",
        "ad"
      ],
      [
        "if",
        "e"
      ],
      [
        "R",
        "O"
      ],
      [
        "a",
        "w"
      ],
      [
        "Ġme",
        "an"
      ],
      [
        "Ġp",
        "res"
      ],
      [
        "U",
        "T"
      ],
      [
        "Ġbe",
        "ar"
      ],
      [
        "ĠE",
        "d"
      ],
      [
        "Ġs",
        "c"
      ],
      [
        "re",
        "d"
      ],
      [
        "Ġn",
        "or"
      ],
      [
        "A",
        "P"
      ],
      [
        "E",
        "O"
      ],
      [
        "Ġ",
        "very"
      ],
      [
        "Ġs",
        "oul"
      ],
      [
        "ĠA",
        "y"
      ],
      [
        "ĠR",
        "OM"
      ],
      [
        "ĠWhe",
        "n"
      ],
      [
        "ĠEd",
        "ward"
      ],
      [
        "ĠROM",
        "EO"
      ],
      [
        "v",
        "ing"
      ],
      [
        "Ġb",
        "oth"
      ],
      [
        "Ġn",
        "ight"
      ],
      [
        "ĠA",
        "n"
      ],
      [
        "Ġbe",
        "fore"
      ],
      [
        "ĠM",
        "EN"
      ],
      [
        "EN",
        "IUS"
      ],
      [
        "as",
        "s"
      ],
      [
        "ain",
        "t"
      ],
      [
        "Ġwor",
        "ld"
      ],
      [
        "ĠMEN",
        "ENIUS"
      ],
      [
        "a",
        "ce"
      ],
      [
        "g",
        "er"
      ],
      [
        "ĠB",
        "y"
      ],
      [
        "au",
        "se"
      ],
      [
        "Ġqu",
        "een"
      ],
      [
        "l",
        "i"
      ],
      [
        "ĠL",
        "et"
      ],
      [
        "T",
        "H"
      ],
      [
        "Ġm",
        "o"
      ],
      [
        "Ġc",
        "hi"
      ],
      [
        "aught",
        "er"
      ],
      [
        "R",
        "UCH"
      ],
      [
        "ĠThe",
        "n"
      ],
      [
        "ĠHe",
        "re"
      ],
      [
        "ĠPET",
        "RUCH"
      ],
      [
        "ĠPETRUCH",
        "IO"
      ],
      [
        "a",
        "ble"
      ],
      [
        "Ġd",
        "own"
      ],
      [
        "Ġde",
        "ad"
      ],
      [
        "Ġcon",
        "t"
      ],
      [
        "T",
        "ES"
      ],
      [
        "Ġa",
        "pp"
      ],
      [
        "Ġw",
        "h"
      ],
      [
        "it",
        "e"
      ],
      [
        "Ġ",
        "ke"
      ],
      [
        "Ġbe",
        "ing"
      ],
      [
        "Ġre",
        "m"
      ],
      [
        "p",
        "er"
      ],
      [
        "Ġmy",
        "self"
      ],
      [
        "a",
        "b"
      ],
      [
        "l",
        "es"
      ],
      [
        "ĠT",
        "han"
      ],
      [
        "ĠM",
        "AR"
      ],
      [
        "Ġbe",
        "g"
      ],
      [
        "Ġar",
        "m"
      ],
      [
        "Ġth",
        "us"
      ],
      [
        "ĠC",
        "OR"
      ],
      [
        "IO",
        "LAN"
      ],
      [
        "il",
        "t"
      ],
      [
        "Ġlea",
        "ve"
      ],
      [
        "ĠCOR",
        "IOLAN"
      ],
      [
        "ĠCORIOLAN",
        "US"
      ],
      [
        "ĠS",
        "ec"
      ],
      [
        "Ġgra",
        "ce"
      ],
      [
        "ĠSec",
        "ond"
      ],
      [
        "Ġu",
        "nt"
      ],
      [
        "ct",
        "ion"
      ],
      [
        "ĠN",
        "or"
      ],
      [
        "res",
        "s"
      ],
      [
        "Ġey",
        "es"
      ],
      [
        "Ġ",
        "im"
      ],
      [
        "Ġm",
        "other"
      ],
      [
        "ĠL",
        "E"
      ],
      [
        "l",
        "ess"
      ],
      [
        "Ġm",
        "a"
      ],
      [
        "Ġo",
        "ld"
      ],
      [
        "l",
        "and"
      ],
      [
        "r",
        "an"
      ],
      [
        "Ġre",
        "p"
      ],
      [
        "IN",
        "A"
      ],
      [
        "it",
        "iz"
      ],
      [
        "Ġe",
        "ver"
      ],
      [
        "itiz",
        "en"
      ],
      [
        "l",
        "o"
      ],
      [
        "p",
        "s"
      ],
      [
        "s",
        "w"
      ],
      [
        "Ġw",
        "ife"
      ],
      [
        "Ġl",
        "ong"
      ],
      [
        "Ġin",
        "t"
      ],
      [
        "ĠS",
        "he"
      ],
      [
        "Ġli",
        "ve"
      ],
      [
        "Ġchi",
        "ld"
      ],
      [
        "Ġw",
        "om"
      ],
      [
        "Ġpo",
        "or"
      ],
      [
        "Ġfriend",
        "s"
      ],
      [
        "Ġa",
        "way"
      ],
      [
        "Ġcon",
        "s"
      ],
      [
        "ĠII",
        "I"
      ],
      [
        "ĠG",
        "o"
      ],
      [
        "Ġm",
        "ight"
      ],
      [
        "f",
        "ord"
      ],
      [
        "nd",
        "er"
      ],
      [
        "Ġd",
        "ie"
      ],
      [
        "ĠS",
        "ir"
      ],
      [
        "Ġst",
        "ay"
      ],
      [
        "ea",
        "ce"
      ],
      [
        "Ġcom",
        "es"
      ],
      [
        "k",
        "s"
      ],
      [
        "w",
        "ick"
      ],
      [
        "ou",
        "d"
      ],
      [
        "at",
        "ch"
      ],
      [
        "ĠW",
        "ar"
      ],
      [
        "le",
        "d"
      ],
      [
        "Ġman",
        "y"
      ],
      [
        "Ġ",
        "ru"
      ],
      [
        "Ġh",
        "ouse"
      ],
      [
        "Ġre",
        "st"
      ],
      [
        "Ġc",
        "rown"
      ],
      [
        "Ġp",
        "e"
      ],
      [
        "ĠWar",
        "wick"
      ],
      [
        "f",
        "f"
      ],
      [
        "Ġc",
        "our"
      ],
      [
        "Ġl",
        "e"
      ],
      [
        "ow",
        "s"
      ],
      [
        "T",
        "is"
      ],
      [
        "c",
        "ome"
      ],
      [
        "Ġ",
        "ent"
      ],
      [
        "is",
        "on"
      ],
      [
        "Ġha",
        "r"
      ],
      [
        "ĠH",
        "is"
      ],
      [
        "Ġthou",
        "ght"
      ],
      [
        "L",
        "A"
      ],
      [
        "S",
        "AB"
      ],
      [
        "ĠI",
        "SAB"
      ],
      [
        "Ġli",
        "e"
      ],
      [
        "EL",
        "LA"
      ],
      [
        "ĠISAB",
        "ELLA"
      ],
      [
        "i",
        "an"
      ],
      [
        "u",
        "ck"
      ],
      [
        "is",
        "s"
      ],
      [
        "er",
        "c"
      ],
      [
        "R",
        "AN"
      ],
      [
        "Ġs",
        "et"
      ],
      [
        "Ġd",
        "aughter"
      ],
      [
        "c",
        "he"
      ],
      [
        "ĠW",
        "ell"
      ],
      [
        "Ġnot",
        "hing"
      ],
      [
        "ĠRome",
        "o"
      ],
      [
        "U",
        "LI"
      ],
      [
        "Ġt",
        "ong"
      ],
      [
        "or",
        "s"
      ],
      [
        "at",
        "ter"
      ],
      [
        "ON",
        "TES"
      ],
      [
        "ĠJ",
        "ULI"
      ],
      [
        "Ġbet",
        "ter"
      ],
      [
        "ĠLE",
        "ONTES"
      ],
      [
        "ĠJULI",
        "ET"
      ],
      [
        "it",
        "tle"
      ],
      [
        "Ġg",
        "one"
      ],
      [
        "ĠS",
        "t"
      ],
      [
        "ĠN",
        "ay"
      ],
      [
        "Ġpr",
        "ince"
      ],
      [
        "ĠV",
        "I"
      ],
      [
        "r",
        "ant"
      ],
      [
        "A",
        "D"
      ],
      [
        "ou",
        "ght"
      ],
      [
        "Ġw",
        "it"
      ],
      [
        "in",
        "t"
      ],
      [
        "ĠL",
        "AD"
      ],
      [
        "ĠLAD",
        "Y"
      ],
      [
        "A",
        "L"
      ],
      [
        "C",
        "E"
      ],
      [
        "w",
        "ell"
      ],
      [
        "Ġt",
        "ri"
      ],
      [
        "EN",
        "CE"
      ],
      [
        "i",
        "ed"
      ],
      [
        "m",
        "e"
      ],
      [
        "ĠP",
        "ro"
      ],
      [
        "Ġnew",
        "s"
      ],
      [
        "Ġke",
        "ep"
      ],
      [
        "o",
        "s"
      ],
      [
        "Ġs",
        "le"
      ],
      [
        "Ġb",
        "est"
      ],
      [
        "Ġre",
        "s"
      ],
      [
        "Ġagain",
        "st"
      ],
      [
        "c",
        "es"
      ],
      [
        "f",
        "or"
      ],
      [
        "i",
        "ous"
      ],
      [
        "ha",
        "ll"
      ],
      [
        "Ġth",
        "ose"
      ],
      [
        "ĠS",
        "erv"
      ],
      [
        "i",
        "er"
      ],
      [
        "Ġa",
        "cc"
      ],
      [
        "Ġl",
        "ittle"
      ],
      [
        "Ġhe",
        "nce"
      ],
      [
        "Ġg",
        "ri"
      ],
      [
        "ĠS",
        "IC"
      ],
      [
        "ĠC",
        "itizen"
      ],
      [
        "oo",
        "l"
      ],
      [
        "Ġcom",
        "p"
      ],
      [
        "har",
        "d"
      ],
      [
        "ĠSIC",
        "INIUS"
      ],
      [
        "Ġth",
        "ing"
      ],
      [
        "Ġh",
        "our"
      ],
      [
        "ĠN",
        "ot"
      ],
      [
        "Ġlord",
        "s"
      ],
      [
        "t",
        "y"
      ],
      [
        "Ġp",
        "ut"
      ],
      [
        "ard",
        "on"
      ],
      [
        "Ġfa",
        "ce"
      ],
      [
        "ak",
        "es"
      ],
      [
        "un",
        "e"
      ],
      [
        "l",
        "se"
      ],
      [
        "ll",
        "ow"
      ],
      [
        "se",
        "d"
      ],
      [
        "Ġe",
        "nd"
      ],
      [
        "ĠO",
        "n"
      ],
      [
        "Ġk",
        "ind"
      ],
      [
        "E",
        "Y"
      ],
      [
        "Ġyou",
        "ng"
      ],
      [
        "Ġst",
        "ill"
      ],
      [
        "ul",
        "t"
      ],
      [
        "Ġtw",
        "o"
      ],
      [
        "re",
        "t"
      ],
      [
        "or",
        "k"
      ],
      [
        "on",
        "t"
      ],
      [
        "Ġp",
        "ri"
      ],
      [
        "Ġhim",
        "self"
      ],
      [
        "ie",
        "ld"
      ],
      [
        "u",
        "d"
      ],
      [
        "Ġp",
        "ur"
      ],
      [
        "Ġp",
        "ower"
      ],
      [
        "al",
        "k"
      ],
      [
        "ĠTh",
        "y"
      ],
      [
        "ĠLUC",
        "IO"
      ],
      [
        "a",
        "le"
      ],
      [
        "in",
        "s"
      ],
      [
        "ĠI",
        "V"
      ],
      [
        "er",
        "t"
      ],
      [
        "Ġc",
        "ha"
      ],
      [
        "ĠR",
        "ic"
      ],
      [
        "ĠRic",
        "hard"
      ],
      [
        "e",
        "w"
      ],
      [
        "ĠC",
        "L"
      ],
      [
        "Ġsu",
        "b"
      ],
      [
        "Ġthere",
        "fore"
      ],
      [
        "Ġcou",
        "nt"
      ],
      [
        "T",
        "I"
      ],
      [
        "c",
        "l"
      ],
      [
        "f",
        "t"
      ],
      [
        "in",
        "ess"
      ],
      [
        "Ġf",
        "irst"
      ],
      [
        "Ġp",
        "eace"
      ],
      [
        "Ġg",
        "u"
      ],
      [
        "Ġe",
        "lse"
      ],
      [
        "ri",
        "ed"
      ],
      [
        "Ġde",
        "ar"
      ],
      [
        "ci",
        "ous"
      ],
      [
        "Ġunt",
        "o"
      ],
      [
        "Ġt",
        "ill"
      ],
      [
        "Ġs",
        "m"
      ],
      [
        "Ġd",
        "uke"
      ],
      [
        "Ġc",
        "ould"
      ],
      [
        "ĠW",
        "ill"
      ],
      [
        "ĠB",
        "R"
      ],
      [
        "ĠH",
        "ave"
      ],
      [
        "as",
        "on"
      ],
      [
        "hi",
        "le"
      ],
      [
        "a",
        "il"
      ],
      [
        "e",
        "ct"
      ],
      [
        "i",
        "le"
      ],
      [
        "Ġt",
        "ra"
      ],
      [
        "Ġb",
        "ack"
      ],
      [
        "Ġc",
        "o"
      ],
      [
        "Ġh",
        "us"
      ],
      [
        "ut",
        "y"
      ],
      [
        "Ġthou",
        "gh"
      ],
      [
        "Ġword",
        "s"
      ],
      [
        "Z",
        "AB"
      ],
      [
        "Ġt",
        "re"
      ],
      [
        "Ġb",
        "id"
      ],
      [
        "Ġf",
        "ell"
      ],
      [
        "Ġf",
        "ind"
      ],
      [
        "Ġd",
        "re"
      ],
      [
        "ĠY",
        "ork"
      ],
      [
        "ĠE",
        "LI"
      ],
      [
        "Ġne",
        "ed"
      ],
      [
        "ET",
        "H"
      ],
      [
        "Ġear",
        "th"
      ],
      [
        "Ġtong",
        "ue"
      ],
      [
        "ZAB",
        "ETH"
      ],
      [
        "ĠELI",
        "ZABETH"
      ],
      [
        "b",
        "and"
      ],
      [
        "i",
        "us"
      ],
      [
        "o",
        "ple"
      ],
      [
        "y",
        "al"
      ],
      [
        "Ġl",
        "ady"
      ],
      [
        "Ġth",
        "ine"
      ],
      [
        "I",
        "AN"
      ],
      [
        "m",
        "en"
      ],
      [
        "Ġb",
        "ra"
      ],
      [
        "or",
        "se"
      ],
      [
        "Ġh",
        "ome"
      ],
      [
        "Ġhe",
        "l"
      ],
      [
        "Ġfor",
        "th"
      ],
      [
        "Ġse",
        "em"
      ],
      [
        "Ġho",
        "pe"
      ],
      [
        "ee",
        "ch"
      ],
      [
        "r",
        "ay"
      ],
      [
        "en",
        "ry"
      ],
      [
        "ar",
        "k"
      ],
      [
        "Ġh",
        "igh"
      ],
      [
        "et",
        "h"
      ],
      [
        "ĠH",
        "enry"
      ],
      [
        "ĠY",
        "et"
      ],
      [
        "Ġhus",
        "band"
      ],
      [
        "ve",
        "re"
      ],
      [
        "ĠG",
        "ood"
      ],
      [
        "Ġri",
        "ght"
      ],
      [
        "g",
        "et"
      ],
      [
        "Ġc",
        "han"
      ],
      [
        "W",
        "IC"
      ],
      [
        "t",
        "w"
      ],
      [
        "Ġm",
        "ind"
      ],
      [
        "Ġb",
        "an"
      ],
      [
        "ĠW",
        "AR"
      ],
      [
        "ut",
        "h"
      ],
      [
        "Ġpe",
        "ople"
      ],
      [
        "WIC",
        "K"
      ],
      [
        "ĠWAR",
        "WICK"
      ],
      [
        "A",
        "ST"
      ],
      [
        "a",
        "ch"
      ],
      [
        "d",
        "s"
      ],
      [
        "i",
        "x"
      ],
      [
        "re",
        "r"
      ],
      [
        "is",
        "ter"
      ],
      [
        "Ġc",
        "he"
      ],
      [
        "Ġc",
        "har"
      ],
      [
        "ĠA",
        "ll"
      ],
      [
        "ĠS",
        "hall"
      ],
      [
        "hi",
        "p"
      ],
      [
        "ĠD",
        "o"
      ],
      [
        "Ġsh",
        "ow"
      ],
      [
        "Ġcon",
        "f"
      ],
      [
        "g",
        "ed"
      ],
      [
        "Ġb",
        "ri"
      ],
      [
        "Ġhand",
        "s"
      ],
      [
        "H",
        "AM"
      ],
      [
        "f",
        "ort"
      ],
      [
        "Ġm",
        "aster"
      ],
      [
        "Ġw",
        "hy"
      ],
      [
        "Ġc",
        "ause"
      ],
      [
        "ĠN",
        "urse"
      ],
      [
        "Ġj",
        "oy"
      ],
      [
        "Ġim",
        "p"
      ],
      [
        "L",
        "ET"
      ],
      [
        "U",
        "LET"
      ],
      [
        "Ġs",
        "erv"
      ],
      [
        "Ġm",
        "ist"
      ],
      [
        "Ġn",
        "one"
      ],
      [
        "Ġl",
        "aw"
      ],
      [
        "Ġg",
        "l"
      ],
      [
        "ĠC",
        "AP"
      ],
      [
        "ĠThe",
        "y"
      ],
      [
        "Ġon",
        "ce"
      ],
      [
        "Ġsa",
        "id"
      ],
      [
        "ĠCAP",
        "ULET"
      ],
      [
        "Ġfor",
        "t"
      ],
      [
        "Ġe",
        "very"
      ],
      [
        "G",
        "E"
      ],
      [
        "I",
        "L"
      ],
      [
        "M",
        "IO"
      ],
      [
        "re",
        "n"
      ],
      [
        "Ġb",
        "od"
      ],
      [
        "ous",
        "in"
      ],
      [
        "Ġbr",
        "ing"
      ],
      [
        "R",
        "I"
      ],
      [
        "b",
        "t"
      ],
      [
        "Ġd",
        "ou"
      ],
      [
        "K",
        "ING"
      ],
      [
        "e",
        "ed"
      ],
      [
        "Ġp",
        "ass"
      ],
      [
        "at",
        "es"
      ],
      [
        "ĠB",
        "UC"
      ],
      [
        "Ġple",
        "ase"
      ],
      [
        "UT",
        "US"
      ],
      [
        "ĠBR",
        "UTUS"
      ],
      [
        "KING",
        "HAM"
      ],
      [
        "ĠBUC",
        "KINGHAM"
      ],
      [
        "B",
        "RO"
      ],
      [
        "i",
        "et"
      ],
      [
        "l",
        "t"
      ],
      [
        "ĠT",
        "RAN"
      ],
      [
        "ir",
        "d"
      ],
      [
        "ĠB",
        "OL"
      ],
      [
        "ĠF",
        "rom"
      ],
      [
        "Ġli",
        "ght"
      ],
      [
        "ING",
        "BRO"
      ],
      [
        "ES",
        "S"
      ],
      [
        "ĠTRAN",
        "IO"
      ],
      [
        "ĠBOL",
        "INGBRO"
      ],
      [
        "ĠBOLINGBRO",
        "KE"
      ],
      [
        "e",
        "el"
      ],
      [
        "v",
        "ost"
      ],
      [
        "Ġt",
        "ears"
      ],
      [
        "Ġw",
        "o"
      ],
      [
        "Ġb",
        "es"
      ],
      [
        "Ġn",
        "at"
      ],
      [
        "Ġth",
        "r"
      ],
      [
        "Ġwho",
        "se"
      ],
      [
        "Ġro",
        "yal"
      ],
      [
        "Ġpres",
        "ent"
      ],
      [
        "sw",
        "er"
      ],
      [
        "c",
        "le"
      ],
      [
        "m",
        "b"
      ],
      [
        "Ġs",
        "ince"
      ],
      [
        "Ġb",
        "oy"
      ],
      [
        "it",
        "s"
      ],
      [
        "Ġc",
        "ame"
      ],
      [
        "ar",
        "y"
      ],
      [
        "ĠO",
        "ur"
      ],
      [
        "Ġj",
        "ust"
      ],
      [
        "l",
        "f"
      ],
      [
        "o",
        "ck"
      ],
      [
        "v",
        "y"
      ],
      [
        "or",
        "y"
      ],
      [
        "Ġf",
        "ull"
      ],
      [
        "Ġp",
        "ardon"
      ],
      [
        "Ġhe",
        "ard"
      ],
      [
        "Ġu",
        "nder"
      ],
      [
        "Ġde",
        "v"
      ],
      [
        "ro",
        "ke"
      ],
      [
        "Ġaf",
        "ter"
      ],
      [
        "Ġwr",
        "ong"
      ],
      [
        "G",
        "AR"
      ],
      [
        "N",
        "E"
      ],
      [
        "p",
        "ose"
      ],
      [
        "Ġl",
        "and"
      ],
      [
        "Ġha",
        "pp"
      ],
      [
        "Ġpl",
        "ace"
      ],
      [
        "ĠMAR",
        "GAR"
      ],
      [
        "ĠMARGAR",
        "ET"
      ],
      [
        "A",
        "TH"
      ],
      [
        "Ġm",
        "is"
      ],
      [
        "Ġl",
        "ast"
      ],
      [
        "en",
        "s"
      ],
      [
        "Ġe",
        "re"
      ],
      [
        "Ġst",
        "ate"
      ],
      [
        "ĠK",
        "ing"
      ],
      [
        "AM",
        "IL"
      ],
      [
        "s",
        "and"
      ],
      [
        "Ġs",
        "orrow"
      ],
      [
        "Ġc",
        "are"
      ],
      [
        "Ġme",
        "et"
      ],
      [
        "Ġk",
        "ill"
      ],
      [
        "Ġho",
        "ld"
      ],
      [
        "c",
        "ent"
      ],
      [
        "it",
        "ion"
      ],
      [
        "Ġthou",
        "sand"
      ],
      [
        "est",
        "y"
      ],
      [
        "OR",
        "D"
      ],
      [
        "Ġey",
        "e"
      ],
      [
        "ĠAN",
        "GE"
      ],
      [
        "ĠGR",
        "E"
      ],
      [
        "Ġwh",
        "om"
      ],
      [
        "Ġhel",
        "p"
      ],
      [
        "ĠANGE",
        "LO"
      ],
      [
        "Ġf",
        "al"
      ],
      [
        "Ġl",
        "ess"
      ],
      [
        "AR",
        "INA"
      ],
      [
        "ĠE",
        "ng"
      ],
      [
        "Ġan",
        "swer"
      ],
      [
        "are",
        "nce"
      ],
      [
        "Ġfo",
        "llow"
      ],
      [
        "S",
        "C"
      ],
      [
        "Ġb",
        "us"
      ],
      [
        "Ġf",
        "ar"
      ],
      [
        "Ġf",
        "ool"
      ],
      [
        "Ġc",
        "h"
      ],
      [
        "Ġh",
        "ither"
      ],
      [
        "Ġp",
        "at"
      ],
      [
        "ce",
        "ive"
      ],
      [
        "ir",
        "t"
      ],
      [
        "ĠS",
        "h"
      ],
      [
        "Ġwe",
        "ep"
      ],
      [
        "Ġsha",
        "me"
      ],
      [
        "Ġsu",
        "n"
      ],
      [
        "ĠK",
        "ATH"
      ],
      [
        "sel",
        "ves"
      ],
      [
        "ci",
        "us"
      ],
      [
        "Ġen",
        "em"
      ],
      [
        "ĠCl",
        "arence"
      ],
      [
        "Ġab",
        "out"
      ],
      [
        "ĠKATH",
        "ARINA"
      ],
      [
        "i",
        "ol"
      ],
      [
        "ur",
        "de"
      ],
      [
        "Ġfa",
        "ll"
      ],
      [
        "Ġgentle",
        "man"
      ],
      [
        "ĠMar",
        "cius"
      ],
      [
        "Ġma",
        "id"
      ],
      [
        "d",
        "ay"
      ],
      [
        "Ġo",
        "b"
      ],
      [
        "as",
        "ure"
      ],
      [
        "Ġint",
        "o"
      ],
      [
        "Ġm",
        "akes"
      ],
      [
        "Ġc",
        "ousin"
      ],
      [
        "ĠE",
        "SC"
      ],
      [
        "Ġhat",
        "e"
      ],
      [
        "Ġgra",
        "cious"
      ],
      [
        "ĠU",
        "n"
      ],
      [
        "ĠU",
        "p"
      ],
      [
        "Ġcou",
        "n"
      ],
      [
        "Ġcour",
        "t"
      ],
      [
        "AL",
        "US"
      ],
      [
        "Ġgri",
        "ef"
      ],
      [
        "ĠESC",
        "ALUS"
      ],
      [
        "a",
        "ir"
      ],
      [
        "j",
        "ect"
      ],
      [
        "ĠA",
        "l"
      ],
      [
        "im",
        "es"
      ],
      [
        "Ġst",
        "ri"
      ],
      [
        "Ġwom",
        "an"
      ],
      [
        "i",
        "v"
      ],
      [
        "o",
        "ve"
      ],
      [
        "Ġt",
        "urn"
      ],
      [
        "ĠH",
        "ath"
      ],
      [
        "Ġst",
        "re"
      ],
      [
        "Ġcom",
        "fort"
      ],
      [
        "Ġwor",
        "th"
      ],
      [
        "i",
        "ld"
      ],
      [
        "l",
        "ing"
      ],
      [
        "Ġt",
        "alk"
      ],
      [
        "Ġw",
        "ilt"
      ],
      [
        "on",
        "s"
      ],
      [
        "Ġh",
        "um"
      ],
      [
        "Ġbe",
        "d"
      ],
      [
        "al",
        "t"
      ],
      [
        "Ġdo",
        "st"
      ],
      [
        "ĠD",
        "UCH"
      ],
      [
        "ĠD",
        "uke"
      ],
      [
        "ic",
        "es"
      ],
      [
        "de",
        "ed"
      ],
      [
        "Ġsle",
        "ep"
      ],
      [
        "urde",
        "rer"
      ],
      [
        "ĠDUCH",
        "ESS"
      ],
      [
        "p",
        "her"
      ],
      [
        "ou",
        "nt"
      ],
      [
        "it",
        "or"
      ],
      [
        "Ġo",
        "ver"
      ],
      [
        "Ġbe",
        "l"
      ],
      [
        "ER",
        "C"
      ],
      [
        "ĠAn",
        "ge"
      ],
      [
        "Ġbod",
        "y"
      ],
      [
        "m",
        "orrow"
      ],
      [
        "Ġ",
        "i"
      ],
      [
        "Ġs",
        "ound"
      ],
      [
        "Ġb",
        "u"
      ],
      [
        "Ġd",
        "ra"
      ],
      [
        "Ġin",
        "st"
      ],
      [
        "ut",
        "e"
      ],
      [
        "ĠH",
        "er"
      ],
      [
        "Ġfa",
        "ult"
      ],
      [
        "Ġat",
        "t"
      ],
      [
        "Ġthan",
        "k"
      ],
      [
        "ĠAnge",
        "lo"
      ],
      [
        "I",
        "A"
      ],
      [
        "i",
        "ence"
      ],
      [
        "is",
        "ed"
      ],
      [
        "Ġin",
        "deed"
      ],
      [
        "ĠC",
        "AMIL"
      ],
      [
        "Ġan",
        "other"
      ],
      [
        "Ġpro",
        "ve"
      ],
      [
        "Ġpl",
        "ay"
      ],
      [
        "Ġad",
        "v"
      ],
      [
        "Ġfal",
        "se"
      ],
      [
        "ĠCAMIL",
        "LO"
      ],
      [
        "i",
        "ly"
      ],
      [
        "Ġs",
        "er"
      ],
      [
        "om",
        "et"
      ],
      [
        "ĠW",
        "ould"
      ],
      [
        "Ġha",
        "s"
      ],
      [
        "Ġu",
        "se"
      ],
      [
        "Ġwe",
        "l"
      ],
      [
        "Ġre",
        "t"
      ],
      [
        "Ġde",
        "ed"
      ],
      [
        "ĠE",
        "ven"
      ],
      [
        "Ġv",
        "o"
      ],
      [
        "ie",
        "ve"
      ],
      [
        "Ġsw",
        "ord"
      ],
      [
        "ĠPro",
        "vost"
      ],
      [
        "Ġfell",
        "ow"
      ],
      [
        "T",
        "EN"
      ],
      [
        "Ġm",
        "atter"
      ],
      [
        "Ġb",
        "o"
      ],
      [
        "Ġf",
        "ight"
      ],
      [
        "Ġp",
        "ers"
      ],
      [
        "an",
        "s"
      ],
      [
        "ĠH",
        "OR"
      ],
      [
        "ill",
        "ain"
      ],
      [
        "Ġe",
        "ven"
      ],
      [
        "ad",
        "e"
      ],
      [
        "Ġfort",
        "une"
      ],
      [
        "TEN",
        "S"
      ],
      [
        "ĠHOR",
        "TENS"
      ],
      [
        "Ġs",
        "ent"
      ],
      [
        "ĠF",
        "RI"
      ],
      [
        "Ġso",
        "vere"
      ],
      [
        "ho",
        "ld"
      ],
      [
        "Ġpr",
        "ison"
      ],
      [
        "Ġgra",
        "ve"
      ],
      [
        "Ġcount",
        "ry"
      ],
      [
        "ĠUp",
        "on"
      ],
      [
        "ĠHORTENS",
        "IO"
      ],
      [
        "ĠFRI",
        "AR"
      ],
      [
        ",",
        "'"
      ],
      [
        "e",
        "al"
      ],
      [
        "Ġm",
        "erc"
      ],
      [
        "Ġd",
        "an"
      ],
      [
        "Ġc",
        "ur"
      ],
      [
        "Ġy",
        "ears"
      ],
      [
        "ĠA",
        "re"
      ],
      [
        "ĠB",
        "AP"
      ],
      [
        "ur",
        "y"
      ],
      [
        "Ġse",
        "nd"
      ],
      [
        "Ġv",
        "irt"
      ],
      [
        "Ġr",
        "ather"
      ],
      [
        "ST",
        "A"
      ],
      [
        "TI",
        "STA"
      ],
      [
        "Ġban",
        "ish"
      ],
      [
        "Ġdou",
        "bt"
      ],
      [
        "ĠBAP",
        "TISTA"
      ],
      [
        "C",
        "US"
      ],
      [
        "Y",
        "CUS"
      ],
      [
        "m",
        "p"
      ],
      [
        "ou",
        "ch"
      ],
      [
        "Ġw",
        "ant"
      ],
      [
        "Ġw",
        "ish"
      ],
      [
        "ĠT",
        "y"
      ],
      [
        "ĠA",
        "UT"
      ],
      [
        "Ġg",
        "r"
      ],
      [
        "Ġha",
        "ng"
      ],
      [
        "ĠC",
        "OM"
      ],
      [
        "Ġre",
        "ven"
      ],
      [
        "Ġas",
        "s"
      ],
      [
        "fe",
        "ct"
      ],
      [
        "pe",
        "ct"
      ],
      [
        "OL",
        "YCUS"
      ],
      [
        "Ġtr",
        "uth"
      ],
      [
        "Ġbus",
        "iness"
      ],
      [
        "ĠAUT",
        "OLYCUS"
      ],
      [
        "ĠCOM",
        "INIUS"
      ],
      [
        ".",
        "'"
      ],
      [
        "d",
        "d"
      ],
      [
        "ĠA",
        "t"
      ],
      [
        "ĠM",
        "ore"
      ],
      [
        "Ġre",
        "ason"
      ],
      [
        "Ġli",
        "es"
      ],
      [
        "Ġon",
        "ly"
      ],
      [
        "AR",
        "ENCE"
      ],
      [
        "Ġsha",
        "lt"
      ],
      [
        "ĠTh",
        "ird"
      ],
      [
        "Ġdis",
        "c"
      ],
      [
        "ĠCL",
        "ARENCE"
      ],
      [
        "e",
        "re"
      ],
      [
        "i",
        "or"
      ],
      [
        "m",
        "s"
      ],
      [
        "p",
        "en"
      ],
      [
        "r",
        "ance"
      ],
      [
        "Ġs",
        "ea"
      ],
      [
        "Ġc",
        "ra"
      ],
      [
        "Ġst",
        "ra"
      ],
      [
        "EN",
        "ES"
      ],
      [
        "Ġbre",
        "ath"
      ],
      [
        "Ġcomm",
        "and"
      ],
      [
        "Ġarm",
        "s"
      ],
      [
        "Ġdre",
        "am"
      ],
      [
        "pher",
        "d"
      ],
      [
        "V",
        "OL"
      ],
      [
        "d",
        "er"
      ],
      [
        "Ġl",
        "ay"
      ],
      [
        "en",
        "er"
      ],
      [
        "Ġp",
        "rom"
      ],
      [
        "Ġg",
        "i"
      ],
      [
        "ĠB",
        "EN"
      ],
      [
        "Ġst",
        "ran"
      ],
      [
        "ĠG",
        "entle"
      ],
      [
        "ĠN",
        "OR"
      ],
      [
        "Ġse",
        "c"
      ],
      [
        "ĠCl",
        "own"
      ],
      [
        "VOL",
        "IO"
      ],
      [
        "ĠBEN",
        "VOLIO"
      ],
      [
        "P",
        "ER"
      ],
      [
        "S",
        "PER"
      ],
      [
        "Ġs",
        "en"
      ],
      [
        "Ġs",
        "omet"
      ],
      [
        "Ġw",
        "ind"
      ],
      [
        "Ġp",
        "ity"
      ],
      [
        "ĠT",
        "ake"
      ],
      [
        "ĠP",
        "RO"
      ],
      [
        "Ġpr",
        "oud"
      ],
      [
        "Ġho",
        "ly"
      ],
      [
        "Ġen",
        "ough"
      ],
      [
        "UM",
        "IO"
      ],
      [
        "ĠGR",
        "UMIO"
      ],
      [
        "Ġcont",
        "ent"
      ],
      [
        "Ġrem",
        "em"
      ],
      [
        "SPER",
        "O"
      ],
      [
        "ĠPRO",
        "SPERO"
      ],
      [
        "U",
        "TIO"
      ],
      [
        "i",
        "a"
      ],
      [
        "k",
        "en"
      ],
      [
        "t",
        "en"
      ],
      [
        "he",
        "d"
      ],
      [
        "Ġd",
        "are"
      ],
      [
        "Ġth",
        "ree"
      ],
      [
        "at",
        "or"
      ],
      [
        "Ġbe",
        "a"
      ],
      [
        "ĠS",
        "u"
      ],
      [
        "ĠM",
        "urderer"
      ],
      [
        "ĠM",
        "ERC"
      ],
      [
        "Ġli",
        "ves"
      ],
      [
        "Ġso",
        "ld"
      ],
      [
        "ĠD",
        "id"
      ],
      [
        "ĠK",
        "ate"
      ],
      [
        "Ġsp",
        "ir"
      ],
      [
        "Ġfa",
        "re"
      ],
      [
        "Ġsw",
        "ear"
      ],
      [
        "ĠMERC",
        "UTIO"
      ],
      [
        "I",
        "S"
      ],
      [
        "i",
        "ke"
      ],
      [
        "Ġt",
        "end"
      ],
      [
        "Ġg",
        "et"
      ],
      [
        "et",
        "er"
      ],
      [
        "Ġwith",
        "in"
      ],
      [
        "Ġde",
        "p"
      ],
      [
        "Ġv",
        "illain"
      ],
      [
        "Ġgo",
        "ds"
      ],
      [
        "ĠWe",
        "re"
      ],
      [
        "ĠLUC",
        "ENTIO"
      ],
      [
        "ĠServ",
        "ant"
      ],
      [
        "Ġnat",
        "ure"
      ],
      [
        "Ġwel",
        "come"
      ],
      [
        "Ġs",
        "ister"
      ],
      [
        "ha",
        "m"
      ],
      [
        "Ġf",
        "oul"
      ],
      [
        "Ġf",
        "ree"
      ],
      [
        "Ġth",
        "ings"
      ],
      [
        "ar",
        "s"
      ],
      [
        "Ġg",
        "re"
      ],
      [
        "Ġk",
        "iss"
      ],
      [
        "ĠP",
        "OM"
      ],
      [
        "est",
        "er"
      ],
      [
        "Ġsa",
        "w"
      ],
      [
        "Ġmad",
        "am"
      ],
      [
        "LAN",
        "D"
      ],
      [
        "Ġmist",
        "ress"
      ],
      [
        "Ġhapp",
        "y"
      ],
      [
        "Ġsovere",
        "ign"
      ],
      [
        "ĠPOM",
        "P"
      ],
      [
        "L",
        "INA"
      ],
      [
        "a",
        "pt"
      ],
      [
        "i",
        "ent"
      ],
      [
        "u",
        "nt"
      ],
      [
        "ha",
        "l"
      ],
      [
        "Ġc",
        "ity"
      ],
      [
        "Ġy",
        "ield"
      ],
      [
        "an",
        "y"
      ],
      [
        "ĠW",
        "as"
      ],
      [
        "ĠG",
        "ive"
      ],
      [
        "ĠP",
        "AU"
      ],
      [
        "ver",
        "s"
      ],
      [
        "Ġbre",
        "ak"
      ],
      [
        "Ġmean",
        "s"
      ],
      [
        "Ġsub",
        "ject"
      ],
      [
        "Ġbes",
        "eech"
      ],
      [
        "ĠPAU",
        "LINA"
      ],
      [
        "Ġa",
        "w"
      ],
      [
        "Ġm",
        "er"
      ],
      [
        "Ġb",
        "orn"
      ],
      [
        "er",
        "y"
      ],
      [
        "Ġd",
        "en"
      ],
      [
        "Ġh",
        "orse"
      ],
      [
        "Ġo",
        "ath"
      ],
      [
        "ĠS",
        "ay"
      ],
      [
        "Ġyour",
        "s"
      ],
      [
        "ĠL",
        "ook"
      ],
      [
        "ond",
        "er"
      ],
      [
        "gain",
        "st"
      ],
      [
        "ag",
        "ue"
      ],
      [
        "ef",
        "t"
      ],
      [
        "get",
        "her"
      ],
      [
        "ĠGRE",
        "MIO"
      ],
      [
        "ĠPOMP",
        "EY"
      ],
      [
        "N",
        "IA"
      ],
      [
        "O",
        "LI"
      ],
      [
        "X",
        "ENES"
      ],
      [
        "b",
        "alt"
      ],
      [
        "Ġt",
        "em"
      ],
      [
        "Ġw",
        "ound"
      ],
      [
        "Ġw",
        "hile"
      ],
      [
        "Ġf",
        "ire"
      ],
      [
        "Ġd",
        "ru"
      ],
      [
        "an",
        "c"
      ],
      [
        "ĠC",
        "om"
      ],
      [
        "Ġyour",
        "self"
      ],
      [
        "ĠP",
        "OLI"
      ],
      [
        "us",
        "ic"
      ],
      [
        "Ġsu",
        "pp"
      ],
      [
        "Ġfa",
        "ith"
      ],
      [
        "ĠV",
        "OL"
      ],
      [
        "Ġblood",
        "y"
      ],
      [
        "Ġlook",
        "s"
      ],
      [
        "UM",
        "NIA"
      ],
      [
        "che",
        "s"
      ],
      [
        "ĠEng",
        "land"
      ],
      [
        "ĠPOLI",
        "XENES"
      ],
      [
        "ĠVOL",
        "UMNIA"
      ],
      [
        "e",
        "y"
      ],
      [
        "u",
        "es"
      ],
      [
        "Ġs",
        "it"
      ],
      [
        "Ġw",
        "in"
      ],
      [
        "Ġc",
        "ar"
      ],
      [
        "Ġc",
        "ond"
      ],
      [
        "en",
        "ger"
      ],
      [
        "ing",
        "man"
      ],
      [
        "ĠH",
        "AST"
      ],
      [
        "ĠF",
        "are"
      ],
      [
        "Ġre",
        "qu"
      ],
      [
        "Ġsp",
        "o"
      ],
      [
        "ING",
        "S"
      ],
      [
        "Ġcomm",
        "on"
      ],
      [
        "Ġma",
        "j"
      ],
      [
        "ĠServ",
        "ingman"
      ],
      [
        "Ġtra",
        "itor"
      ],
      [
        "cent",
        "io"
      ],
      [
        "ĠHAST",
        "INGS"
      ],
      [
        "R",
        "ENCE"
      ],
      [
        "b",
        "y"
      ],
      [
        "b",
        "roke"
      ],
      [
        "r",
        "ong"
      ],
      [
        "Ġm",
        "on"
      ],
      [
        "Ġl",
        "am"
      ],
      [
        "ĠH",
        "ast"
      ],
      [
        "ĠM",
        "ay"
      ],
      [
        "ĠC",
        "an"
      ],
      [
        "ĠL",
        "AU"
      ],
      [
        "Ġde",
        "f"
      ],
      [
        "ess",
        "enger"
      ],
      [
        "Ġun",
        "cle"
      ],
      [
        "Ġmar",
        "k"
      ],
      [
        "Ġchild",
        "ren"
      ],
      [
        "ert",
        "ain"
      ],
      [
        "ĠLAU",
        "RENCE"
      ],
      [
        "B",
        "Y"
      ],
      [
        "B",
        "ER"
      ],
      [
        "Ġs",
        "ight"
      ],
      [
        "Ġm",
        "et"
      ],
      [
        "Ġl",
        "ate"
      ],
      [
        "Ġl",
        "eft"
      ],
      [
        "ĠA",
        "h"
      ],
      [
        "Ġbe",
        "at"
      ],
      [
        "Ġso",
        "on"
      ],
      [
        "Ġv",
        "al"
      ],
      [
        "ĠJ",
        "ul"
      ],
      [
        "ĠThere",
        "fore"
      ],
      [
        "for",
        "m"
      ],
      [
        "Ġdan",
        "ger"
      ],
      [
        "ĠTy",
        "balt"
      ],
      [
        "Ġtend",
        "er"
      ],
      [
        "Ġmaj",
        "esty"
      ],
      [
        "F",
        "F"
      ],
      [
        "u",
        "se"
      ],
      [
        "Ġs",
        "in"
      ],
      [
        "Ġto",
        "ld"
      ],
      [
        "ĠS",
        "p"
      ],
      [
        "Ġse",
        "en"
      ],
      [
        "Ġsu",
        "re"
      ],
      [
        "LI",
        "FF"
      ],
      [
        "Ġsa",
        "ve"
      ],
      [
        "Ġfo",
        "ot"
      ],
      [
        "Ġday",
        "s"
      ],
      [
        "Ġwar",
        "rant"
      ],
      [
        "UM",
        "BER"
      ],
      [
        "li",
        "ke"
      ],
      [
        "TH",
        "UMBER"
      ],
      [
        "Ġwo",
        "e"
      ],
      [
        "ĠNOR",
        "THUMBER"
      ],
      [
        "ĠNORTHUMBER",
        "LAND"
      ],
      [
        "I",
        "D"
      ],
      [
        "T",
        "A"
      ],
      [
        "t",
        "ing"
      ],
      [
        "Ġs",
        "ad"
      ],
      [
        "re",
        "m"
      ],
      [
        "Ġg",
        "ener"
      ],
      [
        "ĠL",
        "u"
      ],
      [
        "id",
        "es"
      ],
      [
        "id",
        "ow"
      ],
      [
        "ĠP",
        "l"
      ],
      [
        "Ġdo",
        "es"
      ],
      [
        "Ġrep",
        "ort"
      ],
      [
        "Ġret",
        "urn"
      ],
      [
        "Ġmerc",
        "y"
      ],
      [
        "Ġfare",
        "well"
      ],
      [
        "d",
        "om"
      ],
      [
        "r",
        "ing"
      ],
      [
        "u",
        "p"
      ],
      [
        "he",
        "s"
      ],
      [
        "re",
        "l"
      ],
      [
        "Ġto",
        "gether"
      ],
      [
        "Ġwith",
        "out"
      ],
      [
        "Ġde",
        "ep"
      ],
      [
        "ter",
        "s"
      ],
      [
        "ear",
        "n"
      ],
      [
        "Ġgo",
        "ld"
      ],
      [
        "un",
        "es"
      ],
      [
        "ĠThou",
        "gh"
      ],
      [
        "Ġmar",
        "ry"
      ],
      [
        "Ġhea",
        "vy"
      ],
      [
        "ĠAN",
        "NE"
      ],
      [
        "Ġpur",
        "pose"
      ],
      [
        "Ġthr",
        "ough"
      ],
      [
        "R",
        "INC"
      ],
      [
        "a",
        "im"
      ],
      [
        "b",
        "l"
      ],
      [
        "c",
        "a"
      ],
      [
        "c",
        "her"
      ],
      [
        "i",
        "ct"
      ],
      [
        "v",
        "ent"
      ],
      [
        "Ġ",
        "ill"
      ],
      [
        "Ġc",
        "ho"
      ],
      [
        "Ġc",
        "old"
      ],
      [
        "Ġn",
        "urse"
      ],
      [
        "Ġg",
        "row"
      ],
      [
        "ĠH",
        "ad"
      ],
      [
        "ĠM",
        "ont"
      ],
      [
        "Ġre",
        "c"
      ],
      [
        "ĠP",
        "RINC"
      ],
      [
        "if",
        "ford"
      ],
      [
        "Ġlo",
        "st"
      ],
      [
        "ER",
        "D"
      ],
      [
        "ign",
        "ior"
      ],
      [
        "ĠCl",
        "ifford"
      ],
      [
        "Ġear",
        "s"
      ],
      [
        "Ġdes",
        "er"
      ],
      [
        "ment",
        "s"
      ],
      [
        "Ġpers",
        "on"
      ],
      [
        "Ġstran",
        "ge"
      ],
      [
        "ĠJul",
        "iet"
      ],
      [
        "ĠPRINC",
        "E"
      ],
      [
        "a",
        "z"
      ],
      [
        "m",
        "er"
      ],
      [
        "Ġt",
        "imes"
      ],
      [
        "Ġw",
        "at"
      ],
      [
        "or",
        "iol"
      ],
      [
        "ĠT",
        "ell"
      ],
      [
        "ing",
        "broke"
      ],
      [
        "ce",
        "ed"
      ],
      [
        "ĠB",
        "ol"
      ],
      [
        "ĠM",
        "I"
      ],
      [
        "ĠC",
        "am"
      ],
      [
        "our",
        "s"
      ],
      [
        "ent",
        "y"
      ],
      [
        "Ġas",
        "k"
      ],
      [
        "ĠR",
        "i"
      ],
      [
        "ro",
        "ss"
      ],
      [
        "Ġthy",
        "self"
      ],
      [
        "us",
        "h"
      ],
      [
        "Ġsu",
        "ff"
      ],
      [
        "Ġpl",
        "uck"
      ],
      [
        "Ġdis",
        "p"
      ],
      [
        "Ġlie",
        "ge"
      ],
      [
        "Ġbel",
        "ieve"
      ],
      [
        "Ġspir",
        "it"
      ],
      [
        "ĠBol",
        "ingbroke"
      ],
      [
        "e",
        "ver"
      ],
      [
        "Ġa",
        "ir"
      ],
      [
        "Ġa",
        "ge"
      ],
      [
        "Ġs",
        "il"
      ],
      [
        "Ġl",
        "earn"
      ],
      [
        "ĠA",
        "way"
      ],
      [
        "Ġhe",
        "ir"
      ],
      [
        "ĠW",
        "h"
      ],
      [
        "et",
        "s"
      ],
      [
        "ĠS",
        "ome"
      ],
      [
        "ĠS",
        "ignior"
      ],
      [
        "ĠH",
        "a"
      ],
      [
        "ain",
        "s"
      ],
      [
        "if",
        "t"
      ],
      [
        "Ġlo",
        "ss"
      ],
      [
        "Ġsay",
        "s"
      ],
      [
        "Ġj",
        "o"
      ],
      [
        "Ġpo",
        "int"
      ],
      [
        "ĠWho",
        "se"
      ],
      [
        "ĠOn",
        "e"
      ],
      [
        "ĠSh",
        "ould"
      ],
      [
        "a",
        "id"
      ],
      [
        "i",
        "al"
      ],
      [
        "n",
        "er"
      ],
      [
        "Ġb",
        "at"
      ],
      [
        "Ġf",
        "ly"
      ],
      [
        "Ġc",
        "ry"
      ],
      [
        "Ġp",
        "ast"
      ],
      [
        "ce",
        "d"
      ],
      [
        "ĠC",
        "oriol"
      ],
      [
        "Ġfri",
        "ar"
      ],
      [
        "Ġtru",
        "st"
      ],
      [
        "Ġdes",
        "ire"
      ],
      [
        "Ġhast",
        "e"
      ],
      [
        "Ġent",
        "reat"
      ],
      [
        "Ġjust",
        "ice"
      ],
      [
        "Ġdev",
        "il"
      ],
      [
        "Ġinst",
        "ru"
      ],
      [
        "Ġgr",
        "ound"
      ],
      [
        "ĠFare",
        "well"
      ],
      [
        "g",
        "u"
      ],
      [
        "g",
        "es"
      ],
      [
        "n",
        "ight"
      ],
      [
        "s",
        "h"
      ],
      [
        "Ġ",
        "ord"
      ],
      [
        "ou",
        "th"
      ],
      [
        "Ġm",
        "ur"
      ],
      [
        "in",
        "a"
      ],
      [
        "in",
        "ed"
      ],
      [
        "Ġb",
        "old"
      ],
      [
        "Ġf",
        "ound"
      ],
      [
        "Ġn",
        "ear"
      ],
      [
        "Ġto",
        "ward"
      ],
      [
        "ĠS",
        "en"
      ],
      [
        "ĠL",
        "ike"
      ],
      [
        "ĠF",
        "rance"
      ],
      [
        "ĠP",
        "ray"
      ],
      [
        "Ġfa",
        "st"
      ],
      [
        "Ġv",
        "is"
      ],
      [
        "au",
        "d"
      ],
      [
        "ak",
        "ing"
      ],
      [
        "Ġsl",
        "ain"
      ],
      [
        "Ġbet",
        "w"
      ],
      [
        "ix",
        "t"
      ],
      [
        "Ġserv",
        "ice"
      ],
      [
        "Ġstra",
        "ight"
      ],
      [
        "Ġremem",
        "ber"
      ],
      [
        "F",
        "ID"
      ],
      [
        "I",
        "Z"
      ],
      [
        "L",
        "E"
      ],
      [
        "L",
        "OR"
      ],
      [
        "U",
        "FID"
      ],
      [
        "Ġc",
        "urse"
      ],
      [
        "ĠA",
        "UFID"
      ],
      [
        "om",
        "an"
      ],
      [
        "ut",
        "ion"
      ],
      [
        "ĠM",
        "essenger"
      ],
      [
        "Ġwe",
        "ar"
      ],
      [
        "Ġst",
        "rong"
      ],
      [
        "ĠF",
        "LOR"
      ],
      [
        "ĠG",
        "l"
      ],
      [
        "ĠThe",
        "se"
      ],
      [
        "Ġqu",
        "ick"
      ],
      [
        "Ġmar",
        "ried"
      ],
      [
        "Ġal",
        "one"
      ],
      [
        "Ġhar",
        "d"
      ],
      [
        "Ġworth",
        "y"
      ],
      [
        "Ġbea",
        "uty"
      ],
      [
        "IZ",
        "EL"
      ],
      [
        "ĠAUFID",
        "IUS"
      ],
      [
        "ĠFLOR",
        "IZEL"
      ],
      [
        "T",
        "ON"
      ],
      [
        "n",
        "ing"
      ],
      [
        "x",
        "t"
      ],
      [
        "Ġt",
        "ouch"
      ],
      [
        "Ġw",
        "oo"
      ],
      [
        "Ġf",
        "it"
      ],
      [
        "it",
        "he"
      ],
      [
        "Ġh",
        "u"
      ],
      [
        "Ġo",
        "pen"
      ],
      [
        "Ġg",
        "rant"
      ],
      [
        "Ġbe",
        "c"
      ],
      [
        "le",
        "t"
      ],
      [
        "ĠS",
        "ee"
      ],
      [
        "ad",
        "am"
      ],
      [
        "Ġre",
        "ady"
      ],
      [
        "IO",
        "N"
      ],
      [
        "Ġbr",
        "ought"
      ],
      [
        "ure",
        "d"
      ],
      [
        "Ġpo",
        "ss"
      ],
      [
        "ĠCl",
        "aud"
      ],
      [
        "Ġex",
        "ec"
      ],
      [
        "Ġru",
        "n"
      ],
      [
        "Ġenem",
        "y"
      ],
      [
        "Ġreven",
        "ge"
      ],
      [
        "Ġgener",
        "al"
      ],
      [
        "ĠClaud",
        "io"
      ],
      [
        "!",
        "'"
      ],
      [
        "b",
        "s"
      ],
      [
        "g",
        "s"
      ],
      [
        "i",
        "ble"
      ],
      [
        "Ġf",
        "ur"
      ],
      [
        "Ġd",
        "uty"
      ],
      [
        "Ġyou",
        "th"
      ],
      [
        "Ġin",
        "c"
      ],
      [
        "Ġin",
        "f"
      ],
      [
        "ce",
        "pt"
      ],
      [
        "Ġis",
        "s"
      ],
      [
        "Ġit",
        "self"
      ],
      [
        "Ġde",
        "li"
      ],
      [
        "Ġlo",
        "se"
      ],
      [
        "ER",
        "S"
      ],
      [
        "au",
        "nt"
      ],
      [
        "Ġknow",
        "s"
      ],
      [
        "Ġcan",
        "st"
      ],
      [
        "ink",
        "s"
      ],
      [
        "Ġqu",
        "ar"
      ],
      [
        "Ġpro",
        "f"
      ],
      [
        "um",
        "ber"
      ],
      [
        "Ġthought",
        "s"
      ],
      [
        "Ġhour",
        "s"
      ],
      [
        "Ġchar",
        "ge"
      ],
      [
        "Ġconf",
        "ess"
      ],
      [
        "ĠGentle",
        "man"
      ],
      [
        "ĠSen",
        "ator"
      ],
      [
        "A",
        "S"
      ],
      [
        "B",
        "AST"
      ],
      [
        "C",
        "IUS"
      ],
      [
        "E",
        "BAST"
      ],
      [
        "c",
        "ester"
      ],
      [
        "p",
        "l"
      ],
      [
        "s",
        "hip"
      ],
      [
        "u",
        "a"
      ],
      [
        "v",
        "o"
      ],
      [
        "Ġm",
        "orn"
      ],
      [
        "Ġf",
        "eel"
      ],
      [
        "Ġp",
        "ar"
      ],
      [
        "ĠA",
        "gainst"
      ],
      [
        "ĠB",
        "ec"
      ],
      [
        "ĠS",
        "EBAST"
      ],
      [
        "ĠM",
        "aster"
      ],
      [
        "ĠM",
        "adam"
      ],
      [
        "ill",
        "o"
      ],
      [
        "ri",
        "age"
      ],
      [
        "Ġre",
        "ad"
      ],
      [
        "Ġde",
        "l"
      ],
      [
        "Ġsp",
        "eed"
      ],
      [
        "Ġdes",
        "p"
      ],
      [
        "Ġtw",
        "enty"
      ],
      [
        "Ġstand",
        "s"
      ],
      [
        "ĠMAR",
        "CIUS"
      ],
      [
        "ĠShe",
        "pherd"
      ],
      [
        "che",
        "d"
      ],
      [
        "Ġstre",
        "ng"
      ],
      [
        "ĠMont",
        "ague"
      ],
      [
        "ĠGl",
        "ou"
      ],
      [
        "ithe",
        "e"
      ],
      [
        "ĠSEBAST",
        "IAN"
      ],
      [
        "O",
        "W"
      ],
      [
        "c",
        "ess"
      ],
      [
        "e",
        "ep"
      ],
      [
        "o",
        "p"
      ],
      [
        "t",
        "ed"
      ],
      [
        "Ġf",
        "ore"
      ],
      [
        "Ġf",
        "ield"
      ],
      [
        "Ġd",
        "iv"
      ],
      [
        "Ġp",
        "ost"
      ],
      [
        "Ġhe",
        "ll"
      ],
      [
        "ing",
        "ham"
      ],
      [
        "Ġbe",
        "hold"
      ],
      [
        "Ġha",
        "lf"
      ],
      [
        "oo",
        "p"
      ],
      [
        "ĠP",
        "r"
      ],
      [
        "ol",
        "k"
      ],
      [
        "fe",
        "ction"
      ],
      [
        "Ġj",
        "ud"
      ],
      [
        "um",
        "p"
      ],
      [
        "Ġfear",
        "ful"
      ],
      [
        "Ġmo",
        "ck"
      ],
      [
        "Ġres",
        "ol"
      ],
      [
        "Ġcoun",
        "sel"
      ],
      [
        "ĠCam",
        "illo"
      ],
      [
        "D",
        "EL"
      ],
      [
        "n",
        "o"
      ],
      [
        "Ġt",
        "er"
      ],
      [
        "Ġm",
        "in"
      ],
      [
        "Ġw",
        "ret"
      ],
      [
        "Ġb",
        "ound"
      ],
      [
        "Ġb",
        "os"
      ],
      [
        "Ġd",
        "am"
      ],
      [
        "Ġc",
        "ut"
      ],
      [
        "Ġy",
        "e"
      ],
      [
        "ĠT",
        "ill"
      ],
      [
        "ĠB",
        "o"
      ],
      [
        "ĠB",
        "uck"
      ],
      [
        "ĠB",
        "ION"
      ],
      [
        "Ġe",
        "ach"
      ],
      [
        "ad",
        "s"
      ],
      [
        "al",
        "m"
      ],
      [
        "Ġsh",
        "ort"
      ],
      [
        "ĠV",
        "ol"
      ],
      [
        "Ġknow",
        "n"
      ],
      [
        "Ġwor",
        "k"
      ],
      [
        "ort",
        "al"
      ],
      [
        "Ġheart",
        "s"
      ],
      [
        "Ġmar",
        "riage"
      ],
      [
        "Ġhon",
        "est"
      ],
      [
        "Ġtri",
        "b"
      ],
      [
        "ĠHast",
        "ings"
      ],
      [
        "ĠGlou",
        "cester"
      ],
      [
        "DEL",
        "LO"
      ],
      [
        "Ġbos",
        "om"
      ],
      [
        "ĠBuck",
        "ingham"
      ],
      [
        "ĠBION",
        "DELLO"
      ],
      [
        "f",
        "olk"
      ],
      [
        "i",
        "ers"
      ],
      [
        "o",
        "f"
      ],
      [
        "p",
        "are"
      ],
      [
        "s",
        "c"
      ],
      [
        "t",
        "he"
      ],
      [
        "Ġ",
        "ve"
      ],
      [
        "Ġt",
        "it"
      ],
      [
        "Ġt",
        "en"
      ],
      [
        "Ġt",
        "ale"
      ],
      [
        "Ġw",
        "hi"
      ],
      [
        "Ġw",
        "onder"
      ],
      [
        "Ġw",
        "idow"
      ],
      [
        "Ġb",
        "it"
      ],
      [
        "on",
        "es"
      ],
      [
        "Ġd",
        "ish"
      ],
      [
        "en",
        "ch"
      ],
      [
        "ĠC",
        "ap"
      ],
      [
        "ra",
        "h"
      ],
      [
        "ĠTh",
        "us"
      ],
      [
        "Ġsu",
        "it"
      ],
      [
        "Ġsee",
        "k"
      ],
      [
        "ĠNor",
        "folk"
      ],
      [
        "Ġwom",
        "en"
      ],
      [
        "Ġhar",
        "m"
      ],
      [
        "Ġcomp",
        "any"
      ],
      [
        "Ġgu",
        "ilt"
      ],
      [
        "Ġhigh",
        "ness"
      ],
      [
        "Ġstri",
        "ke"
      ],
      [
        "Ġdra",
        "w"
      ],
      [
        "Ġatt",
        "end"
      ],
      [
        "Ġser",
        "ve"
      ],
      [
        "Ġvo",
        "ices"
      ],
      [
        "Ġsomet",
        "hing"
      ],
      [
        "Ġmur",
        "der"
      ],
      [
        "ĠVol",
        "s"
      ],
      [
        "O",
        "P"
      ],
      [
        "T",
        "w"
      ],
      [
        "h",
        "ood"
      ],
      [
        "m",
        "ost"
      ],
      [
        "Ġa",
        "g"
      ],
      [
        "Ġs",
        "ing"
      ],
      [
        "Ġs",
        "at"
      ],
      [
        "Ġs",
        "ide"
      ],
      [
        "Ġw",
        "atch"
      ],
      [
        "Ġb",
        "ur"
      ],
      [
        "is",
        "hed"
      ],
      [
        "Ġc",
        "or"
      ],
      [
        "ĠA",
        "UM"
      ],
      [
        "ĠC",
        "A"
      ],
      [
        "and",
        "er"
      ],
      [
        "Ġlo",
        "ving"
      ],
      [
        "Ġkn",
        "ew"
      ],
      [
        "ER",
        "LE"
      ],
      [
        "Ġdid",
        "st"
      ],
      [
        "Ġdis",
        "t"
      ],
      [
        "Ġgentle",
        "men"
      ],
      [
        "ĠAN",
        "TON"
      ],
      [
        "Ġpre",
        "t"
      ],
      [
        "Ġheaven",
        "s"
      ],
      [
        "Ġchan",
        "ge"
      ],
      [
        "ĠLu",
        "centio"
      ],
      [
        "Ġstreng",
        "th"
      ],
      [
        "ĠAUM",
        "ERLE"
      ],
      [
        "ĠANTON",
        "IO"
      ],
      [
        "A",
        "LO"
      ],
      [
        "Z",
        "ALO"
      ],
      [
        "Ġa",
        "ct"
      ],
      [
        "Ġs",
        "ake"
      ],
      [
        "Ġw",
        "ast"
      ],
      [
        "ĠT",
        "ran"
      ],
      [
        "ĠW",
        "el"
      ],
      [
        "ĠB",
        "ian"
      ],
      [
        "ent",
        "s"
      ],
      [
        "Ġst",
        "ir"
      ],
      [
        "ĠL",
        "anc"
      ],
      [
        "ĠG",
        "ON"
      ],
      [
        "ĠP",
        "et"
      ],
      [
        "ĠMar",
        "ry"
      ],
      [
        "Ġaf",
        "f"
      ],
      [
        "Ġcl",
        "oud"
      ],
      [
        "Ġple",
        "asure"
      ],
      [
        "Ġent",
        "er"
      ],
      [
        "Ġbra",
        "ve"
      ],
      [
        "eth",
        "inks"
      ],
      [
        "Ġenem",
        "ies"
      ],
      [
        "ĠLanc",
        "aster"
      ],
      [
        "ĠGON",
        "ZALO"
      ],
      [
        "b",
        "ly"
      ],
      [
        "f",
        "id"
      ],
      [
        "i",
        "ves"
      ],
      [
        "Ġt",
        "y"
      ],
      [
        "Ġs",
        "ign"
      ],
      [
        "Ġm",
        "usic"
      ],
      [
        "Ġw",
        "a"
      ],
      [
        "re",
        "w"
      ],
      [
        "Ġb",
        "reat"
      ],
      [
        "Ġd",
        "r"
      ],
      [
        "Ġp",
        "ra"
      ],
      [
        "Ġp",
        "ie"
      ],
      [
        "Ġp",
        "ale"
      ],
      [
        "Ġg",
        "ar"
      ],
      [
        "Ġg",
        "ates"
      ],
      [
        "ĠS",
        "w"
      ],
      [
        "ĠH",
        "ER"
      ],
      [
        "ĠM",
        "ost"
      ],
      [
        "oo",
        "se"
      ],
      [
        "ĠL",
        "ady"
      ],
      [
        "ĠP",
        "om"
      ],
      [
        "il",
        "s"
      ],
      [
        "Ġne",
        "xt"
      ],
      [
        "Ġcom",
        "ing"
      ],
      [
        "Ġthan",
        "ks"
      ],
      [
        "Ġex",
        "t"
      ],
      [
        "ĠU",
        "nt"
      ],
      [
        "Ġcl",
        "ose"
      ],
      [
        "Ġsoul",
        "s"
      ],
      [
        "Ġbeg",
        "g"
      ],
      [
        "Ġcour",
        "se"
      ],
      [
        "Ġwit",
        "hal"
      ],
      [
        "Ġche",
        "e"
      ],
      [
        "ceive",
        "d"
      ],
      [
        "Ġsuff",
        "er"
      ],
      [
        "Ġdeli",
        "ver"
      ],
      [
        "Ġtit",
        "le"
      ],
      [
        "ĠBian",
        "ca"
      ],
      [
        "D",
        "IO"
      ],
      [
        "b",
        "e"
      ],
      [
        "v",
        "our"
      ],
      [
        "Ġs",
        "k"
      ],
      [
        "Ġs",
        "ick"
      ],
      [
        "ĠA",
        "u"
      ],
      [
        "ow",
        "ard"
      ],
      [
        "Ġbe",
        "come"
      ],
      [
        "et",
        "ch"
      ],
      [
        "Ġfor",
        "g"
      ],
      [
        "ĠC",
        "h"
      ],
      [
        "ĠC",
        "LIFF"
      ],
      [
        "Ġwe",
        "ak"
      ],
      [
        "Ġe",
        "ither"
      ],
      [
        "Ġli",
        "ps"
      ],
      [
        "Ġthem",
        "selves"
      ],
      [
        "el",
        "s"
      ],
      [
        "Ġj",
        "est"
      ],
      [
        "Ġpl",
        "ain"
      ],
      [
        "Ġab",
        "s"
      ],
      [
        "Ġri",
        "ch"
      ],
      [
        "AU",
        "DIO"
      ],
      [
        "Ġgri",
        "e"
      ],
      [
        "ĠCL",
        "AUDIO"
      ],
      [
        "cl",
        "aim"
      ],
      [
        "MIO",
        "NE"
      ],
      [
        "Ġpat",
        "ience"
      ],
      [
        "ĠRi",
        "ch"
      ],
      [
        "Ġord",
        "er"
      ],
      [
        "ĠPet",
        "ru"
      ],
      [
        "ĠHER",
        "MIONE"
      ],
      [
        "ĠCLIFF",
        "ORD"
      ],
      [
        "D",
        "A"
      ],
      [
        "k",
        "es"
      ],
      [
        "s",
        "es"
      ],
      [
        "Ġa",
        "c"
      ],
      [
        "Ġs",
        "ame"
      ],
      [
        "Ġw",
        "is"
      ],
      [
        "Ġw",
        "all"
      ],
      [
        "re",
        "st"
      ],
      [
        "re",
        "ady"
      ],
      [
        "is",
        "f"
      ],
      [
        "ll",
        "y"
      ],
      [
        "Ġc",
        "ast"
      ],
      [
        "ar",
        "ry"
      ],
      [
        "ir",
        "th"
      ],
      [
        "ĠB",
        "es"
      ],
      [
        "ĠS",
        "ince"
      ],
      [
        "ch",
        "io"
      ],
      [
        "ĠM",
        "ake"
      ],
      [
        "Ġfor",
        "b"
      ],
      [
        "Ġfor",
        "get"
      ],
      [
        "ĠC",
        "all"
      ],
      [
        "oo",
        "f"
      ],
      [
        "ri",
        "es"
      ],
      [
        "ĠL",
        "ORD"
      ],
      [
        "Ġre",
        "g"
      ],
      [
        "ra",
        "ce"
      ],
      [
        "ur",
        "p"
      ],
      [
        "ea",
        "st"
      ],
      [
        "ĠE",
        "L"
      ],
      [
        "Ġv",
        "en"
      ],
      [
        "Ġsw",
        "orn"
      ],
      [
        "Ġwor",
        "se"
      ],
      [
        "Ġpro",
        "p"
      ],
      [
        "Ġtoo",
        "k"
      ],
      [
        "ĠJ",
        "O"
      ],
      [
        "Ġpo",
        "ison"
      ],
      [
        "Ġal",
        "ong"
      ],
      [
        "ĠBe",
        "ing"
      ],
      [
        "Ġbre",
        "ast"
      ],
      [
        "Ġcons",
        "ul"
      ],
      [
        "RAN",
        "DA"
      ],
      [
        "tw",
        "as"
      ],
      [
        "tw",
        "ere"
      ],
      [
        "Ġche",
        "er"
      ],
      [
        "Ġvirt",
        "ue"
      ],
      [
        "Ġmer",
        "ry"
      ],
      [
        "ĠMI",
        "RANDA"
      ],
      [
        "Ġfur",
        "ther"
      ],
      [
        "ĠTran",
        "io"
      ],
      [
        "fid",
        "ius"
      ],
      [
        "ĠAu",
        "fidius"
      ],
      [
        "ĠPetru",
        "chio"
      ],
      [
        "H",
        "N"
      ],
      [
        "S",
        "ON"
      ],
      [
        "c",
        "y"
      ],
      [
        "l",
        "st"
      ],
      [
        "m",
        "it"
      ],
      [
        "Ġt",
        "a"
      ],
      [
        "Ġm",
        "outh"
      ],
      [
        "Ġw",
        "ed"
      ],
      [
        "Ġw",
        "ise"
      ],
      [
        "Ġb",
        "ad"
      ],
      [
        "Ġb",
        "ook"
      ],
      [
        "Ġf",
        "our"
      ],
      [
        "Ġd",
        "u"
      ],
      [
        "Ġd",
        "ire"
      ],
      [
        "Ġc",
        "r"
      ],
      [
        "Ġg",
        "ave"
      ],
      [
        "Ġe",
        "mb"
      ],
      [
        "Ġre",
        "d"
      ],
      [
        "Ġli",
        "ber"
      ],
      [
        "Ġso",
        "ft"
      ],
      [
        "ĠR",
        "e"
      ],
      [
        "ver",
        "n"
      ],
      [
        "Ġse",
        "lf"
      ],
      [
        "ru",
        "st"
      ],
      [
        "ion",
        "s"
      ],
      [
        "Ġlo",
        "ves"
      ],
      [
        "row",
        "s"
      ],
      [
        "all",
        "y"
      ],
      [
        "Ġen",
        "c"
      ],
      [
        "Ġoff",
        "ice"
      ],
      [
        "Ġal",
        "ready"
      ],
      [
        "Ġwr",
        "it"
      ],
      [
        "Ġmo",
        "ve"
      ],
      [
        "ĠHere",
        "ford"
      ],
      [
        "Ġbeg",
        "in"
      ],
      [
        "Ġcons",
        "ent"
      ],
      [
        "ĠAl",
        "as"
      ],
      [
        "Ġgi",
        "ven"
      ],
      [
        "Ġrequ",
        "est"
      ],
      [
        "Ġdanger",
        "ous"
      ],
      [
        "Ġbat",
        "tle"
      ],
      [
        "Ġiss",
        "ue"
      ],
      [
        "Ġmorn",
        "ing"
      ],
      [
        "ĠJO",
        "HN"
      ],
      [
        "f",
        "ter"
      ],
      [
        "m",
        "ond"
      ],
      [
        "m",
        "ber"
      ],
      [
        "n",
        "k"
      ],
      [
        "p",
        "es"
      ],
      [
        "r",
        "ist"
      ],
      [
        "u",
        "ous"
      ],
      [
        "u",
        "sed"
      ],
      [
        "Ġb",
        "urn"
      ],
      [
        "or",
        "ge"
      ],
      [
        "Ġf",
        "rown"
      ],
      [
        "Ġf",
        "east"
      ],
      [
        "Ġl",
        "ad"
      ],
      [
        "Ġp",
        "ay"
      ],
      [
        "ĠT",
        "ower"
      ],
      [
        "an",
        "us"
      ],
      [
        "Ġg",
        "ro"
      ],
      [
        "at",
        "s"
      ],
      [
        "ĠY",
        "es"
      ],
      [
        "ea",
        "ch"
      ],
      [
        "Ġsu",
        "cc"
      ],
      [
        "Ġne",
        "ither"
      ],
      [
        "ic",
        "er"
      ],
      [
        "Ġbl",
        "ack"
      ],
      [
        "Ġgo",
        "es"
      ],
      [
        "Ġson",
        "s"
      ],
      [
        "Ġex",
        "p"
      ],
      [
        "Ġfo",
        "e"
      ],
      [
        "ĠBe",
        "fore"
      ],
      [
        "Ġtr",
        "ou"
      ],
      [
        "dd",
        "en"
      ],
      [
        "Ġsold",
        "iers"
      ],
      [
        "Ġwound",
        "s"
      ],
      [
        "ĠSp",
        "eak"
      ],
      [
        "Ġbetw",
        "een"
      ],
      [
        "Ġquar",
        "rel"
      ],
      [
        "Ġsat",
        "isf"
      ],
      [
        "ĠRich",
        "mond"
      ],
      [
        "N",
        "T"
      ],
      [
        "c",
        "han"
      ],
      [
        "g",
        "ing"
      ],
      [
        "g",
        "are"
      ],
      [
        "i",
        "res"
[...]
